<pad>	0
<unk>	0
<s>	0
</s>	0
▁t	-0
on	-1
▁d	-2
es	-3
en	-4
▁a	-5
▁p	-6
▁l	-7
▁c	-8
in	-9
▁th	-10
re	-11
ti	-12
▁s	-13
er	-14
is	-15
ou	-16
an	-17
▁the	-18
ent	-19
▁m	-20
▁de	-21
it	-22
▁e	-23
or	-24
qu	-25
tion	-26
ro	-27
▁n	-28
▁f	-29
▁w	-30
ar	-31
at	-32
le	-33
▁o	-34
▁b	-35
▁in	-36
om	-37
al	-38
un	-39
ment	-40
▁la	-41
▁qu	-42
si	-43
ur	-44
▁of	-45
▁r	-46
▁to	-47
▁an	-48
il	-49
ve	-50
te	-51
▁le	-52
ation	-53
ic	-54
▁con	-55
▁h	-56
as	-57
us	-58
▁and	-59
▁com	-60
ing	-61
▁et	-62
▁re	-63
our	-64
▁en	-65
▁un	-66
ce	-67
▁pro	-68
▁v	-69
el	-70
▁i	-71
▁les	-72
ra	-73
▁des	-74
▁par	-75
et	-76
▁à	-77
▁g	-78
ed	-79
ous	-80
pe	-81
▁pr	-82
▁comm	-83
ir	-84
ol	-85
▁is	-86
▁j	-87
ant	-88
▁that	-89
▁eu	-90
▁on	-91
est	-92
▁que	-93
ut	-94
▁be	-95
ort	-96
▁é	-97
os	-98
ons	-99
pp	-100
▁euro	-101
ans	-102
me	-103
ci	-104
ch	-105
mp	-106
ot	-107
▁for	-108
ul	-109
tr	-110
▁wh	-111
sion	-112
ly	-113
id	-114
ct	-115
▁au	-116
ire	-117
▁we	-118
▁dé	-119
▁ma	-120
ig	-121
▁it	-122
▁nous	-123
▁ne	-124
▁pour	-125
▁al	-126
és	-127
▁du	-128
▁fa	-129
▁se	-130
▁su	-131
ter	-132
ab	-133
▁as	-134
ie	-135
ess	-136
▁this	-137
que	-138
ion	-139
ers	-140
de	-141
▁me	-142
▁ex	-143
ff	-144
ne	-145
▁commis	-146
▁dans	-147
lement	-148
mb	-149
ag	-150
▁ce	-151
op	-152
iti	-153
▁not	-154
ure	-155
▁qui	-156
▁ha	-157
▁pl	-158
ain	-159
se	-160
end	-161
out	-162
ver	-163
▁commission	-164
ér	-165
li	-166
▁je	-167
oul	-168
▁une	-169
ay	-170
▁are	-171
▁ré	-172
ont	-173
▁europe	-174
▁pas	-175
▁est	-176
ith	-177
▁sur	-178
tat	-179
pé	-180
ité	-181
ill	-182
▁with	-183
▁ch	-184
ow	-185
ux	-186
res	-187
▁ac	-188
▁so	-189
▁y	-190
▁ra	-191
ould	-192
▁mo	-193
▁il	-194
tions	-195
▁have	-196
▁imp	-197
▁-	-198
tre	-199
ue	-200
▁pol	-201
oun	-202
ations	-203
ate	-204
ich	-205
▁pré	-206
▁tr	-207
ac	-208
▁do	-209
tive	-210
and	-211
péen	-212
di	-213
▁européen	-214
▁res	-215
st	-216
les	-217
▁at	-218
▁mon	-219
ity	-220
▁which	-221
im	-222
pr	-223
ord	-224
ée	-225
▁european	-226
ence	-227
iv	-228
ke	-229
▁cons	-230
ad	-231
th	-232
sid	-233
ance	-234
▁ag	-235
▁prop	-236
du	-237
▁pe	-238
mes	-239
▁conc	-240
▁sa	-241
▁memb	-242
urs	-243
ère	-244
ens	-245
▁tra	-246
▁sh	-247
ments	-248
té	-249
pport	-250
▁will	-251
▁by	-252
▁cet	-253
vel	-254
con	-255
ts	-256
tic	-257
▁po	-258
▁dis	-259
aire	-260
ib	-261
am	-262
▁plus	-263
able	-264
▁pres	-265
▁coun	-266
oc	-267
▁am	-268
▁av	-269
ies	-270
igh	-271
▁has	-272
ust	-273
ction	-274
▁gr	-275
▁mr	-276
ven	-277
▁ad	-278
▁comp	-279
▁all	-280
ore	-281
▁inter	-282
ble	-283
▁app	-284
▁2	-285
▁politi	-286
ques	-287
ard	-288
▁fin	-289
ge	-290
▁1	-291
00	-292
▁ser	-293
ces	-294
▁or	-295
▁cette	-296
age	-297
for	-298
au	-299
ait	-300
▁co	-301
ted	-302
▁there	-303
ten	-304
port	-305
um	-306
so	-307
rom	-308
▁cr	-309
ise	-310
elle	-311
ution	-312
▁stat	-313
ud	-314
cess	-315
▁di	-316
▁aux	-317
sie	-318
tit	-319
▁présid	-320
ès	-321
use	-322
une	-323
tif	-324
ern	-325
▁import	-326
▁si	-327
ées	-328
bl	-329
ist	-330
cial	-331
▁(	-332
ient	-333
ert	-334
▁ab	-335
▁presid	-336
ament	-337
ég	-338
air	-339
ays	-340
▁dire	-341
▁mar	-342
ique	-343
▁dev	-344
▁eff	-345
▁ent	-346
ves	-347
lo	-348
▁reg	-349
ale	-350
▁str	-351
▁can	-352
▁st	-353
▁sont	-354
▁ques	-355
▁but	-356
▁would	-357
▁européenne	-358
▁ave	-359
▁also	-360
▁vo	-361
▁cont	-362
ien	-363
être	-364
▁our	-365
int	-366
conom	-367
▁mais	-368
▁président	-369
▁ta	-370
▁li	-371
ures	-372
▁he	-373
▁should	-374
ign	-375
je	-376
ite	-377
▁man	-378
▁pre	-379
erm	-380
ose	-381
▁president	-382
ctive	-383
▁from	-384
▁wor	-385
ult	-386
▁dem	-387
cl	-388
▁avec	-389
▁aut	-390
▁pu	-391
▁te	-392
▁go	-393
▁int	-394
▁tout	-395
▁don	-396
ors	-397
▁som	-398
▁ins	-399
▁must	-400
oir	-401
▁commun	-402
▁ces	-403
union	-404
up	-405
ap	-406
▁union	-407
▁parlement	-408
▁acc	-409
▁pos	-410
▁sou	-411
og	-412
fic	-413
sition	-414
its	-415
velop	-416
▁pays	-417
▁prog	-418
▁ob	-419
ais	-420
▁trans	-421
▁propos	-422
ational	-423
▁parli	-424
ions	-425
aux	-426
aut	-427
▁mes	-428
ree	-429
sieur	-430
form	-431
▁rapport	-432
▁monsieur	-433
▁important	-434
ier	-435
ussi	-436
▁état	-437
ine	-438
ond	-439
ally	-440
▁been	-441
ière	-442
ong	-443
▁parliament	-444
cis	-445
▁you	-446
▁k	-447
▁ou	-448
all	-449
▁être	-450
▁no	-451
▁cl	-452
▁report	-453
▁diff	-454
aires	-455
▁us	-456
▁part	-457
od	-458
▁cert	-459
▁countr	-460
▁its	-461
ace	-462
alement	-463
com	-464
ish	-465
▁rel	-466
▁was	-467
▁ont	-468
ati	-469
▁ver	-470
cil	-471
▁été	-472
én	-473
▁vous	-474
▁conse	-475
▁certain	-476
▁question	-477
▁more	-478
▁comme	-479
ary	-480
▁states	-481
ticul	-482
pect	-483
▁cel	-484
ese	-485
▁ar	-486
ail	-487
▁particul	-488
ème	-489
▁ég	-490
▁member	-491
▁fait	-492
gh	-493
▁produ	-494
reat	-495
▁états	-496
oup	-497
▁dro	-498
king	-499
fin	-500
ins	-501
orte	-502
ai	-503
▁pers	-504
che	-505
▁sy	-506
▁need	-507
ive	-508
▁righ	-509
▁entre	-510
▁politique	-511
av	-512
▁concern	-513
ther	-514
▁cour	-515
ime	-516
▁they	-517
▁conf	-518
▁sit	-519
ear	-520
▁parti	-521
▁these	-522
ca	-523
▁conseil	-524
ues	-525
ouv	-526
cip	-527
til	-528
ême	-529
▁polic	-530
get	-531
ide	-532
▁like	-533
▁their	-534
cep	-535
▁tou	-536
▁intern	-537
isation	-538
▁trav	-539
ase	-540
sible	-541
eu	-542
▁council	-543
ésent	-544
uation	-545
▁200	-546
▁what	-547
▁membres	-548
▁op	-549
▁very	-550
ants	-551
▁rés	-552
ui	-553
▁rem	-554
▁how	-555
ative	-556
▁one	-557
▁out	-558
▁car	-559
▁min	-560
olution	-561
▁contr	-562
ric	-563
her	-564
▁who	-565
▁ter	-566
▁exp	-567
▁el	-568
▁également	-569
ram	-570
enti	-571
ang	-572
par	-573
ms	-574
èg	-575
▁nom	-576
lic	-577
cur	-578
▁if	-579
▁notre	-580
▁my	-581
▁rég	-582
▁ét	-583
▁aussi	-584
fore	-585
▁col	-586
nement	-587
ough	-588
tru	-589
are	-590
▁sub	-591
erg	-592
▁than	-593
▁rapp	-594
cy	-595
ex	-596
▁nou	-597
ét	-598
▁point	-599
▁finan	-600
éd	-601
▁program	-602
nes	-603
jet	-604
▁bien	-605
euro	-606
ois	-607
▁bud	-608
ités	-609
ense	-610
▁faire	-611
▁resp	-612
▁disc	-613
▁prin	-614
▁countries	-615
▁situation	-616
▁act	-617
▁other	-618
▁ind	-619
vir	-620
vent	-621
▁cela	-622
titu	-623
▁work	-624
▁dép	-625
bil	-626
▁social	-627
▁propo	-628
jour	-629
▁commit	-630
▁fr	-631
▁br	-632
bat	-633
els	-634
▁peop	-635
iss	-636
▁appro	-637
▁bet	-638
ouver	-639
ande	-640
ell	-641
iter	-642
abil	-643
mplo	-644
▁avons	-645
▁develop	-646
▁about	-647
▁new	-648
ely	-649
▁doit	-650
▁up	-651
▁tous	-652
▁leur	-653
viron	-654
▁und	-655
▁fe	-656
▁prote	-657
ice	-658
▁perm	-659
vis	-660
▁spe	-661
▁son	-662
▁enc	-663
ocra	-664
▁person	-665
▁aff	-666
▁agree	-667
▁bel	-668
▁très	-669
▁people	-670
▁né	-671
ieve	-672
ach	-673
▁même	-674
▁adop	-675
▁vot	-676
▁consid	-677
cte	-678
▁econom	-679
▁non	-680
endre	-681
cal	-682
oy	-683
▁policy	-684
ises	-685
▁jus	-686
▁hum	-687
oud	-688
act	-689
▁only	-690
▁support	-691
ind	-692
▁rec	-693
isl	-694
ia	-695
▁year	-696
ities	-697
▁deux	-698
gr	-699
ante	-700
▁directive	-701
ob	-702
▁leg	-703
gan	-704
ange	-705
▁lib	-706
iques	-707
mple	-708
▁ass	-709
▁beca	-710
▁iss	-711
▁soci	-712
▁time	-713
ated	-714
▁coop	-715
▁peut	-716
app	-717
oi	-718
▁again	-719
▁sé	-720
und	-721
▁nos	-722
jec	-723
▁fir	-724
ents	-725
blic	-726
▁because	-727
▁proposal	-728
▁budget	-729
ced	-730
elles	-731
▁serv	-732
▁group	-733
ost	-734
▁travail	-735
▁probl	-736
ères	-737
▁now	-738
▁es	-739
▁mad	-740
min	-741
rais	-742
rait	-743
▁per	-744
acc	-745
pend	-746
if	-747
▁rapporte	-748
▁lors	-749
▁devons	-750
▁march	-751
we	-752
▁inc	-753
▁fond	-754
▁some	-755
▁sign	-756
▁accord	-757
bre	-758
▁possible	-759
▁contin	-760
lear	-761
ious	-762
▁économ	-763
ks	-764
▁présent	-765
ulation	-766
▁cro	-767
▁men	-768
sions	-769
▁any	-770
▁ann	-771
▁rights	-772
▁respect	-773
▁rep	-774
▁droits	-775
▁cas	-776
lé	-777
▁ren	-778
ices	-779
▁public	-780
ici	-781
▁process	-782
▁vie	-783
ever	-784
▁princip	-785
▁therefore	-786
▁long	-787
▁such	-788
ille	-789
▁toute	-790
▁év	-791
aine	-792
▁inv	-793
▁vote	-794
ner	-795
▁inform	-796
▁ref	-797
▁pouv	-798
▁voud	-799
alis	-800
europe	-801
▁first	-802
▁mark	-803
▁mil	-804
▁when	-805
tis	-806
érie	-807
▁protection	-808
▁ro	-809
ere	-810
▁actu	-811
▁national	-812
▁contre	-813
▁19	-814
▁nécess	-815
ustr	-816
cr	-817
▁take	-818
▁nombre	-819
▁dém	-820
▁those	-821
▁particular	-822
▁vis	-823
▁however	-824
▁fund	-825
rer	-826
▁sol	-827
▁pri	-828
▁human	-829
▁dom	-830
arge	-831
ards	-832
▁disp	-833
▁committe	-834
ences	-835
▁elle	-836
▁make	-837
▁see	-838
order	-839
▁u	-840
▁donc	-841
alité	-842
ight	-843
▁met	-844
▁amend	-845
ween	-846
ip	-847
▁between	-848
▁rép	-849
▁voudrais	-850
▁into	-851
▁ses	-852
titution	-853
tière	-854
▁programme	-855
▁ca	-856
▁market	-857
▁proble	-858
▁effe	-859
▁bas	-860
▁environ	-861
lu	-862
▁permet	-863
▁organ	-864
veloppe	-865
ress	-866
▁prem	-867
▁proposition	-868
▁rais	-869
▁economic	-870
▁fact	-871
cision	-872
sibil	-873
chn	-874
olog	-875
▁international	-876
vern	-877
▁rapporteur	-878
▁main	-879
▁mat	-880
▁nu	-881
ural	-882
▁committee	-883
▁développe	-884
mm	-885
▁règ	-886
▁place	-887
▁being	-888
itoy	-889
mber	-890
now	-891
ink	-892
▁form	-893
▁clear	-894
▁cap	-895
▁say	-896
arg	-897
ph	-898
urr	-899
ency	-900
insi	-901
day	-902
▁dont	-903
▁lég	-904
cer	-905
tique	-906
▁sans	-907
▁terr	-908
▁ainsi	-909
▁gen	-910
▁fut	-911
▁af	-912
tiv	-913
▁contrib	-914
▁gu	-915
ération	-916
▁vi	-917
ales	-918
▁tro	-919
ables	-920
▁them	-921
▁objec	-922
xt	-923
isse	-924
▁commiss	-925
▁développement	-926
tifs	-927
▁ess	-928
ld	-929
▁coll	-930
▁débat	-931
équ	-932
▁demand	-933
▁soit	-934
eration	-935
one	-936
▁political	-937
ende	-938
vention	-939
▁prom	-940
▁state	-941
▁cent	-942
jourd	-943
▁incl	-944
▁over	-945
ting	-946
ass	-947
▁encore	-948
tention	-949
mps	-950
▁made	-951
▁3	-952
▁techn	-953
arm	-954
▁citoy	-955
led	-956
▁were	-957
hui	-958
céd	-959
▁condi	-960
▁great	-961
vid	-962
eng	-963
ject	-964
▁ens	-965
▁repr	-966
ivent	-967
▁requ	-968
▁commissioner	-969
ame	-970
curité	-971
ound	-972
iste	-973
▁position	-974
▁communaut	-975
▁commissaire	-976
▁many	-977
ctions	-978
cept	-979
▁govern	-980
▁way	-981
ak	-982
cu	-983
▁know	-984
▁services	-985
abl	-986
▁rest	-987
oin	-988
ulture	-989
▁questions	-990
▁sécurité	-991
▁development	-992
▁bon	-993
▁ever	-994
▁cor	-995
come	-996
ast	-997
cid	-998
▁pra	-999
▁against	-1000
▁deb	-1001
▁dern	-1002
▁believe	-1003
▁faut	-1004
▁quel	-1005
▁suis	-1006
atives	-1007
▁tur	-1008
erci	-1009
ann	-1010
▁nouvel	-1011
ste	-1012
anti	-1013
ellement	-1014
▁matière	-1015
venir	-1016
▁initi	-1017
ied	-1018
ôle	-1019
▁agric	-1020
▁marché	-1021
▁mal	-1022
▁supp	-1023
▁aujourd	-1024
▁prof	-1025
▁tw	-1026
▁mesures	-1027
sitions	-1028
eral	-1029
ov	-1030
▁peu	-1031
adre	-1032
vre	-1033
▁"	-1034
▁syst	-1035
▁right	-1036
itiz	-1037
uct	-1038
▁sp	-1039
aient	-1040
▁dur	-1041
semb	-1042
▁citiz	-1043
tives	-1044
▁fra	-1045
▁syste	-1046
ances	-1047
▁fav	-1048
▁sav	-1049
▁even	-1050
▁just	-1051
▁emplo	-1052
oupe	-1053
▁respons	-1054
▁pense	-1055
▁gouver	-1056
▁citoyens	-1057
wn	-1058
▁well	-1059
cher	-1060
auc	-1061
▁20	-1062
dies	-1063
ating	-1064
ug	-1065
ack	-1066
éra	-1067
▁seu	-1068
red	-1069
▁nat	-1070
ources	-1071
jor	-1072
▁pass	-1073
▁essenti	-1074
▁debate	-1075
▁afin	-1076
▁institu	-1077
▁major	-1078
ful	-1079
èmes	-1080
▁leurs	-1081
▁meas	-1082
▁good	-1083
ile	-1084
▁ve	-1085
▁think	-1086
▁att	-1087
imp	-1088
▁cré	-1089
▁issue	-1090
ved	-1091
▁under	-1092
▁où	-1093
▁effort	-1094
▁where	-1095
mis	-1096
ute	-1097
▁gar	-1098
imin	-1099
▁nouve	-1100
▁doivent	-1101
▁jour	-1102
▁transport	-1103
▁sommes	-1104
▁regard	-1105
▁politiques	-1106
▁future	-1107
▁groupe	-1108
▁199	-1109
uer	-1110
islation	-1111
▁gén	-1112
▁ris	-1113
▁citizens	-1114
lem	-1115
mate	-1116
erne	-1117
▁agreement	-1118
oth	-1119
▁aid	-1120
▁nive	-1121
ils	-1122
autres	-1123
▁droit	-1124
▁déj	-1125
go	-1126
▁too	-1127
▁déjà	-1128
fr	-1129
▁two	-1130
▁incre	-1131
ari	-1132
▁prior	-1133
ving	-1134
▁every	-1135
rodu	-1136
sive	-1137
▁here	-1138
▁high	-1139
ings	-1140
ième	-1141
▁today	-1142
ical	-1143
▁years	-1144
▁change	-1145
▁order	-1146
▁institutions	-1147
▁conditions	-1148
▁action	-1149
not	-1150
read	-1151
▁want	-1152
▁world	-1153
▁souti	-1154
▁community	-1155
▁mu	-1156
▁giv	-1157
tice	-1158
amment	-1159
▁simp	-1160
▁conv	-1161
▁économique	-1162
▁exe	-1163
▁port	-1164
▁madame	-1165
▁end	-1166
▁concerne	-1167
tes	-1168
▁manière	-1169
▁level	-1170
▁cannot	-1171
▁souh	-1172
sieurs	-1173
▁country	-1174
▁'	-1175
▁cadre	-1176
bli	-1177
▁view	-1178
▁does	-1179
iers	-1180
ope	-1181
enir	-1182
▁sin	-1183
▁mod	-1184
ication	-1185
▁tak	-1186
▁sout	-1187
▁effic	-1188
▁différ	-1189
▁ach	-1190
rough	-1191
▁same	-1192
éli	-1193
▁tant	-1194
▁most	-1195
▁plan	-1196
▁grand	-1197
▁treat	-1198
▁secon	-1199
oris	-1200
▁hel	-1201
▁term	-1202
▁poin	-1203
▁environment	-1204
▁temps	-1205
▁use	-1206
ente	-1207
▁had	-1208
ited	-1209
▁industr	-1210
▁members	-1211
quer	-1212
▁mé	-1213
▁could	-1214
▁nég	-1215
uses	-1216
▁démocra	-1217
▁ban	-1218
▁pop	-1219
▁sera	-1220
▁expr	-1221
▁democra	-1222
▁déf	-1223
ctor	-1224
▁financi	-1225
ual	-1226
▁struct	-1227
▁through	-1228
▁problème	-1229
abilité	-1230
▁much	-1231
▁avant	-1232
▁procéd	-1233
iment	-1234
▁measures	-1235
▁aur	-1236
fe	-1237
▁last	-1238
▁diffic	-1239
land	-1240
▁souhait	-1241
▁secte	-1242
▁donn	-1243
ules	-1244
▁set	-1245
▁said	-1246
▁mont	-1247
elf	-1248
▁nor	-1249
wor	-1250
ates	-1251
ory	-1252
▁certains	-1253
▁financial	-1254
ently	-1255
▁pa	-1256
▁may	-1257
▁5	-1258
ll	-1259
▁viol	-1260
▁imm	-1261
till	-1262
▁curr	-1263
▁niveau	-1264
▁ext	-1265
▁cha	-1266
▁eng	-1267
he	-1268
▁suff	-1269
▁within	-1270
▁personnes	-1271
igr	-1272
ality	-1273
▁collèg	-1274
ats	-1275
▁matter	-1276
▁relations	-1277
▁raison	-1278
row	-1279
low	-1280
▁second	-1281
esp	-1282
accord	-1283
▁concernant	-1284
▁put	-1285
agit	-1286
▁lis	-1287
▁common	-1288
ific	-1289
▁lim	-1290
▁minis	-1291
pportun	-1292
▁compr	-1293
▁conclu	-1294
▁4	-1295
▁indi	-1296
▁ans	-1297
▁dra	-1298
▁mis	-1299
▁organis	-1300
tern	-1301
▁représent	-1302
▁dou	-1303
▁rev	-1304
ready	-1305
▁already	-1306
▁why	-1307
▁both	-1308
▁discus	-1309
▁milli	-1310
atég	-1311
▁implement	-1312
▁contra	-1313
▁still	-1314
▁ir	-1315
près	-1316
▁your	-1317
prises	-1318
ages	-1319
▁européens	-1320
ergy	-1321
▁dit	-1322
▁ph	-1323
duc	-1324
fois	-1325
ety	-1326
ild	-1327
▁cooperation	-1328
clar	-1329
▁bes	-1330
▁own	-1331
▁system	-1332
▁posi	-1333
▁éle	-1334
aines	-1335
▁suc	-1336
▁oc	-1337
▁differ	-1338
omme	-1339
▁fi	-1340
pri	-1341
ial	-1342
▁toutes	-1343
cts	-1344
▁employ	-1345
▁mrs	-1346
lob	-1347
▁moy	-1348
▁interest	-1349
▁ceux	-1350
quoi	-1351
▁dep	-1352
▁respon	-1353
▁opportun	-1354
erv	-1355
▁pourquoi	-1356
▁beh	-1357
▁fois	-1358
▁instru	-1359
ticle	-1360
▁amende	-1361
alth	-1362
▁.	-1363
▁conséqu	-1364
▁efforts	-1365
▁energy	-1366
▁mme	-1367
▁parce	-1368
comm	-1369
▁information	-1370
▁traité	-1371
ateg	-1372
▁ful	-1373
▁law	-1374
▁fur	-1375
▁course	-1376
▁off	-1377
uis	-1378
▁points	-1379
▁auth	-1380
▁his	-1381
▁remerci	-1382
▁autres	-1383
▁reas	-1384
▁domaine	-1385
hing	-1386
▁effet	-1387
▁ret	-1388
▁present	-1389
lex	-1390
ouse	-1391
▁hope	-1392
▁vue	-1393
▁impro	-1394
▁then	-1395
▁réf	-1396
ler	-1397
▁mention	-1398
▁moins	-1399
▁secur	-1400
▁glob	-1401
▁sein	-1402
▁z	-1403
▁auc	-1404
▁thank	-1405
▁compte	-1406
▁area	-1407
▁taken	-1408
ieu	-1409
▁sujet	-1410
pl	-1411
▁ils	-1412
▁système	-1413
mble	-1414
▁ensure	-1415
cted	-1416
bon	-1417
▁projet	-1418
▁ur	-1419
▁monde	-1420
omen	-1421
reed	-1422
▁since	-1423
▁abs	-1424
éri	-1425
▁exa	-1426
▁let	-1427
ital	-1428
ivers	-1429
▁trois	-1430
▁soul	-1431
▁tot	-1432
era	-1433
▁règlement	-1434
▁proced	-1435
ene	-1436
▁activ	-1437
▁–	-1438
homme	-1439
él	-1440
êt	-1441
▁inde	-1442
▁val	-1443
raph	-1444
▁able	-1445
oci	-1446
dition	-1447
▁security	-1448
blig	-1449
▁mom	-1450
ordin	-1451
▁transpar	-1452
▁%	-1453
work	-1454
erc	-1455
▁consom	-1456
▁arr	-1457
▁grande	-1458
hip	-1459
▁garanti	-1460
▁without	-1461
ré	-1462
▁région	-1463
▁health	-1464
▁seulement	-1465
▁résolution	-1466
▁bal	-1467
ièrement	-1468
▁coopération	-1469
▁med	-1470
xte	-1471
▁pouvoir	-1472
▁mettre	-1473
▁effective	-1474
vision	-1475
▁problèmes	-1476
▁base	-1477
▁particip	-1478
▁civ	-1479
▁repres	-1480
▁problem	-1481
ret	-1482
lée	-1483
tiques	-1484
▁fonds	-1485
▁savoir	-1486
▁achieve	-1487
▁possibil	-1488
▁government	-1489
▁necess	-1490
▁cre	-1491
aucoup	-1492
▁beaucoup	-1493
▁exist	-1494
▁means	-1495
▁fon	-1496
▁mise	-1497
▁legal	-1498
▁aspect	-1499
▁sc	-1500
▁stratég	-1501
▁region	-1502
▁four	-1503
▁che	-1504
▁fem	-1505
▁case	-1506
▁author	-1507
▁includ	-1508
▁large	-1509
▁bi	-1510
urer	-1511
▁fol	-1512
▁ple	-1513
▁déput	-1514
alog	-1515
ém	-1516
▁solution	-1517
▁far	-1518
▁before	-1519
ains	-1520
art	-1521
lication	-1522
▁house	-1523
▁colle	-1524
▁moment	-1525
▁mainten	-1526
▁renfor	-1527
▁id	-1528
▁help	-1529
▁rédu	-1530
▁number	-1531
▁emp	-1532
▁util	-1533
▁gent	-1534
▁strateg	-1535
▁gouvernement	-1536
ian	-1537
alf	-1538
▁gentlem	-1539
▁recon	-1540
cisions	-1541
▁sous	-1542
▁demande	-1543
▁stand	-1544
▁ask	-1545
▁secteur	-1546
▁commer	-1547
bour	-1548
▁sant	-1549
▁exemple	-1550
▁gentlemen	-1551
entes	-1552
utions	-1553
alisation	-1554
ines	-1555
▁add	-1556
▁rules	-1557
▁lieu	-1558
▁lo	-1559
▁allow	-1560
▁compe	-1561
▁coh	-1562
▁ladies	-1563
▁jur	-1564
action	-1565
▁négoci	-1566
▁follow	-1567
▁problems	-1568
▁nature	-1569
▁example	-1570
▁importance	-1571
▁opin	-1572
▁processus	-1573
ount	-1574
▁cli	-1575
▁avoir	-1576
▁programmes	-1577
oire	-1578
entif	-1579
▁deal	-1580
▁cours	-1581
aiss	-1582
▁given	-1583
▁toutefois	-1584
▁spé	-1585
▁vol	-1586
▁invol	-1587
ether	-1588
▁devrait	-1589
agement	-1590
▁speci	-1591
▁soutien	-1592
▁constitution	-1593
▁progress	-1594
jours	-1595
▁inte	-1596
▁dialog	-1597
▁notamment	-1598
▁production	-1599
tim	-1600
ront	-1601
▁autre	-1602
▁toujours	-1603
ition	-1604
▁ele	-1605
▁compé	-1606
goti	-1607
▁én	-1608
▁women	-1609
▁comprom	-1610
▁technolog	-1611
▁justice	-1612
▁amendments	-1613
▁particulier	-1614
▁treaty	-1615
▁trade	-1616
ately	-1617
▁introdu	-1618
▁lut	-1619
▁ke	-1620
▁prendre	-1621
▁negoti	-1622
▁particularly	-1623
emplo	-1624
▁prov	-1625
▁intér	-1626
asi	-1627
▁tax	-1628
▁ten	-1629
▁lisbon	-1630
own	-1631
ément	-1632
▁call	-1633
▁equ	-1634
▁contro	-1635
▁mondi	-1636
▁clos	-1637
▁hand	-1638
▁resolution	-1639
illion	-1640
semblée	-1641
▁présidence	-1642
▁sector	-1643
▁votre	-1644
▁déclar	-1645
▁favour	-1646
▁areas	-1647
▁madam	-1648
▁dialogue	-1649
▁voul	-1650
quelle	-1651
iens	-1652
▁rap	-1653
▁conn	-1654
▁laquelle	-1655
vement	-1656
▁lead	-1657
▁aw	-1658
elon	-1659
▁pouvons	-1660
▁bl	-1661
tement	-1662
▁issues	-1663
▁necessary	-1664
▁depuis	-1665
▁competi	-1666
▁continue	-1667
▁entreprises	-1668
▁opp	-1669
▁docu	-1670
ability	-1671
▁mesure	-1672
▁commune	-1673
▁attention	-1674
▁partie	-1675
orer	-1676
▁oblig	-1677
▁bar	-1678
▁conte	-1679
pendant	-1680
▁propositions	-1681
▁priv	-1682
▁united	-1683
▁difficult	-1684
▁santé	-1685
▁ste	-1686
▁frame	-1687
met	-1688
▁accept	-1689
veur	-1690
▁after	-1691
oration	-1692
▁wish	-1693
irm	-1694
osition	-1695
ablish	-1696
▁fish	-1697
▁nécessaire	-1698
ood	-1699
érence	-1700
▁faveur	-1701
▁collègues	-1702
▁résul	-1703
▁ress	-1704
▁give	-1705
▁amendements	-1706
ty	-1707
▁décision	-1708
irc	-1709
ude	-1710
▁culture	-1711
tie	-1712
▁suiv	-1713
▁consider	-1714
▁rôle	-1715
raient	-1716
▁besoin	-1717
▁fé	-1718
▁années	-1719
▁require	-1720
▁sm	-1721
▁meet	-1722
çon	-1723
▁prév	-1724
▁après	-1725
▁recomm	-1726
▁constru	-1727
▁comment	-1728
ck	-1729
aly	-1730
▁sch	-1731
▁fondament	-1732
▁alors	-1733
▁encour	-1734
▁serait	-1735
opp	-1736
▁loc	-1737
▁solid	-1738
▁soient	-1739
aî	-1740
ok	-1741
▁gra	-1742
▁establish	-1743
▁framework	-1744
uvre	-1745
▁claire	-1746
▁wel	-1747
issement	-1748
▁esp	-1749
▁selon	-1750
▁jurid	-1751
▁convention	-1752
ird	-1753
▁recher	-1754
ft	-1755
200	-1756
▁face	-1757
▁presidency	-1758
▁objectifs	-1759
▁fam	-1760
nel	-1761
gment	-1762
▁nations	-1763
heure	-1764
▁publi	-1765
▁decision	-1766
▁aim	-1767
ss	-1768
leurs	-1769
▁whether	-1770
cing	-1771
▁fer	-1772
▁further	-1773
▁atte	-1774
▁criti	-1775
▁proposals	-1776
ying	-1777
▁appropri	-1778
▁nouvelle	-1779
ased	-1780
▁fonction	-1781
▁consommate	-1782
▁appli	-1783
▁refer	-1784
▁specific	-1785
▁était	-1786
▁consum	-1787
ression	-1788
▁pow	-1789
ésion	-1790
da	-1791
▁6	-1792
▁next	-1793
ote	-1794
▁femmes	-1795
unis	-1796
▁represent	-1797
avant	-1798
▁amendment	-1799
▁résultat	-1800
▁population	-1801
▁circ	-1802
cup	-1803
tin	-1804
état	-1805
▁wr	-1806
▁nation	-1807
▁soulign	-1808
▁reform	-1809
nent	-1810
▁nouveau	-1811
▁pris	-1812
▁vér	-1813
▁inf	-1814
ières	-1815
▁reconn	-1816
▁cependant	-1817
▁hom	-1818
▁ici	-1819
istes	-1820
▁unique	-1821
ties	-1822
▁serious	-1823
▁millions	-1824
dic	-1825
▁terms	-1826
▁provid	-1827
▁deuxième	-1828
▁pay	-1829
▁subject	-1830
▁vic	-1831
▁députés	-1832
▁regulation	-1833
▁modi	-1834
▁enfin	-1835
▁peuvent	-1836
ôt	-1837
▁prac	-1838
▁behalf	-1839
old	-1840
iser	-1841
▁positive	-1842
été	-1843
▁come	-1844
ward	-1845
ning	-1846
▁third	-1847
cell	-1848
mment	-1849
iz	-1850
▁basis	-1851
ager	-1852
▁opinion	-1853
ducation	-1854
environ	-1855
▁rece	-1856
exp	-1857
ole	-1858
▁bus	-1859
▁dès	-1860
lément	-1861
év	-1862
aill	-1863
▁role	-1864
ule	-1865
▁lui	-1866
▁happ	-1867
▁défin	-1868
▁legislation	-1869
▁accep	-1870
▁different	-1871
ultural	-1872
wards	-1873
▁better	-1874
êche	-1875
▁tal	-1876
esse	-1877
soci	-1878
▁sal	-1879
▁result	-1880
ergie	-1881
▁puis	-1882
bles	-1883
▁crise	-1884
▁admin	-1885
side	-1886
▁façon	-1887
▁done	-1888
▁équ	-1889
érieur	-1890
usement	-1891
crit	-1892
▁produits	-1893
▁présidente	-1894
gration	-1895
airs	-1896
▁adopted	-1897
▁redu	-1898
▁autor	-1899
▁needs	-1900
▁proch	-1901
▁subst	-1902
ep	-1903
▁:	-1904
▁grow	-1905
▁elles	-1906
▁control	-1907
▁few	-1908
▁express	-1909
eff	-1910
antes	-1911
▁approach	-1912
▁word	-1913
isis	-1914
▁crois	-1915
▁actions	-1916
▁solidar	-1917
ible	-1918
▁open	-1919
▁là	-1920
▁liv	-1921
▁impos	-1922
▁responsibil	-1923
▁finance	-1924
▁vra	-1925
▁parties	-1926
▁permett	-1927
▁signific	-1928
la	-1929
cipe	-1930
oint	-1931
▁contrôle	-1932
environnement	-1933
ieux	-1934
earch	-1935
▁amb	-1936
su	-1937
▁constitu	-1938
▁offic	-1939
▁ty	-1940
▁research	-1941
ension	-1942
▁régions	-1943
▁ni	-1944
▁quelques	-1945
▁messieurs	-1946
▁find	-1947
▁chang	-1948
▁7	-1949
▁meille	-1950
igration	-1951
▁crisis	-1952
ctives	-1953
▁réfor	-1954
▁moi	-1955
▁tour	-1956
▁vers	-1957
erst	-1958
▁satis	-1959
▁strategy	-1960
vers	-1961
▁satisf	-1962
itor	-1963
œuvre	-1964
▁freed	-1965
▁moyen	-1966
▁reason	-1967
▁coordin	-1968
▁obs	-1969
other	-1970
▁absol	-1971
▁stratégie	-1972
atique	-1973
▁exper	-1974
▁9	-1975
ateurs	-1976
▁félic	-1977
quel	-1978
▁dés	-1979
▁première	-1980
▁premier	-1981
orth	-1982
▁freedom	-1983
▁employment	-1984
érer	-1985
▁concerned	-1986
▁européennes	-1987
▁8	-1988
▁sus	-1989
espère	-1990
oins	-1991
▁répons	-1992
▁project	-1993
acité	-1994
usion	-1995
▁spéci	-1996
▁règles	-1997
▁communication	-1998
imes	-1999
dames	-2000
▁mesdames	-2001
itable	-2002
▁initiative	-2003
▁fore	-2004
ared	-2005
▁going	-2006
avenir	-2007
nements	-2008
▁bonne	-2009
▁civil	-2010
▁terroris	-2011
▁sû	-2012
ouve	-2013
▁inst	-2014
att	-2015
▁sens	-2016
▁pêche	-2017
ctr	-2018
inter	-2019
▁recherche	-2020
elves	-2021
étaire	-2022
▁génér	-2023
▁voted	-2024
▁fundament	-2025
▁liber	-2026
▁chaque	-2027
▁urg	-2028
nov	-2029
▁ide	-2030
▁réalis	-2031
▁sci	-2032
▁anim	-2033
▁principe	-2034
aff	-2035
▁force	-2036
▁three	-2037
▁institution	-2038
▁get	-2039
▁hon	-2040
▁job	-2041
▁communautaire	-2042
▁general	-2043
leg	-2044
êts	-2045
▁forward	-2046
▁nombreux	-2047
▁regul	-2048
000	-2049
▁él	-2050
amin	-2051
▁201	-2052
▁sociale	-2053
▁procedure	-2054
ather	-2055
▁real	-2056
vious	-2057
▁consommateurs	-2058
20	-2059
▁inves	-2060
▁working	-2061
aide	-2062
iness	-2063
▁centr	-2064
▁aspects	-2065
▁million	-2066
▁welcome	-2067
▁jou	-2068
▁small	-2069
▁internation	-2070
▁législation	-2071
man	-2072
ement	-2073
▁bo	-2074
éné	-2075
▁va	-2076
▁croiss	-2077
▁back	-2078
emploi	-2079
▁remar	-2080
▁towards	-2081
▁individ	-2082
istr	-2083
anc	-2084
ath	-2085
▁whole	-2086
lev	-2087
énergie	-2088
▁toget	-2089
▁jud	-2090
▁another	-2091
▁qualité	-2092
▁together	-2093
▁celui	-2094
▁plu	-2095
ode	-2096
▁affe	-2097
▁bene	-2098
▁carr	-2099
▁guar	-2100
▁compan	-2101
▁during	-2102
▁?	-2103
isme	-2104
▁clearly	-2105
entre	-2106
▁current	-2107
▁dr	-2108
▁adopt	-2109
▁underst	-2110
▁garantir	-2111
-0	-2112
endu	-2113
ordre	-2114
▁nouveaux	-2115
▁bu	-2116
ends	-2117
▁maintenant	-2118
imer	-2119
▁principle	-2120
cially	-2121
▁procédure	-2122
armon	-2123
▁clairement	-2124
▁saf	-2125
▁while	-2126
agne	-2127
▁step	-2128
▁child	-2129
▁terme	-2130
▁opportunity	-2131
istance	-2132
▁parten	-2133
▁améli	-2134
▁affairs	-2135
ength	-2136
▁comple	-2137
▁account	-2138
▁assemblée	-2139
▁milit	-2140
jou	-2141
ocr	-2142
▁court	-2143
▁lorsque	-2144
▁négociations	-2145
per	-2146
▁nouvelles	-2147
▁dél	-2148
▁lutte	-2149
▁dispos	-2150
▁structure	-2151
gu	-2152
▁10	-2153
rons	-2154
▁pot	-2155
▁peace	-2156
▁mois	-2157
ater	-2158
ething	-2159
▁excell	-2160
▁œuvre	-2161
▁resources	-2162
rions	-2163
▁cal	-2164
▁concurr	-2165
▁def	-2166
▁pal	-2167
casion	-2168
▁voté	-2169
▁plusieurs	-2170
termin	-2171
▁celle	-2172
▁proposed	-2173
▁série	-2174
▁something	-2175
als	-2176
eld	-2177
▁minister	-2178
▁invest	-2179
▁victi	-2180
gg	-2181
ira	-2182
▁pourrait	-2183
▁her	-2184
enda	-2185
agraph	-2186
dam	-2187
ession	-2188
ners	-2189
▁cru	-2190
▁down	-2191
▁espe	-2192
▁finally	-2193
▁service	-2194
mbre	-2195
▁strong	-2196
▁guarante	-2197
▁including	-2198
▁nécessité	-2199
▁exig	-2200
▁especially	-2201
▁fundamental	-2202
▁trop	-2203
▁industry	-2204
▁chose	-2205
▁democratic	-2206
▁reach	-2207
▁seront	-2208
▁mul	-2209
▁authorities	-2210
▁rus	-2211
▁global	-2212
ours	-2213
▁sen	-2214
▁combat	-2215
▁enf	-2216
▁rou	-2217
▁béné	-2218
▁play	-2219
ways	-2220
▁var	-2221
off	-2222
▁policies	-2223
▁paragraph	-2224
qué	-2225
▁membre	-2226
▁remercier	-2227
▁read	-2228
▁cause	-2229
▁ap	-2230
cture	-2231
▁efficace	-2232
▁really	-2233
▁«	-2234
inform	-2235
tout	-2236
▁reste	-2237
indre	-2238
▁fourn	-2239
▁donner	-2240
gn	-2241
▁mor	-2242
▁cand	-2243
▁business	-2244
▁partners	-2245
▁less	-2246
▁organisations	-2247
▁hist	-2248
fication	-2249
▁negotiations	-2250
▁aucun	-2251
▁shall	-2252
▁législ	-2253
▁éc	-2254
▁voir	-2255
éc	-2256
▁candid	-2257
util	-2258
▁free	-2259
atif	-2260
oses	-2261
az	-2262
▁corre	-2263
▁san	-2264
▁adv	-2265
estion	-2266
▁rapide	-2267
▁autorités	-2268
▁discussion	-2269
igne	-2270
▁once	-2271
▁jusqu	-2272
▁discuss	-2273
▁certaines	-2274
▁democracy	-2275
▁poursu	-2276
▁utilis	-2277
▁vale	-2278
▁used	-2279
▁perspe	-2280
▁success	-2281
▁000	-2282
▁access	-2283
▁répond	-2284
▁unf	-2285
import	-2286
▁funds	-2287
▁safety	-2288
▁société	-2289
▁yet	-2290
▁quite	-2291
▁précis	-2292
▁surtout	-2293
▁démocratie	-2294
tisse	-2295
▁bring	-2296
▁rather	-2297
▁actuellement	-2298
▁internal	-2299
▁increase	-2300
▁tiens	-2301
itation	-2302
▁environmental	-2303
▁bro	-2304
/200	-2305
abord	-2306
▁food	-2307
ussions	-2308
▁did	-2309
▁provide	-2310
▁juridique	-2311
▁communauté	-2312
autre	-2313
▁greater	-2314
avantage	-2315
ger	-2316
▁travaill	-2317
be	-2318
cès	-2319
▁écrit	-2320
▁étant	-2321
▁become	-2322
▁article	-2323
▁extre	-2324
▁réponse	-2325
▁understand	-2326
▁sing	-2327
▁constit	-2328
▁char	-2329
▁contribution	-2330
▁responsibility	-2331
erre	-2332
▁lang	-2333
▁things	-2334
ism	-2335
▁russi	-2336
▁continu	-2337
▁summ	-2338
▁visant	-2339
▁violence	-2340
▁coû	-2341
entr	-2342
iting	-2343
▁obje	-2344
▁tit	-2345
▁direct	-2346
▁addition	-2347
ness	-2348
▁though	-2349
▁strength	-2350
▁discr	-2351
▁speak	-2352
▁potenti	-2353
▁voulons	-2354
▁gre	-2355
▁isra	-2356
ze	-2357
▁prix	-2358
▁least	-2359
▁crimin	-2360
atis	-2361
ised	-2362
ium	-2363
uge	-2364
article	-2365
▁excl	-2366
▁bénéfic	-2367
▁fl	-2368
▁oper	-2369
▁congr	-2370
▁liberté	-2371
▁soutenir	-2372
▁regret	-2373
ogn	-2374
▁show	-2375
▁15	-2376
▁effect	-2377
anger	-2378
amende	-2379
ablement	-2380
ilib	-2381
▁itself	-2382
▁train	-2383
▁recogn	-2384
▁products	-2385
gin	-2386
économ	-2387
▁economy	-2388
▁enl	-2389
▁condu	-2390
▁divers	-2391
▁ressources	-2392
▁orig	-2393
▁never	-2394
▁document	-2395
▁concurrence	-2396
ave	-2397
▁based	-2398
▁discrimin	-2399
ète	-2400
ête	-2401
▁2000	-2402
ey	-2403
▁fis	-2404
issent	-2405
▁sem	-2406
▁benef	-2407
time	-2408
▁impact	-2409
▁énerg	-2410
▁having	-2411
▁eur	-2412
▁péri	-2413
▁indeed	-2414
▁instruments	-2415
▁rien	-2416
▁facil	-2417
▁responsabilité	-2418
▁table	-2419
co	-2420
agn	-2421
occup	-2422
▁texte	-2423
▁davantage	-2424
▁instrument	-2425
▁économiques	-2426
▁telle	-2427
▁taking	-2428
▁11	-2429
▁prot	-2430
▁interests	-2431
asing	-2432
▁accom	-2433
▁budg	-2434
ren	-2435
▁exerc	-2436
▁power	-2437
▁importante	-2438
ran	-2439
uel	-2440
▁12	-2441
▁war	-2442
▁various	-2443
▁net	-2444
▁apport	-2445
ites	-2446
▁avez	-2447
▁enti	-2448
▁environnement	-2449
utes	-2450
▁fron	-2451
▁text	-2452
▁déb	-2453
▁ill	-2454
▁semble	-2455
▁croissance	-2456
▁growth	-2457
▁regions	-2458
▁conséquent	-2459
orm	-2460
▁sw	-2461
▁essential	-2462
aking	-2463
teurs	-2464
▁sugg	-2465
▁fight	-2466
▁associ	-2467
titude	-2468
▁outre	-2469
▁constat	-2470
▁improve	-2471
▁objective	-2472
though	-2473
▁foreign	-2474
▁fais	-2475
▁justif	-2476
▁society	-2477
fi	-2478
▁sûr	-2479
▁concl	-2480
▁dernier	-2481
▁money	-2482
▁always	-2483
ove	-2484
iend	-2485
ception	-2486
▁although	-2487
▁anti	-2488
▁colleag	-2489
▁making	-2490
▁wee	-2491
ained	-2492
▁following	-2493
▁single	-2494
ily	-2495
▁each	-2496
tres	-2497
▁bre	-2498
▁look	-2499
▁implementation	-2500
pt	-2501
▁palest	-2502
▁initiatives	-2503
▁dernière	-2504
▁press	-2505
ably	-2506
iation	-2507
▁souligner	-2508
cteurs	-2509
▁ear	-2510
tières	-2511
▁afric	-2512
▁données	-2513
aps	-2514
▁sec	-2515
em	-2516
trib	-2517
▁appr	-2518
▁seul	-2519
ensemble	-2520
missions	-2521
endant	-2522
▁agreements	-2523
▁air	-2524
▁minim	-2525
aix	-2526
▁direction	-2527
▁six	-2528
▁déc	-2529
▁éch	-2530
▁words	-2531
▁affaires	-2532
▁paix	-2533
▁étr	-2534
▁travailleurs	-2535
▁emph	-2536
▁analy	-2537
▁trouver	-2538
▁fix	-2539
▁lit	-2540
▁workers	-2541
▁companies	-2542
▁excellent	-2543
▁réglement	-2544
▁internationale	-2545
▁pen	-2546
▁spécif	-2547
▁constitue	-2548
▁scientif	-2549
over	-2550
▁vig	-2551
▁extr	-2552
▁det	-2553
▁création	-2554
▁demander	-2555
▁enfants	-2556
rès	-2557
▁minor	-2558
ches	-2559
▁short	-2560
▁progrès	-2561
adop	-2562
▁lesqu	-2563
ock	-2564
▁sust	-2565
▁pens	-2566
▁sorte	-2567
▁prevent	-2568
▁volont	-2569
ick	-2570
▁avait	-2571
▁origin	-2572
ortun	-2573
▁mess	-2574
▁mobil	-2575
▁termes	-2576
▁qual	-2577
▁objectives	-2578
fer	-2579
▁donné	-2580
▁aucune	-2581
▁consult	-2582
▁relative	-2583
▁regional	-2584
uss	-2585
▁care	-2586
atul	-2587
▁aura	-2588
rely	-2589
▁adopté	-2590
▁agenda	-2591
▁happen	-2592
▁décisions	-2593
▁mand	-2594
accept	-2595
▁quant	-2596
▁domaines	-2597
▁aliment	-2598
quie	-2599
▁final	-2600
▁among	-2601
▁congratul	-2602
▁propose	-2603
ets	-2604
▁fran	-2605
▁field	-2606
aluation	-2607
▁résultats	-2608
hésion	-2609
▁month	-2610
▁souvent	-2611
▁dispo	-2612
▁harmon	-2613
uve	-2614
▁gestion	-2615
▁competition	-2616
▁creat	-2617
▁popul	-2618
▁différents	-2619
▁peri	-2620
appro	-2621
▁period	-2622
intér	-2623
▁tom	-2624
▁impli	-2625
▁mieux	-2626
▁strengthen	-2627
▁coordination	-2628
thing	-2629
velopp	-2630
argissement	-2631
▁infr	-2632
▁joint	-2633
▁avis	-2634
▁full	-2635
▁address	-2636
▁commercial	-2637
▁commerce	-2638
atic	-2639
▁restric	-2640
étique	-2641
▁bure	-2642
▁involved	-2643
▁solutions	-2644
▁destin	-2645
▁central	-2646
amendement	-2647
▁rural	-2648
ienne	-2649
▁participation	-2650
ateur	-2651
▁type	-2652
▁décid	-2653
▁existe	-2654
▁compris	-2655
ade	-2656
▁pau	-2657
▁flex	-2658
▁mean	-2659
▁conclusion	-2660
iller	-2661
▁suffis	-2662
▁renforcer	-2663
▁dét	-2664
▁best	-2665
▁concerns	-2666
▁extrem	-2667
▁majority	-2668
organ	-2669
▁clim	-2670
▁appe	-2671
▁resul	-2672
▁normes	-2673
▁children	-2674
▁publique	-2675
▁legisl	-2676
▁traite	-2677
▁prés	-2678
▁augment	-2679
▁actuelle	-2680
iterran	-2681
ventions	-2682
▁développ	-2683
▁permette	-2684
▁decisions	-2685
▁profession	-2686
▁enlarge	-2687
▁rom	-2688
▁france	-2689
erve	-2690
▁life	-2691
même	-2692
▁certainly	-2693
▁standards	-2694
▁innov	-2695
▁oppos	-2696
unes	-2697
▁accords	-2698
ls	-2699
▁cat	-2700
▁camp	-2701
▁discussions	-2702
▁fig	-2703
▁fully	-2704
▁rappel	-2705
▁possibilité	-2706
▁quand	-2707
▁période	-2708
édi	-2709
astru	-2710
▁appar	-2711
▁sustain	-2712
▁chall	-2713
▁explo	-2714
eux	-2715
▁pat	-2716
année	-2717
▁acces	-2718
▁active	-2719
▁lisbonne	-2720
▁remercie	-2721
▁quality	-2722
▁avail	-2723
▁choses	-2724
▁extremely	-2725
▁chin	-2726
aise	-2727
▁individual	-2728
ister	-2729
▁agricultural	-2730
▁démocratique	-2731
▁significant	-2732
▁feel	-2733
▁étrang	-2734
▁nécessaires	-2735
mit	-2736
▁majorité	-2737
éch	-2738
▁permettre	-2739
enc	-2740
▁consci	-2741
▁special	-2742
▁souhaite	-2743
aur	-2744
▁dat	-2745
▁devraient	-2746
▁peup	-2747
▁balance	-2748
inté	-2749
▁année	-2750
reg	-2751
▁pros	-2752
▁groups	-2753
améli	-2754
▁event	-2755
▁proté	-2756
▁recent	-2757
▁quelque	-2758
▁concerning	-2759
ceed	-2760
▁ait	-2761
▁inté	-2762
▁increasing	-2763
▁conclusions	-2764
kes	-2765
▁dim	-2766
êmes	-2767
ires	-2768
▁lequel	-2769
▁financement	-2770
rent	-2771
istra	-2772
▁defin	-2773
▁resol	-2774
▁généra	-2775
▁groupes	-2776
▁enlargement	-2777
élé	-2778
nelle	-2779
▁égard	-2780
▁portug	-2781
tivité	-2782
▁créer	-2783
gré	-2784
istan	-2785
▁voie	-2786
industr	-2787
aboration	-2788
ub	-2789
thers	-2790
▁sommet	-2791
▁begin	-2792
▁examin	-2793
▁consequ	-2794
▁diffici	-2795
▁humanit	-2796
▁actually	-2797
▁compromis	-2798
▁administra	-2799
▁tel	-2800
▁rule	-2801
▁confer	-2802
▁russie	-2803
▁meeting	-2804
▁25	-2805
▁party	-2806
▁ago	-2807
erman	-2808
▁comb	-2809
▁territ	-2810
objec	-2811
▁moyens	-2812
moi	-2813
▁cla	-2814
▁méd	-2815
▁juste	-2816
▁unfortun	-2817
▁ratif	-2818
▁assess	-2819
▁malheure	-2820
otion	-2821
▁objectif	-2822
▁préoccup	-2823
▁relation	-2824
▁education	-2825
oles	-2826
▁others	-2827
▁principes	-2828
▁simply	-2829
▁capital	-2830
haps	-2831
▁pur	-2832
ither	-2833
▁might	-2834
).	-2835
▁often	-2836
▁firstly	-2837
▁extrême	-2838
▁perhaps	-2839
▁risk	-2840
▁considér	-2841
▁found	-2842
▁souten	-2843
onn	-2844
▁devrions	-2845
▁propre	-2846
▁practic	-2847
▁palestin	-2848
▁farm	-2849
mi	-2850
▁tar	-2851
▁obten	-2852
▁libre	-2853
▁titre	-2854
économie	-2855
▁général	-2856
▁turquie	-2857
most	-2858
▁foc	-2859
eless	-2860
▁aware	-2861
▁marchés	-2862
▁réforme	-2863
▁simplement	-2864
ica	-2865
ry	-2866
key	-2867
▁total	-2868
▁uk	-2869
uelle	-2870
▁answ	-2871
aissance	-2872
industrie	-2873
▁day	-2874
▁context	-2875
▁complete	-2876
▁sim	-2877
importance	-2878
ps	-2879
ueur	-2880
▁nombreuses	-2881
aged	-2882
cident	-2883
▁signif	-2884
▁nationaux	-2885
aît	-2886
▁cy	-2887
▁local	-2888
▁crucial	-2889
▁protect	-2890
information	-2891
▁developing	-2892
ones	-2893
▁font	-2894
▁application	-2895
épend	-2896
▁emphas	-2897
asse	-2898
▁projets	-2899
role	-2900
▁due	-2901
▁climate	-2902
▁essentiel	-2903
tir	-2904
▁lorsqu	-2905
qui	-2906
orted	-2907
▁apply	-2908
▁enter	-2909
▁receive	-2910
▁available	-2911
▁continuer	-2912
..	-2913
▁draw	-2914
▁create	-2915
ibil	-2916
▁stric	-2917
▁convient	-2918
▁permettez	-2919
fs	-2920
nous	-2921
▁seule	-2922
▁conflic	-2923
▁répondre	-2924
urd	-2925
▁30	-2926
▁russia	-2927
▁jobs	-2928
▁tent	-2929
▁above	-2930
▁naturel	-2931
yp	-2932
semble	-2933
▁inten	-2934
mage	-2935
▁maint	-2936
▁results	-2937
wh	-2938
▁compromise	-2939
▁expl	-2940
ograph	-2941
▁raisons	-2942
less	-2943
aces	-2944
udes	-2945
▁compl	-2946
▁observ	-2947
▁orient	-2948
▁mentioned	-2949
▁malheureusement	-2950
ling	-2951
▁subsi	-2952
▁danger	-2953
▁dépens	-2954
▁monitor	-2955
▁simpli	-2956
▁difficile	-2957
▁turkey	-2958
xim	-2959
▁data	-2960
▁aille	-2961
".	-2962
▁lat	-2963
▁rejet	-2964
▁vraiment	-2965
▁14	-2966
▁13	-2967
enne	-2968
tant	-2969
▁den	-2970
▁labour	-2971
arian	-2972
▁proper	-2973
▁entendu	-2974
▁réalité	-2975
▁ensemble	-2976
▁management	-2977
▁doing	-2978
▁consumer	-2979
▁independ	-2980
enci	-2981
▁tiers	-2982
▁message	-2983
application	-2984
élargissement	-2985
idence	-2986
imm	-2987
ture	-2988
▁key	-2989
▁reasons	-2990
▁em	-2991
inst	-2992
▁cos	-2993
▁sud	-2994
uring	-2995
▁kind	-2996
▁plut	-2997
▁confirm	-2998
utilisation	-2999
▁cô	-3000
▁intérieur	-3001
▁del	-3002
▁petit	-3003
▁celles	-3004
tle	-3005
▁jam	-3006
gence	-3007
▁contexte	-3008
ended	-3009
acceptable	-3010
▁forces	-3011
ibles	-3012
▁quat	-3013
cement	-3014
▁pendant	-3015
▁aide	-3016
▁build	-3017
▁summit	-3018
▁confi	-3019
▁thing	-3020
▁signal	-3021
▁currently	-3022
gar	-3023
âce	-3024
▁confl	-3025
▁grâce	-3026
▁fall	-3027
▁consumers	-3028
▁conten	-3029
▁appropriate	-3030
▁dispositions	-3031
adhésion	-3032
▁intérêts	-3033
▁discrimination	-3034
vi	-3035
▁mer	-3036
▁mot	-3037
▁red	-3038
▁ailleurs	-3039
▁request	-3040
▁agriculture	-3041
▁favor	-3042
▁german	-3043
▁changement	-3044
aître	-3045
clear	-3046
▁guarantee	-3047
▁responsible	-3048
resp	-3049
▁contrô	-3050
▁mondiale	-3051
▁adap	-3052
▁déch	-3053
▁approche	-3054
▁conference	-3055
▁eux	-3056
initi	-3057
objectif	-3058
▁stability	-3059
▁financière	-3060
▁élev	-3061
▁start	-3062
▁systems	-3063
▁extrêmement	-3064
▁plutôt	-3065
▁threat	-3066
▁personne	-3067
▁2007	-3068
▁sais	-3069
▁thems	-3070
▁matters	-3071
▁themselves	-3072
tile	-3073
▁kos	-3074
▁clair	-3075
visions	-3076
▁conférence	-3077
▁fort	-3078
▁remain	-3079
▁rapidement	-3080
▁transparence	-3081
▁ira	-3082
▁différentes	-3083
mission	-3084
▁jamais	-3085
▁considéra	-3086
▁sep	-3087
▁assistance	-3088
eau	-3089
ivre	-3090
euros	-3091
▁legislative	-3092
hic	-3093
▁clar	-3094
▁suite	-3095
▁contraire	-3096
▁activities	-3097
▁unfortunately	-3098
can	-3099
▁parler	-3100
▁ju	-3101
▁jan	-3102
▁chers	-3103
▁informations	-3104
▁crit	-3105
▁détermin	-3106
▁conséquences	-3107
anm	-3108
ban	-3109
▁tas	-3110
▁simple	-3111
ilat	-3112
atifs	-3113
onstr	-3114
▁keep	-3115
▁kosov	-3116
▁compéti	-3117
▁infrastru	-3118
▁oct	-3119
▁cases	-3120
▁idea	-3121
▁prob	-3122
▁doute	-3123
▁réjou	-3124
intérêt	-3125
▁complex	-3126
used	-3127
clé	-3128
▁youn	-3129
▁déclaration	-3130
sh	-3131
dem	-3132
ross	-3133
▁brit	-3134
▁secondly	-3135
▁governments	-3136
▁him	-3137
▁envis	-3138
▁needed	-3139
▁rendre	-3140
▁projects	-3141
▁principles	-3142
rup	-3143
▁writing	-3144
issant	-3145
ène	-3146
▁expect	-3147
▁pap	-3148
to	-3149
office	-3150
veness	-3151
▁pratique	-3152
▁stabilité	-3153
mpl	-3154
rain	-3155
▁dernières	-3156
cle	-3157
ident	-3158
▁amer	-3159
▁zone	-3160
▁ouver	-3161
▁durable	-3162
▁regards	-3163
ument	-3164
▁risque	-3165
▁promotion	-3166
▁sanctions	-3167
▁longer	-3168
▁achieved	-3169
▁formation	-3170
▁charg	-3171
▁super	-3172
▁conform	-3173
eries	-3174
▁move	-3175
▁recommand	-3176
ué	-3177
▁note	-3178
▁trouv	-3179
▁ambiti	-3180
▁export	-3181
▁months	-3182
ications	-3183
cs	-3184
abit	-3185
▁contribuer	-3186
▁solidarité	-3187
▁relig	-3188
arr	-3189
▁div	-3190
▁unies	-3191
▁voter	-3192
▁sustainable	-3193
quet	-3194
▁influ	-3195
▁altern	-3196
▁devant	-3197
atory	-3198
▁liberal	-3199
▁er	-3200
▁sex	-3201
▁head	-3202
▁tels	-3203
▁broad	-3204
▁stress	-3205
▁solidarity	-3206
▁-,	-3207
▁young	-3208
▁cin	-3209
▁regarding	-3210
▁supplément	-3211
uv	-3212
effic	-3213
▁systèmes	-3214
term	-3215
uite	-3216
▁nothing	-3217
▁ay	-3218
▁promote	-3219
▁troisième	-3220
▁intervention	-3221
aud	-3222
ering	-3223
▁seen	-3224
▁heure	-3225
▁surve	-3226
▁judici	-3227
truction	-3228
istration	-3229
▁procédures	-3230
▁congratulate	-3231
▁thus	-3232
▁sever	-3233
tiveness	-3234
▁identif	-3235
dire	-3236
pens	-3237
▁puisse	-3238
▁nationales	-3239
▁gaz	-3240
▁applic	-3241
▁appelle	-3242
▁amér	-3243
▁true	-3244
▁reports	-3245
▁collègue	-3246
▁draft	-3247
▁caract	-3248
▁gouvernements	-3249
▁assurer	-3250
▁structural	-3251
ists	-3252
ience	-3253
▁cher	-3254
▁manif	-3255
▁chance	-3256
▁jeunes	-3257
▁little	-3258
▁volonté	-3259
▁date	-3260
▁peux	-3261
▁néanm	-3262
▁kosovo	-3263
▁activités	-3264
▁néanmoins	-3265
▁past	-3266
▁libér	-3267
▁according	-3268
èle	-3269
▁vu	-3270
ench	-3271
orrow	-3272
▁basi	-3273
▁guid	-3274
▁criter	-3275
▁convain	-3276
▁mut	-3277
▁savons	-3278
iew	-3279
▁ital	-3280
▁rapports	-3281
▁confiance	-3282
né	-3283
▁const	-3284
▁budgets	-3285
quent	-3286
▁sure	-3287
▁nuclé	-3288
▁condition	-3289
▁directives	-3290
▁demonstr	-3291
ody	-3292
▁ev	-3293
▁ceci	-3294
▁relev	-3295
af	-3296
emb	-3297
ris	-3298
▁prep	-3299
),	-3300
ix	-3301
▁situ	-3302
ortion	-3303
agric	-3304
égalité	-3305
▁commitment	-3306
avoir	-3307
▁doub	-3308
▁appel	-3309
▁attend	-3310
▁nuclear	-3311
▁frontières	-3312
ars	-3313
▁nam	-3314
▁demain	-3315
▁discut	-3316
▁obvious	-3317
▁meilleure	-3318
hen	-3319
▁peti	-3320
▁dimension	-3321
▁budgétaire	-3322
▁fondamentaux	-3323
/9	-3324
▁argu	-3325
▁costs	-3326
▁entra	-3327
▁établ	-3328
hod	-3329
lle	-3330
ève	-3331
▁line	-3332
▁enough	-3333
▁formul	-3334
initiative	-3335
cé	-3336
▁basic	-3337
▁south	-3338
▁représente	-3339
▁organisation	-3340
▁ge	-3341
ancer	-3342
▁week	-3343
▁agricole	-3344
▁véritable	-3345
▁norm	-3346
▁vois	-3347
▁several	-3348
▁funding	-3349
▁ministre	-3350
venus	-3351
▁2004	-3352
▁tran	-3353
▁slo	-3354
▁respe	-3355
▁réduire	-3356
▁régime	-3357
ffic	-3358
accès	-3359
avons	-3360
▁début	-3361
▁absolute	-3362
ark	-3363
▁she	-3364
▁exprim	-3365
▁pleine	-3366
▁équilib	-3367
▁priority	-3368
▁recommend	-3369
▁transparency	-3370
▁féliciter	-3371
▁technologies	-3372
▁lack	-3373
▁extra	-3374
▁aurait	-3375
▁parmi	-3376
▁fisheries	-3377
▁importants	-3378
mpt	-3379
anim	-3380
▁safe	-3381
▁histor	-3382
▁signifie	-3383
▁encourage	-3384
▁technical	-3385
▁investment	-3386
▁fair	-3387
▁values	-3388
▁2009	-3389
▁post	-3390
▁taux	-3391
▁forme	-3392
▁preuve	-3393
▁sociaux	-3394
ossi	-3395
tent	-3396
▁capac	-3397
▁extern	-3398
▁occasion	-3399
▁provided	-3400
▁documents	-3401
▁énergétique	-3402
▁desp	-3403
▁médi	-3404
▁rend	-3405
▁gener	-3406
▁plans	-3407
▁method	-3408
intégration	-3409
▁fail	-3410
▁indis	-3411
▁passé	-3412
▁telles	-3413
▁partnership	-3414
prise	-3415
▁mort	-3416
▁tomorrow	-3417
▁bul	-3418
▁victimes	-3419
self	-3420
▁low	-3421
idemment	-3422
by	-3423
ides	-3424
ariat	-3425
illes	-3426
▁soon	-3427
▁share	-3428
▁voting	-3429
▁perspective	-3430
line	-3431
stac	-3432
liance	-3433
▁guerre	-3434
▁include	-3435
▁budgetary	-3436
▁relatives	-3437
▁précéd	-3438
▁confront	-3439
▁nav	-3440
▁consens	-3441
▁everyone	-3442
uit	-3443
ators	-3444
▁méth	-3445
coming	-3446
▁simil	-3447
ctement	-3448
▁rapporteurs	-3449
iés	-3450
iture	-3451
▁mind	-3452
▁septe	-3453
▁promouv	-3454
ontre	-3455
▁test	-3456
▁estim	-3457
▁agreed	-3458
▁modern	-3459
▁évidemment	-3460
gra	-3461
▁israel	-3462
▁motion	-3463
▁valeurs	-3464
▁présenter	-3465
▁experience	-3466
▁provisions	-3467
▁integration	-3468
temps	-3469
▁pack	-3470
▁until	-3471
▁analys	-3472
▁sources	-3473
▁certainement	-3474
▁cop	-3475
oires	-3476
▁autant	-3477
▁cohésion	-3478
▁rappeler	-3479
▁log	-3480
▁bank	-3481
▁univers	-3482
itime	-3483
▁answer	-3484
▁financières	-3485
tien	-3486
▁eas	-3487
▁coup	-3488
▁ours	-3489
▁external	-3490
▁previous	-3491
▁cho	-3492
raine	-3493
▁accomp	-3494
▁markets	-3495
▁accession	-3496
ton	-3497
etary	-3498
▁terror	-3499
▁vigueur	-3500
ake	-3501
▁comes	-3502
▁présente	-3503
▁2008	-3504
▁tenir	-3505
▁prises	-3506
agriculture	-3507
roph	-3508
▁turn	-3509
▁mécan	-3510
▁porte	-3511
▁trouve	-3512
ief	-3513
lande	-3514
ource	-3515
▁2005	-3516
▁times	-3517
▁améric	-3518
▁travers	-3519
▁réduction	-3520
udi	-3521
part	-3522
adoption	-3523
▁paragraphe	-3524
nelles	-3525
▁engage	-3526
▁construction	-3527
the	-3528
ledge	-3529
▁cost	-3530
▁nove	-3531
liquer	-3532
▁prise	-3533
▁pleased	-3534
lin	-3535
ising	-3536
▁water	-3537
▁prépar	-3538
arer	-3539
▁cohes	-3540
▁critères	-3541
▁arm	-3542
objet	-3543
▁1999	-3544
▁faud	-3545
▁road	-3546
diction	-3547
▁partage	-3548
oid	-3549
▁statut	-3550
▁changes	-3551
▁terrorism	-3552
▁tradition	-3553
▁uniquement	-3554
fully	-3555
▁close	-3556
▁défense	-3557
▁procedures	-3558
▁terrorisme	-3559
prit	-3560
uels	-3561
▁dut	-3562
▁conne	-3563
▁manque	-3564
▁distrib	-3565
▁ensuite	-3566
▁élections	-3567
▁emb	-3568
▁2006	-3569
▁affect	-3570
▁content	-3571
▁propres	-3572
▁exercice	-3573
▁elections	-3574
▁monetary	-3575
▁réellement	-3576
▁dan	-3577
▁gree	-3578
▁consensus	-3579
▁perman	-3580
▁mission	-3581
▁criteria	-3582
anted	-3583
argent	-3584
▁subsidi	-3585
▁colleagues	-3586
▁investisse	-3587
ster	-3588
▁chac	-3589
▁crime	-3590
▁north	-3591
▁contact	-3592
▁code	-3593
▁obstac	-3594
▁practice	-3595
▁incom	-3596
▁makes	-3597
▁vital	-3598
▁obligations	-3599
enh	-3600
▁50	-3601
encer	-3602
limin	-3603
▁debat	-3604
▁depend	-3605
était	-3606
▁save	-3607
léments	-3608
ature	-3609
va	-3610
▁bord	-3611
▁18	-3612
cent	-3613
▁dist	-3614
▁equal	-3615
▁minutes	-3616
▁promouvoir	-3617
oph	-3618
▁nord	-3619
▁tell	-3620
▁benefit	-3621
éducation	-3622
▁priorité	-3623
sif	-3624
éré	-3625
▁mid	-3626
▁indic	-3627
▁protoc	-3628
ha	-3629
rog	-3630
ered	-3631
▁capit	-3632
▁concr	-3633
ester	-3634
▁purp	-3635
▁temp	-3636
▁centra	-3637
▁despite	-3638
▁dési	-3639
▁opportunities	-3640
▁hard	-3641
orient	-3642
▁coûts	-3643
▁cohesion	-3644
▁requirements	-3645
edi	-3646
verty	-3647
▁dois	-3648
▁quoi	-3649
▁poverty	-3650
▁veiller	-3651
▁protéger	-3652
▁financiers	-3653
yn	-3654
▁;	-3655
lier	-3656
venu	-3657
▁upon	-3658
▁review	-3659
▁everything	-3660
▁loin	-3661
▁prim	-3662
▁malgré	-3663
▁statement	-3664
hn	-3665
ri	-3666
rir	-3667
▁pert	-3668
▁dépos	-3669
▁refus	-3670
5-0	-3671
aster	-3672
▁illeg	-3673
▁rempl	-3674
▁integr	-3675
ume	-3676
orig	-3677
vous	-3678
▁courage	-3679
▁prochaine	-3680
enn	-3681
▁lab	-3682
mploy	-3683
▁repe	-3684
igrants	-3685
▁statis	-3686
occasion	-3687
▁response	-3688
▁réformes	-3689
▁souhaiter	-3690
▁reç	-3691
▁hold	-3692
ailleurs	-3693
tig	-3694
érieure	-3695
▁poll	-3696
▁decid	-3697
▁journ	-3698
astroph	-3699
▁unemploy	-3700
cide	-3701
uary	-3702
▁famil	-3703
▁quick	-3704
▁hear	-3705
▁element	-3706
▁éléments	-3707
olid	-3708
ctors	-3709
▁veut	-3710
▁compét	-3711
▁générale	-3712
chan	-3713
▁conserv	-3714
▁grandes	-3715
▁parliamentary	-3716
▁east	-3717
▁pauvre	-3718
▁saying	-3719
▁priorités	-3720
▁catastroph	-3721
▁star	-3722
iennent	-3723
▁améliorer	-3724
▁totalement	-3725
jus	-3726
▁existing	-3727
▁déce	-3728
▁tend	-3729
▁focus	-3730
▁mechan	-3731
▁deuxièmement	-3732
yl	-3733
▁mér	-3734
▁item	-3735
estime	-3736
▁permis	-3737
érieures	-3738
▁training	-3739
▁tâ	-3740
▁seems	-3741
▁proposé	-3742
▁indépend	-3743
▁ourselves	-3744
▁transports	-3745
▁im	-3746
▁dér	-3747
▁minimum	-3748
iver	-3749
erver	-3750
▁chine	-3751
▁namely	-3752
▁police	-3753
▁concept	-3754
efficacité	-3755
▁évo	-3756
▁talk	-3757
▁concentr	-3758
▁secteurs	-3759
▁référence	-3760
▁along	-3761
▁dossi	-3762
▁dir	-3763
▁assur	-3764
▁subsidiar	-3765
▁importantes	-3766
iger	-3767
tient	-3768
▁côté	-3769
▁refle	-3770
▁étaient	-3771
▁flexibil	-3772
0,	-3773
▁acqu	-3774
▁résol	-3775
▁honour	-3776
▁demandé	-3777
▁parvenir	-3778
cul	-3779
▁17	-3780
▁maxim	-3781
▁tabled	-3782
tip	-3783
▁inqui	-3784
▁centre	-3785
▁urgent	-3786
▁respecter	-3787
▁traitement	-3788
endum	-3789
▁waste	-3790
origine	-3791
▁correct	-3792
▁indispens	-3793
▁personnel	-3794
uf	-3795
▁petites	-3796
▁session	-3797
omb	-3798
aining	-3799
▁adoption	-3800
▁trag	-3801
▁qualif	-3802
▁accepter	-3803
▁substanti	-3804
urn	-3805
fait	-3806
▁quot	-3807
▁britann	-3808
▁centrale	-3809
▁creation	-3810
▁throughout	-3811
▁regulations	-3812
▁communautaires	-3813
▁pén	-3814
▁gens	-3815
▁sensi	-3816
▁votes	-3817
ighbour	-3818
▁relevant	-3819
iner	-3820
ontal	-3821
▁left	-3822
▁purs	-3823
▁asked	-3824
▁touch	-3825
▁remind	-3826
▁conflict	-3827
▁monitoring	-3828
▁ign	-3829
▁ground	-3830
▁compens	-3831
▁réunion	-3832
▁positions	-3833
▁dipl	-3834
▁around	-3835
▁neighbour	-3836
▁absolument	-3837
▁substances	-3838
▁2001	-3839
▁condam	-3840
▁relating	-3841
▁immigration	-3842
tré	-3843
▁autom	-3844
▁farmers	-3845
▁military	-3846
▁pac	-3847
ought	-3848
▁zones	-3849
▁compet	-3850
▁difficul	-3851
▁intéress	-3852
▁influence	-3853
tead	-3854
▁either	-3855
▁quelle	-3856
▁résoud	-3857
▁lesquels	-3858
▁‘	-3859
▁held	-3860
▁join	-3861
▁poor	-3862
▁grands	-3863
▁hommes	-3864
▁financier	-3865
▁impossible	-3866
▁collaboration	-3867
▁2003	-3868
▁instead	-3869
▁travailler	-3870
▁quatre	-3871
▁fishing	-3872
▁increased	-3873
umer	-3874
▁sort	-3875
▁highl	-3876
▁stage	-3877
ié	-3878
ber	-3879
▁rich	-3880
▁carried	-3881
▁dépenses	-3882
▁movement	-3883
▁candidats	-3884
▁consultation	-3885
▁laiss	-3886
▁target	-3887
▁required	-3888
▁partenaires	-3889
uly	-3890
êtes	-3891
▁fell	-3892
▁avoid	-3893
▁administrative	-3894
▁dû	-3895
▁tim	-3896
▁considération	-3897
▁compar	-3898
▁ec	-3899
▁syn	-3900
▁exch	-3901
▁risques	-3902
▁vos	-3903
▁home	-3904
ination	-3905
▁enable	-3906
▁pratiques	-3907
▁transition	-3908
'.	-3909
ght	-3910
avis	-3911
▁fun	-3912
▁gas	-3913
▁rig	-3914
▁cultural	-3915
▁sociales	-3916
▁développer	-3917
aging	-3918
égard	-3919
▁langu	-3920
▁dépend	-3921
▁french	-3922
▁profit	-3923
▁approuv	-3924
na	-3925
▁sense	-3926
▁chacun	-3927
▁closed	-3928
▁democr	-3929
ean	-3930
▁dispar	-3931
uni	-3932
▁franç	-3933
▁sport	-3934
▁conver	-3935
immigration	-3936
▁surveill	-3937
▁chô	-3938
aucra	-3939
▁haut	-3940
▁live	-3941
▁thanks	-3942
voy	-3943
assemblée	-3944
▁félicite	-3945
▁pauvreté	-3946
▁voy	-3947
▁larg	-3948
▁cross	-3949
▁venir	-3950
▁amendement	-3951
▁situations	-3952
▁pil	-3953
▁concil	-3954
▁pleinement	-3955
▁consequences	-3956
▁évé	-3957
▁task	-3958
mation	-3959
▁présenté	-3960
▁absolutely	-3961
▁priorities	-3962
ron	-3963
ania	-3964
▁spee	-3965
▁china	-3966
sterdam	-3967
étaires	-3968
▁parole	-3969
oit	-3970
▁balk	-3971
▁pren	-3972
▁doubt	-3973
▁ven	-3974
engen	-3975
ending	-3976
▁prepared	-3977
▁potential	-3978
▁presented	-3979
dit	-3980
▁big	-3981
▁créd	-3982
▁barro	-3983
▁octob	-3984
▁called	-3985
▁raised	-3986
oss	-3987
idée	-3988
bal	-3989
▁dam	-3990
▁tenu	-3991
▁consac	-3992
▁undert	-3993
▁valeur	-3994
attention	-3995
▁fiscal	-3996
▁transp	-3997
▁produit	-3998
▁respond	-3999
▁bureaucra	-4000
organisation	-4001
sez	-4002
▁hor	-4003
▁old	-4004
▁dise	-4005
▁pati	-4006
▁modif	-4007
▁across	-4008
▁besoins	-4009
▁schengen	-4010
ghan	-4011
▁2002	-4012
▁powers	-4013
ification	-4014
▁recently	-4015
▁résoudre	-4016
▁perspectives	-4017
▁vert	-4018
ruption	-4019
▁coming	-4020
▁succès	-4021
▁exception	-4022
▁exigences	-4023
▁précisément	-4024
ew	-4025
pol	-4026
établ	-4027
▁vice	-4028
▁value	-4029
▁challeng	-4030
0.	-4031
org	-4032
érien	-4033
▁trib	-4034
▁allem	-4035
▁van	-4036
▁maje	-4037
▁deleg	-4038
introdu	-4039
▁circum	-4040
▁consist	-4041
▁publics	-4042
▁victims	-4043
▁pourtant	-4044
▁cra	-4045
▁pourra	-4046
▁reduce	-4047
▁puisque	-4048
▁reading	-4049
▁included	-4050
▁deli	-4051
▁peuple	-4052
▁produc	-4053
▁submit	-4054
▁corresp	-4055
▁lecture	-4056
▁attitude	-4057
▁constituent	-4058
▁16	-4059
▁rév	-4060
▁télé	-4061
▁adopter	-4062
▁internet	-4063
▁ppe	-4064
▁stud	-4065
▁vrai	-4066
ressive	-4067
▁levels	-4068
▁official	-4069
▁representatives	-4070
",	-4071
rier	-4072
▁west	-4073
▁furth	-4074
▁africa	-4075
▁heures	-4076
▁illegal	-4077
▁consolid	-4078
▁renforcement	-4079
oix	-4080
▁ire	-4081
▁iran	-4082
▁using	-4083
▁immedi	-4084
▁séance	-4085
▁borders	-4086
yer	-4087
▁lear	-4088
▁adéqu	-4089
▁ireland	-4090
▁tre	-4091
▁2020	-4092
▁genu	-4093
▁choix	-4094
▁commencer	-4095
▁parlementaire	-4096
usive	-4097
▁diver	-4098
▁euros	-4099
▁declar	-4100
▁industri	-4101
▁alimentaire	-4102
amen	-4103
▁bilat	-4104
▁death	-4105
▁merci	-4106
▁whose	-4107
▁comité	-4108
▁prepar	-4109
▁considère	-4110
▁passe	-4111
▁entraî	-4112
▁fellow	-4113
▁leaders	-4114
▁correspond	-4115
▁spécifique	-4116
ige	-4117
▁ii	-4118
tences	-4119
▁phase	-4120
▁procès	-4121
▁reached	-4122
▁climatique	-4123
▁sea	-4124
▁préf	-4125
▁reality	-4126
▁link	-4127
▁light	-4128
▁giving	-4129
▁pressure	-4130
▁ministers	-4131
institution	-4132
▁cut	-4133
tirer	-4134
▁swed	-4135
▁délég	-4136
▁devoir	-4137
▁semaine	-4138
▁expressed	-4139
▁conformément	-4140
▁surveillance	-4141
▁rele	-4142
ermore	-4143
▁decided	-4144
▁mondial	-4145
▁emissions	-4146
▁furthermore	-4147
ished	-4148
▁list	-4149
▁difficultés	-4150
br	-4151
ols	-4152
▁dépl	-4153
▁abord	-4154
▁limit	-4155
▁diplom	-4156
▁modèle	-4157
▁quickly	-4158
▁poursuivre	-4159
inves	-4160
oting	-4161
▁completely	-4162
▁compétences	-4163
▁occup	-4164
▁renew	-4165
theless	-4166
▁vision	-4167
▁nevertheless	-4168
▁try	-4169
▁jouer	-4170
quée	-4171
érons	-4172
mption	-4173
▁auxqu	-4174
▁avanc	-4175
▁exact	-4176
▁almost	-4177
▁convin	-4178
▁puissent	-4179
▁efficient	-4180
abs	-4181
ung	-4182
appr	-4183
itaire	-4184
▁suffic	-4185
iterranean	-4186
▁permettant	-4187
dio	-4188
▁27	-4189
atoire	-4190
▁immédi	-4191
▁medium	-4192
▁nationale	-4193
▁structures	-4194
▁iraq	-4195
▁aides	-4196
▁source	-4197
▁talking	-4198
▁conclure	-4199
▁criminal	-4200
▁portugal	-4201
▁innovation	-4202
ails	-4203
cise	-4204
ubli	-4205
erves	-4206
▁haute	-4207
▁éviter	-4208
▁supported	-4209
▁circulation	-4210
▁possibilités	-4211
nels	-4212
▁dix	-4213
▁ayant	-4214
▁souff	-4215
▁décembre	-4216
▁sufficient	-4217
▁spécifiques	-4218
ka	-4219
oking	-4220
ublic	-4221
encies	-4222
assurer	-4223
▁recons	-4224
▁rester	-4225
▁defence	-4226
▁private	-4227
▁ensuring	-4228
▁pourraient	-4229
▁partenariat	-4230
▁constructive	-4231
lan	-4232
tiss	-4233
▁takes	-4234
▁vient	-4235
▁continent	-4236
▁premièrement	-4237
oser	-4238
anges	-4239
▁donne	-4240
▁offer	-4241
▁élément	-4242
▁engagement	-4243
▁territoire	-4244
ands	-4245
▁jours	-4246
orp	-4247
▁loi	-4248
▁actuel	-4249
▁trying	-4250
▁traffic	-4251
▁travaux	-4252
▁capacité	-4253
▁permettra	-4254
rich	-4255
▁mas	-4256
ouvel	-4257
venue	-4258
▁voil	-4259
▁montre	-4260
▁sectors	-4261
▁reduction	-4262
▁implemented	-4263
▁unemployment	-4264
abor	-4265
▁five	-4266
▁stop	-4267
▁monétaire	-4268
tics	-4269
▁wid	-4270
▁sent	-4271
▁package	-4272
▁competitiveness	-4273
agir	-4274
ague	-4275
ctron	-4276
▁alloc	-4277
▁lutter	-4278
▁aider	-4279
▁liste	-4280
atiques	-4281
▁apporter	-4282
▁approved	-4283
▁comprendre	-4284
▁fonctionnement	-4285
99	-4286
▁pron	-4287
▁partis	-4288
▁passer	-4289
▁réjouis	-4290
▁similar	-4291
▁acceptable	-4292
▁businesses	-4293
▁compétitivité	-4294
▁poss	-4295
▁entière	-4296
ède	-4297
▁réc	-4298
iency	-4299
▁authority	-4300
dé	-4301
▁ber	-4302
▁top	-4303
▁cinq	-4304
▁else	-4305
▁green	-4306
▁habit	-4307
▁price	-4308
▁civile	-4309
▁effects	-4310
▁moreover	-4311
ec	-4312
bur	-4313
▁belg	-4314
actions	-4315
▁derniers	-4316
▁maritime	-4317
▁practical	-4318
▁assessment	-4319
ox	-4320
▁réfug	-4321
▁voilà	-4322
▁banque	-4323
acer	-4324
teur	-4325
▁fre	-4326
▁effets	-4327
▁received	-4328
▁intention	-4329
ases	-4330
▁run	-4331
autor	-4332
▁away	-4333
▁exten	-4334
▁républi	-4335
▁circumst	-4336
▁contribu	-4337
▁déclarations	-4338
▁humanitarian	-4339
exist	-4340
mettre	-4341
▁connaiss	-4342
itish	-4343
▁serb	-4344
▁peine	-4345
rehen	-4346
▁media	-4347
▁behind	-4348
▁return	-4349
▁outside	-4350
▁sitting	-4351
cisely	-4352
▁paper	-4353
issements	-4354
▁democrats	-4355
▁transform	-4356
▁drug	-4357
▁challenges	-4358
iez	-4359
ested	-4360
▁mêmes	-4361
▁clarif	-4362
▁chômage	-4363
▁precisely	-4364
gen	-4365
▁dece	-4366
▁décl	-4367
▁défis	-4368
▁brought	-4369
▁renouvel	-4370
▁bulgar	-4371
▁possibility	-4372
▁internationales	-4373
val	-4374
▁21	-4375
oque	-4376
▁emerg	-4377
▁charge	-4378
▁refuge	-4379
▁british	-4380
▁commerci	-4381
▁responsables	-4382
▁près	-4383
▁barroso	-4384
éro	-4385
▁bio	-4386
upart	-4387
▁assez	-4388
▁grave	-4389
▁concre	-4390
▁plupart	-4391
▁established	-4392
▁self	-4393
▁tire	-4394
érience	-4395
▁republic	-4396
▁nucléaire	-4397
▁confidence	-4398
▁scientific	-4399
bourg	-4400
▁hong	-4401
▁mauv	-4402
▁parl	-4403
▁savez	-4404
ulteurs	-4405
▁events	-4406
▁parfait	-4407
dom	-4408
▁exces	-4409
▁intégr	-4410
▁libert	-4411
▁fournir	-4412
▁inquiét	-4413
laud	-4414
ually	-4415
▁engag	-4416
augment	-4417
▁emplois	-4418
▁discussed	-4419
▁république	-4420
rée	-4421
▁etc	-4422
▁1998	-4423
▁days	-4424
▁tack	-4425
elines	-4426
▁belar	-4427
ël	-4428
acy	-4429
▁conj	-4430
▁décidé	-4431
▁balkans	-4432
▁déclaré	-4433
▁favoris	-4434
▁additional	-4435
▁circumstances	-4436
▁indispensable	-4437
▁représentants	-4438
▁gé	-4439
hold	-4440
alised	-4441
▁adapt	-4442
sidered	-4443
▁amount	-4444
▁pensons	-4445
▁capacity	-4446
▁independent	-4447
▁responsabil	-4448
zed	-4449
▁sor	-4450
▁dign	-4451
govern	-4452
▁agency	-4453
▁americ	-4454
▁billion	-4455
▁constater	-4456
▁opér	-4457
▁natural	-4458
▁étro	-4459
▁stock	-4460
▁extent	-4461
▁criticis	-4462
aign	-4463
odes	-4464
▁chi	-4465
▁vont	-4466
landais	-4467
▁longtemps	-4468
▁opposition	-4469
▁effectivement	-4470
▁x	-4471
▁lux	-4472
▁neg	-4473
▁roy	-4474
quées	-4475
ulent	-4476
▁dimin	-4477
▁mener	-4478
▁convainc	-4479
▁structurels	-4480
▁naturellement	-4481
ye	-4482
inte	-4483
▁biais	-4484
government	-4485
▁violations	-4486
▁réd	-4487
▁voix	-4488
inking	-4489
ormais	-4490
▁animaux	-4491
▁conflit	-4492
▁désormais	-4493
▁investissements	-4494
qués	-4495
▁réun	-4496
▁living	-4497
▁proceed	-4498
▁creating	-4499
▁lesquelles	-4500
dibil	-4501
▁pression	-4502
▁obviously	-4503
▁réglementation	-4504
▁ép	-4505
étés	-4506
▁lot	-4507
êcher	-4508
▁vise	-4509
▁dossier	-4510
améliorer	-4511
▁territor	-4512
▁treatment	-4513
▁pes	-4514
▁transf	-4515
▁pollution	-4516
dle	-4517
▁abst	-4518
▁affirm	-4519
▁révision	-4520
▁provision	-4521
▁enterprises	-4522
▁unacceptable	-4523
eté	-4524
▁ton	-4525
▁deep	-4526
▁concrè	-4527
▁multil	-4528
▁affected	-4529
▁december	-4530
rez	-4531
uff	-4532
lies	-4533
ynam	-4534
arder	-4535
▁bear	-4536
▁spir	-4537
▁yeux	-4538
jouter	-4539
▁allons	-4540
▁mandat	-4541
▁contribute	-4542
▁technology	-4543
▁événements	-4544
▁suffisamment	-4545
nex	-4546
ylum	-4547
▁dec	-4548
▁model	-4549
▁wrong	-4550
▁safegu	-4551
▁tempor	-4552
▁soutiens	-4553
▁introduction	-4554
know	-4555
réci	-4556
▁acp	-4557
▁dic	-4558
▁perd	-4559
▁rail	-4560
▁side	-4561
▁illég	-4562
itaires	-4563
▁design	-4564
▁applied	-4565
▁techniques	-4566
èce	-4567
èrent	-4568
▁prend	-4569
asbourg	-4570
▁asylum	-4571
▁prévention	-4572
▁1,	-4573
demn	-4574
erial	-4575
▁afghan	-4576
ouverture	-4577
▁alternative	-4578
▁gl	-4579
▁former	-4580
▁prices	-4581
▁engagements	-4582
oule	-4583
▁vit	-4584
cteur	-4585
▁pose	-4586
▁chois	-4587
▁worth	-4588
cidents	-4589
▁copenh	-4590
▁publiques	-4591
▁considered	-4592
▁proportion	-4593
▁conséquence	-4594
▁goods	-4595
▁scope	-4596
vere	-4597
wise	-4598
▁rate	-4599
▁devra	-4600
ocrates	-4601
ological	-4602
▁obtenir	-4603
▁effectively	-4604
▁conciliation	-4605
éle	-4606
▁40	-4607
anci	-4608
▁duty	-4609
▁weak	-4610
▁dynam	-4611
▁heard	-4612
▁shown	-4613
▁suivre	-4614
▁colleague	-4615
▁guidelines	-4616
▁disposition	-4617
▁fil	-4618
mples	-4619
alités	-4620
▁accepted	-4621
▁improving	-4622
▁ministres	-4623
▁corruption	-4624
▁strasbourg	-4625
▁responsabilités	-4626
del	-4627
esprit	-4628
▁favorable	-4629
▁responsable	-4630
tra	-4631
▁lic	-4632
oncer	-4633
▁juin	-4634
▁dispon	-4635
▁reforms	-4636
▁sérieux	-4637
▁determin	-4638
▁disaster	-4639
▁juridiques	-4640
ape	-4641
ator	-4642
▁100	-4643
▁sup	-4644
▁reme	-4645
▁amélior	-4646
▁personal	-4647
▁réfugiés	-4648
▁obstacles	-4649
▁changements	-4650
▁supplémentaires	-4651
▁vé	-4652
▁via	-4653
aborer	-4654
ctures	-4655
▁forte	-4656
novation	-4657
▁capable	-4658
▁comments	-4659
▁knowledge	-4660
▁technique	-4661
▁institutional	-4662
▁typ	-4663
▁secret	-4664
▁libéralisation	-4665
tons	-4666
▁family	-4667
▁positif	-4668
governmental	-4669
▁réce	-4670
▁senti	-4671
▁récemment	-4672
▁honourable	-4673
ocks	-4674
ruct	-4675
▁paie	-4676
▁plann	-4677
▁equality	-4678
▁function	-4679
▁seriously	-4680
▁efficiency	-4681
roî	-4682
▁siè	-4683
▁rapid	-4684
▁investig	-4685
▁blo	-4686
▁proven	-4687
▁restruct	-4688
ép	-4689
▁ang	-4690
▁june	-4691
▁took	-4692
▁chiff	-4693
▁régul	-4694
▁supply	-4695
▁dealing	-4696
▁déchets	-4697
▁difficulties	-4698
alu	-4699
iving	-4700
▁strict	-4701
ologique	-4702
▁purpose	-4703
▁remains	-4704
intention	-4705
▁milliards	-4706
▁producteurs	-4707
cadre	-4708
▁semb	-4709
▁aimed	-4710
équilib	-4711
▁middle	-4712
▁atteindre	-4713
enge	-4714
▁dég	-4715
quate	-4716
▁1997	-4717
▁chap	-4718
angere	-4719
▁views	-4720
▁adress	-4721
▁causes	-4722
▁speech	-4723
esterday	-4724
▁dangere	-4725
▁simplif	-4726
▁provides	-4727
▁caractère	-4728
aimer	-4729
ously	-4730
urance	-4731
▁calls	-4732
▁carry	-4733
▁oubli	-4734
▁prévoit	-4735
▁benefits	-4736
▁yesterday	-4737
▁infrastructure	-4738
».	-4739
delà	-4740
▁route	-4741
urgence	-4742
aimerais	-4743
▁maintenir	-4744
▁émissions	-4745
▁souhaiterais	-4746
sk	-4747
aume	-4748
▁obt	-4749
▁tex	-4750
▁hier	-4751
ieving	-4752
▁closely	-4753
▁espérons	-4754
▁transfer	-4755
▁beginning	-4756
▁agriculteurs	-4757
loy	-4758
jout	-4759
çons	-4760
arily	-4761
▁cust	-4762
▁forms	-4763
▁natur	-4764
▁animal	-4765
ématique	-4766
▁experts	-4767
▁exchange	-4768
itablement	-4769
▁challenge	-4770
▁developed	-4771
▁étrangère	-4772
▁der	-4773
▁firm	-4774
▁intérêt	-4775
▁providing	-4776
▁connection	-4777
▁ferme	-4778
▁requires	-4779
▁reference	-4780
ana	-4781
unch	-4782
lands	-4783
▁goes	-4784
▁parfois	-4785
▁certaine	-4786
▁présence	-4787
▁souligné	-4788
▁populations	-4789
▁relationship	-4790
▁mediterranean	-4791
pir	-4792
▁fo	-4793
cale	-4794
forme	-4795
▁evid	-4796
▁suppr	-4797
▁assure	-4798
▁allowed	-4799
▁comptes	-4800
▁faisant	-4801
▁relatif	-4802
innovation	-4803
▁promoting	-4804
amélioration	-4805
▁restrictions	-4806
▁bey	-4807
ighted	-4808
▁chair	-4809
▁recev	-4810
▁tradu	-4811
▁decide	-4812
▁graves	-4813
▁royaume	-4814
▁industrial	-4815
▁préoccupations	-4816
▁fed	-4817
▁committed	-4818
way	-4819
▁oil	-4820
asile	-4821
▁prefer	-4822
▁libertés	-4823
▁pourrons	-4824
▁pouvoirs	-4825
▁implementing	-4826
pré	-4827
vres	-4828
▁flo	-4829
sibles	-4830
▁austr	-4831
▁advant	-4832
▁explic	-4833
▁circons	-4834
▁rightly	-4835
▁traités	-4836
io	-4837
omc	-4838
▁ferm	-4839
▁surv	-4840
entrer	-4841
▁steps	-4842
▁suivi	-4843
ussels	-4844
▁modifi	-4845
▁offici	-4846
▁réseau	-4847
▁spirit	-4848
▁belarus	-4849
▁contenu	-4850
▁niveaux	-4851
▁perform	-4852
▁agricoles	-4853
▁lu	-4854
ctric	-4855
impact	-4856
▁ligne	-4857
▁expend	-4858
▁luxemb	-4859
fications	-4860
▁strategic	-4861
▁tch	-4862
itent	-4863
associ	-4864
▁évent	-4865
▁partir	-4866
▁useful	-4867
▁history	-4868
▁brussels	-4869
▁réaliser	-4870
évaluation	-4871
▁conscience	-4872
▁administration	-4873
▁,	-4874
emp	-4875
expr	-4876
just	-4877
opin	-4878
mêmes	-4879
ounts	-4880
▁half	-4881
▁huge	-4882
commun	-4883
▁utile	-4884
▁crimes	-4885
▁prison	-4886
▁ukraine	-4887
▁consiste	-4888
▁manifest	-4889
▁prochain	-4890
▁transparent	-4891
▁specifically	-4892
quant	-4893
▁offr	-4894
érique	-4895
▁stated	-4896
▁entrepr	-4897
▁communes	-4898
vier	-4899
▁fear	-4900
▁pact	-4901
rement	-4902
▁expos	-4903
▁legiti	-4904
▁regime	-4905
▁counter	-4906
▁directly	-4907
▁luxembour	-4908
eaux	-4909
▁198	-4910
▁tard	-4911
▁consideration	-4912
▁lign	-4913
▁garan	-4914
aujourd	-4915
▁comprehen	-4916
ma	-4917
anie	-4918
agers	-4919
risti	-4920
▁erre	-4921
▁ethn	-4922
▁span	-4923
itions	-4924
lation	-4925
▁lives	-4926
▁adoptée	-4927
▁overall	-4928
▁britannique	-4929
ges	-4930
elling	-4931
▁scand	-4932
▁autoris	-4933
tissement	-4934
▁successful	-4935
pro	-4936
▁accr	-4937
▁référ	-4938
échange	-4939
▁highly	-4940
▁status	-4941
▁évident	-4942
▁étrangères	-4943
▁consommation	-4944
▁reconnaissance	-4945
▁brief	-4946
▁dictat	-4947
▁paquet	-4948
▁demands	-4949
▁material	-4950
▁bénéficier	-4951
▁expenditure	-4952
ival	-4953
onde	-4954
▁ara	-4955
▁viv	-4956
iction	-4957
▁livre	-4958
▁prime	-4959
▁distin	-4960
▁ratification	-4961
▁constitutional	-4962
jected	-4963
▁parle	-4964
▁myself	-4965
▁travel	-4966
▁pension	-4967
▁sociétés	-4968
▁ambitious	-4969
▁considerable	-4970
▁stim	-4971
▁tâche	-4972
▁beyond	-4973
▁desire	-4974
▁permanent	-4975
▁harmonisation	-4976
▁ky	-4977
crib	-4978
▁sait	-4979
▁tort	-4980
▁ways	-4981
issons	-4982
▁député	-4983
▁entend	-4984
▁created	-4985
▁dispose	-4986
▁measure	-4987
▁définition	-4988
▁participer	-4989
uded	-4990
▁separ	-4991
▁spend	-4992
▁figure	-4993
▁incorp	-4994
▁listen	-4995
▁quotas	-4996
▁traiter	-4997
▁supporting	-4998
éti	-4999
onom	-5000
sized	-5001
▁subs	-5002
▁shows	-5003
▁débats	-5004
▁germany	-5005
▁exclusive	-5006
▁principal	-5007
▁accordance	-5008
3,	-5009
▁burd	-5010
▁custom	-5011
▁greece	-5012
▁trafic	-5013
▁remember	-5014
dis	-5015
gos	-5016
inf	-5017
▁ade	-5018
▁cle	-5019
tenir	-5020
▁bonnes	-5021
▁unanim	-5022
▁réseaux	-5023
▁garantie	-5024
▁économie	-5025
▁immédiate	-5026
▁ul	-5027
usse	-5028
▁bur	-5029
▁cer	-5030
▁mai	-5031
▁faci	-5032
verbal	-5033
▁parlé	-5034
▁intended	-5035
▁connaissance	-5036
▁wto	-5037
ender	-5038
▁seek	-5039
▁entit	-5040
▁genre	-5041
▁réussi	-5042
▁facilit	-5043
cée	-5044
ined	-5045
▁tele	-5046
▁claim	-5047
▁lignes	-5048
▁opinions	-5049
▁utiliser	-5050
lam	-5051
ades	-5052
▁vul	-5053
▁liés	-5054
▁veux	-5055
uxelles	-5056
▁taxation	-5057
▁arguments	-5058
▁financing	-5059
▁principaux	-5060
▁fondamental	-5061
▁reconstruction	-5062
-00	-5063
▁pure	-5064
▁monna	-5065
▁round	-5066
▁élevé	-5067
▁border	-5068
▁speaking	-5069
▁safeguard	-5070
▁délégation	-5071
▁declaration	-5072
201	-5073
amb	-5074
llig	-5075
▁har	-5076
▁sche	-5077
▁veulent	-5078
▁pourront	-5079
▁tourisme	-5080
▁achieving	-5081
afr	-5082
▁cub	-5083
▁agir	-5084
▁atta	-5085
▁auquel	-5086
▁certes	-5087
▁eastern	-5088
▁spanish	-5089
▁led	-5090
▁early	-5091
▁office	-5092
▁regrett	-5093
▁semaines	-5094
▁delegation	-5095
▁budgétaires	-5096
nl	-5097
▁divis	-5098
▁bodies	-5099
▁january	-5100
▁maximum	-5101
▁personn	-5102
▁contrôles	-5103
acks	-5104
works	-5105
▁leave	-5106
▁poser	-5107
▁annual	-5108
▁bureau	-5109
▁croati	-5110
▁maintain	-5111
▁properly	-5112
▁emphasise	-5113
▁developments	-5114
ding	-5115
making	-5116
▁audit	-5117
▁cover	-5118
▁thous	-5119
absence	-5120
emplois	-5121
opinion	-5122
écution	-5123
▁wanted	-5124
▁statements	-5125
▁commitments	-5126
iée	-5127
▁pét	-5128
ening	-5129
explo	-5130
▁forum	-5131
▁cooper	-5132
▁product	-5133
▁campaign	-5134
▁bruxelles	-5135
▁2,	-5136
▁age	-5137
andon	-5138
iendra	-5139
▁soumis	-5140
▁standard	-5141
▁establishing	-5142
▁inacceptable	-5143
comp	-5144
ring	-5145
▁dén	-5146
euvre	-5147
ismes	-5148
▁fulf	-5149
▁essay	-5150
▁penal	-5151
▁staff	-5152
▁envers	-5153
▁interp	-5154
▁peuples	-5155
▁combating	-5156
5,	-5157
roy	-5158
head	-5159
▁soi	-5160
▁reçu	-5161
▁énor	-5162
▁employe	-5163
▁humains	-5164
▁reduced	-5165
▁activity	-5166
▁meilleur	-5167
▁europeans	-5168
▁militaire	-5169
▁directement	-5170
▁particulière	-5171
ane	-5172
▁trust	-5173
▁arrange	-5174
▁calling	-5175
▁genuine	-5176
▁pauvres	-5177
▁setting	-5178
▁réalisation	-5179
▁jap	-5180
▁1996	-5181
▁alone	-5182
▁clause	-5183
encontre	-5184
▁accompl	-5185
▁condemn	-5186
▁importe	-5187
▁methods	-5188
▁tourism	-5189
▁méditerran	-5190
▁obligation	-5191
hol	-5192
ros	-5193
▁24	-5194
iles	-5195
▁vir	-5196
▁land	-5197
▁symb	-5198
▁menace	-5199
▁défendre	-5200
▁introduced	-5201
ids	-5202
▁soulev	-5203
▁transfr	-5204
▁étroite	-5205
▁constant	-5206
▁contrary	-5207
▁entirely	-5208
▁representative	-5209
▁ai	-5210
▁bad	-5211
▁exer	-5212
ducing	-5213
▁faits	-5214
▁vehic	-5215
▁réflex	-5216
▁outcome	-5217
▁produce	-5218
▁spécial	-5219
▁alimentaires	-5220
▁parfaitement	-5221
▁uni	-5222
alism	-5223
après	-5224
▁easi	-5225
called	-5226
▁exige	-5227
▁gives	-5228
▁learn	-5229
▁double	-5230
▁record	-5231
▁secure	-5232
▁stocks	-5233
european	-5234
▁earlier	-5235
▁janvier	-5236
▁convinced	-5237
▁démocratiques	-5238
▁mars	-5239
▁weeks	-5240
▁caused	-5241
▁quelles	-5242
▁reducing	-5243
▁sensible	-5244
▁efficaces	-5245
▁progressive	-5246
▁distribution	-5247
▁comprehensive	-5248
der	-5249
ged	-5250
▁enh	-5251
▁ajout	-5252
▁soins	-5253
▁procéder	-5254
▁globalisation	-5255
▁strengthening	-5256
2,	-5257
▁sk	-5258
crip	-5259
▁aims	-5260
▁says	-5261
▁seem	-5262
▁verts	-5263
▁passeng	-5264
▁conflits	-5265
▁maintien	-5266
▁patients	-5267
▁largement	-5268
▁otherwise	-5269
▁encourager	-5270
▁association	-5271
hon	-5272
vered	-5273
▁oral	-5274
▁turk	-5275
▁irish	-5276
▁risks	-5277
▁wants	-5278
▁reject	-5279
▁building	-5280
▁français	-5281
▁improved	-5282
▁cohér	-5283
▁later	-5284
▁speed	-5285
ization	-5286
▁aérien	-5287
▁exactly	-5288
▁souhaitons	-5289
▁contributions	-5290
rant	-5291
▁lik	-5292
intes	-5293
▁slov	-5294
▁appre	-5295
▁parts	-5296
▁tirer	-5297
▁crédits	-5298
▁proposer	-5299
▁immigrants	-5300
▁decl	-5301
▁paid	-5302
▁actes	-5303
▁véhic	-5304
umption	-5305
▁acknow	-5306
▁stabil	-5307
▁happened	-5308
▁modification	-5309
▁transfrontal	-5310
jud	-5311
body	-5312
isent	-5313
▁urge	-5314
naires	-5315
▁démar	-5316
▁enorm	-5317
▁pacte	-5318
▁devenir	-5319
▁limited	-5320
▁looking	-5321
▁thought	-5322
▁infrastructures	-5323
▁!	-5324
ift	-5325
▁jo	-5326
ians	-5327
times	-5328
▁abol	-5329
▁défi	-5330
▁accès	-5331
▁prodi	-5332
▁durant	-5333
▁pointed	-5334
▁conclude	-5335
inc	-5336
léch	-5337
▁mass	-5338
▁shar	-5339
▁crises	-5340
▁forget	-5341
▁longue	-5342
▁succeed	-5343
▁économies	-5344
oll	-5345
hist	-5346
erait	-5347
ports	-5348
▁disch	-5349
▁dirige	-5350
▁compagn	-5351
▁american	-5352
▁analysis	-5353
▁original	-5354
▁afghanistan	-5355
▁reconnaître	-5356
lav	-5357
ufact	-5358
harmon	-5359
▁prévu	-5360
▁study	-5361
▁anything	-5362
arch	-5363
▁bos	-5364
quête	-5365
▁anci	-5366
▁draf	-5367
▁uvre	-5368
èlement	-5369
▁attach	-5370
européen	-5371
▁charter	-5372
▁montrer	-5373
▁transit	-5374
▁excessive	-5375
1)	-5376
roc	-5377
tedly	-5378
▁imag	-5379
▁king	-5380
▁visa	-5381
alisme	-5382
▁taxes	-5383
▁intellig	-5384
▁augmentation	-5385
mon	-5386
oise	-5387
▁sad	-5388
tical	-5389
umière	-5390
▁asking	-5391
▁faudra	-5392
▁manufact	-5393
▁september	-5394
atte	-5395
▁soir	-5396
▁whom	-5397
affirm	-5398
pected	-5399
▁appreci	-5400
▁souligne	-5401
engagement	-5402
▁internationaux	-5403
/0	-5404
ya	-5405
fect	-5406
▁dot	-5407
▁pme	-5408
lique	-5409
where	-5410
▁plén	-5411
▁quan	-5412
adopter	-5413
▁retour	-5414
▁currency	-5415
▁septembre	-5416
▁prevention	-5417
▁recommandations	-5418
▁wat	-5419
lause	-5420
▁ideas	-5421
▁known	-5422
casions	-5423
▁closer	-5424
▁estime	-5425
▁locales	-5426
▁november	-5427
▁palestinian	-5428
iè	-5429
▁mac	-5430
▁paci	-5431
▁comporte	-5432
ficit	-5433
éraux	-5434
▁caus	-5435
▁retr	-5436
▁higher	-5437
▁monnaie	-5438
▁suggest	-5439
▁probably	-5440
▁sometimes	-5441
▁discussing	-5442
▁governance	-5443
▁represents	-5444
▁competitive	-5445
',	-5446
cel	-5447
▁quo	-5448
▁sac	-5449
▁ship	-5450
border	-5451
▁drawn	-5452
▁surpr	-5453
▁entire	-5454
▁forest	-5455
▁pertin	-5456
ancement	-5457
▁managed	-5458
▁discuter	-5459
▁multilat	-5460
▁reprises	-5461
▁operation	-5462
▁recognise	-5463
▁finalement	-5464
▁differences	-5465
▁mondialisation	-5466
hér	-5467
imb	-5468
aries	-5469
atégor	-5470
▁types	-5471
clusion	-5472
▁impose	-5473
▁stimul	-5474
▁condamn	-5475
▁disposer	-5476
▁occasions	-5477
▁convergence	-5478
▁humanitaire	-5479
gue	-5480
unt	-5481
▁ém	-5482
oure	-5483
▁fab	-5484
▁catégor	-5485
▁potentiel	-5486
▁producers	-5487
hu	-5488
ued	-5489
lles	-5490
ters	-5491
acter	-5492
oblig	-5493
▁répé	-5494
▁arrive	-5495
▁damage	-5496
▁animals	-5497
▁heureux	-5498
▁finances	-5499
▁instance	-5500
▁moyennes	-5501
▁submitted	-5502
▁collective	-5503
▁évaluation	-5504
introduction	-5505
▁compensation	-5506
orde	-5507
▁gal	-5508
▁hop	-5509
▁facing	-5510
existence	-5511
▁dangerous	-5512
▁considérable	-5513
▁increasingly	-5514
▁simplification	-5515
▁aver	-5516
▁repl	-5517
▁étab	-5518
▁envoy	-5519
▁matin	-5520
▁reply	-5521
akistan	-5522
▁affaire	-5523
▁refugees	-5524
▁thinking	-5525
▁establishment	-5526
uk	-5527
aid	-5528
▁sl	-5529
ular	-5530
▁jug	-5531
▁sil	-5532
lines	-5533
▁hung	-5534
▁meps	-5535
▁susp	-5536
▁radio	-5537
▁analyse	-5538
▁conduct	-5539
▁morning	-5540
▁opening	-5541
▁parlons	-5542
▁pakistan	-5543
▁candidate	-5544
▁concernés	-5545
▁populaire	-5546
▁compétence	-5547
▁1.	-5548
▁lac	-5549
▁phy	-5550
outes	-5551
▁dead	-5552
▁wait	-5553
▁announ	-5554
▁assemb	-5555
▁mérite	-5556
▁romania	-5557
▁version	-5558
▁exprimer	-5559
▁faciliter	-5560
▁substance	-5561
▁luxembourg	-5562
▁parlementaires	-5563
4-0	-5564
rie	-5565
outh	-5566
yons	-5567
▁cur	-5568
▁approf	-5569
▁avenir	-5570
▁charte	-5571
▁rencon	-5572
ignement	-5573
▁méthode	-5574
▁mécanisme	-5575
laudissements	-5576
▁liberalisation	-5577
2)	-5578
hr	-5579
oto	-5580
▁23	-5581
▁fif	-5582
▁assist	-5583
▁auprès	-5584
▁insist	-5585
▁médias	-5586
▁option	-5587
▁aborder	-5588
▁devront	-5589
▁décider	-5590
▁définir	-5591
▁critical	-5592
▁strongly	-5593
ailed	-5594
▁lanc	-5595
▁weap	-5596
▁liées	-5597
▁launch	-5598
▁chances	-5599
▁laisser	-5600
▁persons	-5601
▁protocole	-5602
▁régionale	-5603
ina	-5604
illet	-5605
itten	-5606
▁couv	-5607
▁added	-5608
▁gouvern	-5609
▁raisonn	-5610
▁networks	-5611
▁produced	-5612
▁industries	-5613
▁essentielle	-5614
▁commerciales	-5615
hum	-5616
aliser	-5617
itoyens	-5618
▁multip	-5619
▁retard	-5620
▁montant	-5621
▁soutenu	-5622
▁becoming	-5623
▁elements	-5624
▁referred	-5625
▁naturally	-5626
▁violation	-5627
▁destruction	-5628
of	-5629
adap	-5630
▁chez	-5631
▁parv	-5632
orable	-5633
▁aient	-5634
▁appear	-5635
▁network	-5636
▁concrete	-5637
bas	-5638
dra	-5639
astr	-5640
▁asi	-5641
tiles	-5642
▁body	-5643
▁isol	-5644
▁scho	-5645
▁sembl	-5646
▁manner	-5647
▁compati	-5648
▁presque	-5649
▁novembre	-5650
▁avantages	-5651
▁discharge	-5652
▁â	-5653
▁60	-5654
atlan	-5655
▁fera	-5656
▁laws	-5657
aments	-5658
▁réuss	-5659
▁salue	-5660
afrique	-5661
▁avions	-5662
▁humaine	-5663
▁profiter	-5664
▁extraordin	-5665
▁mécanismes	-5666
▁pan	-5667
amine	-5668
aurer	-5669
manie	-5670
▁armes	-5671
▁répar	-5672
▁normal	-5673
▁implique	-5674
▁plénière	-5675
▁migration	-5676
enf	-5677
isms	-5678
▁coût	-5679
▁occur	-5680
vereign	-5681
▁choice	-5682
▁espagn	-5683
▁lumière	-5684
▁enormous	-5685
▁seraient	-5686
▁introduce	-5687
elt	-5688
▁tém	-5689
▁plur	-5690
▁domes	-5691
ristian	-5692
▁faisons	-5693
▁réfléch	-5694
▁willing	-5695
▁faudrait	-5696
▁incorpor	-5697
▁language	-5698
amer	-5699
êter	-5700
▁elimin	-5701
▁tribun	-5702
▁centres	-5703
▁neither	-5704
▁recover	-5705
▁définiti	-5706
▁roumanie	-5707
▁character	-5708
▁représentent	-5709
▁26	-5710
▁ue	-5711
cont	-5712
▁cred	-5713
▁prép	-5714
examen	-5715
▁dealt	-5716
▁grèce	-5717
▁italy	-5718
▁monop	-5719
▁spain	-5720
▁applies	-5721
▁sovereign	-5722
▁entièrement	-5723
▁improvement	-5724
▁satisfaction	-5725
▁stu	-5726
anche	-5727
▁ones	-5728
▁delay	-5729
▁enfor	-5730
▁islam	-5731
▁réelle	-5732
▁worked	-5733
▁company	-5734
▁freedoms	-5735
▁supports	-5736
visionnement	-5737
▁communities	-5738
▁involvement	-5739
▁80	-5740
iled	-5741
▁cul	-5742
ettre	-5743
▁news	-5744
▁phil	-5745
▁rise	-5746
adress	-5747
espace	-5748
▁bases	-5749
▁happy	-5750
▁burden	-5751
▁compos	-5752
histoire	-5753
▁debates	-5754
▁failure	-5755
▁thirdly	-5756
▁western	-5757
▁organised	-5758
▁communautés	-5759
▁concitoyens	-5760
▁supplémentaire	-5761
mos	-5762
▁chem	-5763
▁mill	-5764
▁name	-5765
▁pill	-5766
cisive	-5767
roître	-5768
▁aller	-5769
▁emploi	-5770
▁opposed	-5771
▁réalisé	-5772
▁highlight	-5773
▁renewable	-5774
▁modifications	-5775
orn	-5776
ogne	-5777
▁mus	-5778
▁rej	-5779
▁tab	-5780
▁bosn	-5781
intern	-5782
▁effec	-5783
▁fraud	-5784
▁heart	-5785
icaments	-5786
▁chamber	-5787
▁exprimé	-5788
▁famille	-5789
▁caractér	-5790
gm	-5791
exe	-5792
ury	-5793
▁déli	-5794
▁gene	-5795
▁prêts	-5796
▁racis	-5797
▁formes	-5798
▁turkish	-5799
▁discours	-5800
▁confrontés	-5801
▁médicaments	-5802
cepti	-5803
▁told	-5804
▁arriv	-5805
▁futur	-5806
▁petits	-5807
▁mandate	-5808
▁written	-5809
▁balanced	-5810
▁negative	-5811
▁amsterdam	-5812
▁équilibre	-5813
▁flexibilité	-5814
ik	-5815
aste	-5816
oncé	-5817
▁quar	-5818
ticles	-5819
▁champ	-5820
▁sound	-5821
▁départ	-5822
▁souver	-5823
▁acteurs	-5824
▁targets	-5825
évolution	-5826
▁critique	-5827
▁considérer	-5828
▁continuing	-5829
▁négociation	-5830
▁parliaments	-5831
bly	-5832
eter	-5833
irme	-5834
ores	-5835
pres	-5836
▁enj	-5837
▁ult	-5838
▁cult	-5839
gouver	-5840
▁seuls	-5841
▁thème	-5842
atoires	-5843
▁concrètes	-5844
▁integrated	-5845
▁mechanisms	-5846
▁independence	-5847
▁subsidiarité	-5848
▁understanding	-5849
dém	-5850
▁deg	-5851
▁lev	-5852
aties	-5853
▁rein	-5854
▁reti	-5855
ically	-5856
▁parall	-5857
itations	-5858
▁suspend	-5859
▁practices	-5860
▁resolutions	-5861
eth	-5862
rées	-5863
▁mala	-5864
▁limité	-5865
▁limiter	-5866
▁agencies	-5867
▁contient	-5868
▁payments	-5869
▁politici	-5870
▁demandons	-5871
▁législatif	-5872
ize	-5873
ored	-5874
▁500	-5875
▁vais	-5876
▁provo	-5877
chement	-5878
▁climat	-5879
▁oublier	-5880
▁russian	-5881
appliquer	-5882
▁maladies	-5883
▁appliquer	-5884
élaboration	-5885
▁conventions	-5886
▁fondamentales	-5887
1,	-5888
▁uns	-5889
uffis	-5890
▁america	-5891
▁voisins	-5892
▁contains	-5893
▁opération	-5894
▁probablement	-5895
investissement	-5896
...	-5897
ots	-5898
pér	-5899
▁hyp	-5900
ology	-5901
▁laid	-5902
▁élarg	-5903
blement	-5904
▁profond	-5905
▁interven	-5906
▁impression	-5907
▁parlements	-5908
▁reconnaiss	-5909
▁immediately	-5910
▁interventions	-5911
▁recommendations	-5912
comes	-5913
▁indire	-5914
▁mutual	-5915
▁propri	-5916
▁totale	-5917
▁attirer	-5918
▁protest	-5919
▁alliance	-5920
▁méthodes	-5921
▁occident	-5922
▁remarque	-5923
▁treaties	-5924
▁expression	-5925
▁membership	-5926
gouvernement	-5927
ilst	-5928
▁lour	-5929
▁warm	-5930
uelles	-5931
▁grant	-5932
▁physi	-5933
▁attrib	-5934
▁montré	-5935
▁unable	-5936
▁whilst	-5937
▁citoyen	-5938
uellement	-5939
▁auxquels	-5940
▁rejected	-5941
▁gouvernance	-5942
rai	-5943
dict	-5944
▁bat	-5945
eness	-5946
llect	-5947
▁proc	-5948
▁drugs	-5949
irlande	-5950
▁defend	-5951
▁atteint	-5952
▁limites	-5953
▁prospect	-5954
▁favoriser	-5955
association	-5956
▁intentions	-5957
ility	-5958
▁nice	-5959
▁annex	-5960
▁board	-5961
▁avaient	-5962
▁install	-5963
ologiques	-5964
▁contract	-5965
▁addressed	-5966
▁garanties	-5967
▁regrettable	-5968
▁consommateur	-5969
xic	-5970
▁pun	-5971
trent	-5972
▁send	-5973
bation	-5974
▁kyoto	-5975
▁implic	-5976
autorité	-5977
▁kingdom	-5978
▁circonst	-5979
▁critiques	-5980
▁extension	-5981
▁passagers	-5982
utr	-5983
▁idée	-5984
▁near	-5985
▁publ	-5986
▁vari	-5987
▁alban	-5988
▁ports	-5989
▁raise	-5990
▁faites	-5991
▁gender	-5992
▁socialist	-5993
▁scientifique	-5994
men	-5995
▁28	-5996
▁mots	-5997
▁persu	-5998
▁revêt	-5999
▁attemp	-6000
▁dépass	-6001
▁faible	-6002
▁légiti	-6003
▁presse	-6004
▁peoples	-6005
▁décharge	-6006
▁intellect	-6007
▁mechanism	-6008
▁guarantees	-6009
▁prochaines	-6010
▁interesting	-6011
▁représentant	-6012
▁subsidiarity	-6013
admin	-6014
▁brut	-6015
▁smes	-6016
▁putting	-6017
▁totally	-6018
▁diversité	-6019
▁judiciaire	-6020
-201	-6021
▁pse	-6022
▁cess	-6023
▁récl	-6024
ologie	-6025
▁stade	-6026
▁explan	-6027
▁merely	-6028
▁globale	-6029
▁growing	-6030
▁october	-6031
▁marchand	-6032
▁modifier	-6033
aluer	-6034
tiens	-6035
▁attempt	-6036
▁resolve	-6037
▁milliers	-6038
▁mobility	-6039
▁concentrer	-6040
▁stratégique	-6041
▁orientations	-6042
aci	-6043
gent	-6044
enary	-6045
▁accus	-6046
▁massive	-6047
opposition	-6048
▁accidents	-6049
▁disposons	-6050
▁involving	-6051
▁sensitive	-6052
▁véhicules	-6053
▁référendum	-6054
informations	-6055
ta	-6056
este	-6057
▁bra	-6058
▁féd	-6059
▁bloc	-6060
iments	-6061
▁enjoy	-6062
▁talks	-6063
▁étudi	-6064
triment	-6065
▁acquis	-6066
▁calend	-6067
▁invite	-6068
▁italian	-6069
▁withdra	-6070
▁demandes	-6071
▁estimons	-6072
▁flexible	-6073
tification	-6074
▁contraign	-6075
▁renouvelables	-6076
ash	-6077
ipe	-6078
quis	-6079
rique	-6080
▁juge	-6081
▁merc	-6082
▁prét	-6083
étiques	-6084
▁actual	-6085
▁barcel	-6086
▁accepté	-6087
▁perfect	-6088
▁cultures	-6089
▁législative	-6090
▁scientifiques	-6091
▁recommendation	-6092
▁oui	-6093
dible	-6094
▁loss	-6095
▁compli	-6096
ervation	-6097
▁controls	-6098
▁thousands	-6099
▁recognition	-6100
▁principalement	-6101
oct	-6102
▁bâ	-6103
istre	-6104
▁harm	-6105
▁délai	-6106
▁inspe	-6107
▁vertu	-6108
▁anyone	-6109
▁combien	-6110
▁options	-6111
augmentation	-6112
▁flexibility	-6113
▁technologie	-6114
ij	-6115
itant	-6116
▁cens	-6117
instru	-6118
éviter	-6119
▁ahead	-6120
▁voire	-6121
▁aurons	-6122
▁consul	-6123
▁stable	-6124
▁initial	-6125
▁leading	-6126
▁bringing	-6127
▁suscepti	-6128
sification	-6129
▁concernées	-6130
▁personally	-6131
▁communications	-6132
ada	-6133
rid	-6134
atric	-6135
▁mist	-6136
▁susc	-6137
▁voit	-6138
▁faite	-6139
▁absence	-6140
▁african	-6141
▁plenary	-6142
▁recours	-6143
▁articles	-6144
▁campagne	-6145
▁échanges	-6146
▁advantage	-6147
ére	-6148
ueil	-6149
énom	-6150
fique	-6151
▁easy	-6152
▁exac	-6153
▁sinc	-6154
aution	-6155
▁ordin	-6156
▁poids	-6157
▁income	-6158
▁oeuvre	-6159
▁servir	-6160
exprimer	-6161
▁autonom	-6162
équilibre	-6163
▁extérieure	-6164
▁règlements	-6165
prus	-6166
▁tob	-6167
aisse	-6168
eront	-6169
▁2000,	-6170
▁coord	-6171
▁mises	-6172
▁plain	-6173
▁tunis	-6174
▁famili	-6175
▁phénom	-6176
▁underm	-6177
▁navires	-6178
▁exercise	-6179
▁followed	-6180
expression	-6181
▁puissions	-6182
des	-6183
ized	-6184
▁ine	-6185
▁pied	-6186
▁wall	-6187
entrée	-6188
▁faced	-6189
▁goals	-6190
▁logique	-6191
▁related	-6192
▁adequate	-6193
▁starting	-6194
▁bilateral	-6195
▁criticism	-6196
ino	-6197
▁hy	-6198
▁frais	-6199
▁front	-6200
▁comply	-6201
▁cyprus	-6202
▁charges	-6203
▁customs	-6204
▁disease	-6205
▁auditors	-6206
▁presence	-6207
▁équitable	-6208
intervention	-6209
▁substantial	-6210
lig	-6211
obs	-6212
rage	-6213
anced	-6214
andis	-6215
érale	-6216
▁abou	-6217
▁came	-6218
▁foot	-6219
excell	-6220
▁deliver	-6221
▁europol	-6222
▁revenir	-6223
▁complément	-6224
▁recommandation	-6225
▁barr	-6226
▁rates	-6227
▁retra	-6228
▁complic	-6229
▁describ	-6230
▁réserve	-6231
▁accompli	-6232
▁happening	-6233
▁consistent	-6234
▁definition	-6235
▁referendum	-6236
▁préparation	-6237
▁terroristes	-6238
harmonisation	-6239
▁tib	-6240
▁préal	-6241
▁extend	-6242
▁examine	-6243
▁seeking	-6244
▁weapons	-6245
▁approuvé	-6246
▁assembly	-6247
▁speakers	-6248
▁autrement	-6249
▁convaincu	-6250
▁réflexion	-6251
▁catastrophe	-6252
▁efficacement	-6253
administration	-6254
▁fle	-6255
allem	-6256
▁fins	-6257
▁femme	-6258
▁heads	-6259
essions	-6260
▁tandis	-6261
▁quantit	-6262
▁reinfor	-6263
▁accorder	-6264
▁informed	-6265
▁northern	-6266
▁soutient	-6267
▁existence	-6268
▁remarques	-6269
▁satisfait	-6270
▁suffering	-6271
▁plac	-6272
▁stip	-6273
▁worr	-6274
▁lines	-6275
▁macro	-6276
▁appeal	-6277
▁degree	-6278
▁abandon	-6279
▁conduite	-6280
▁expected	-6281
▁includes	-6282
▁terminer	-6283
▁economies	-6284
▁subventions	-6285
hood	-6286
▁nul	-6287
▁acts	-6288
▁atten	-6289
ditions	-6290
▁forced	-6291
approche	-6292
▁relatifs	-6293
▁suivante	-6294
entreprise	-6295
▁carefully	-6296
▁commerciaux	-6297
▁intérieures	-6298
ibl	-6299
igu	-6300
ril	-6301
agen	-6302
inks	-6303
▁inu	-6304
accep	-6305
êtres	-6306
▁sett	-6307
▁medic	-6308
alistic	-6309
▁belong	-6310
▁suffit	-6311
atically	-6312
▁électron	-6313
isé	-6314
cupe	-6315
▁arms	-6316
▁stre	-6317
▁floor	-6318
▁serve	-6319
▁tient	-6320
▁mainly	-6321
landaise	-6322
▁ability	-6323
▁equally	-6324
▁figures	-6325
▁election	-6326
▁families	-6327
▁premières	-6328
exploitation	-6329
communications	-6330
ys	-6331
ouss	-6332
habit	-6333
▁lies	-6334
▁stri	-6335
présid	-6336
▁objet	-6337
▁offre	-6338
▁défend	-6339
▁fraude	-6340
▁signed	-6341
▁covered	-6342
▁détaill	-6343
▁établir	-6344
▁examiner	-6345
▁irlandais	-6346
▁protecting	-6347
▁arrangements	-6348
aï	-6349
avez	-6350
verse	-6351
▁lois	-6352
▁suéd	-6353
▁wond	-6354
▁advoc	-6355
▁idées	-6356
▁sépar	-6357
obtenir	-6358
▁appréci	-6359
▁elected	-6360
▁swedish	-6361
▁evidence	-6362
▁insister	-6363
▁pourrions	-6364
▁essentiels	-6365
▁trafficking	-6366
▁exploitation	-6367
nés	-6368
▁22	-6369
▁90	-6370
agner	-6371
imbab	-6372
▁cesse	-6373
▁incon	-6374
▁injus	-6375
ukraine	-6376
établir	-6377
▁élabor	-6378
▁octobre	-6379
▁revenus	-6380
▁detailed	-6381
▁diversity	-6382
▁socialiste	-6383
▁commissions	-6384
wide	-6385
existe	-6386
inding	-6387
▁ought	-6388
▁truly	-6389
▁linked	-6390
▁minute	-6391
▁zimbab	-6392
▁chiffres	-6393
▁contacts	-6394
▁empêcher	-6395
▁greatest	-6396
▁mobilité	-6397
▁sentiment	-6398
▁committees	-6399
▁minorities	-6400
▁supervision	-6401
▁personnellement	-6402
inv	-6403
uls	-6404
▁rét	-6405
▁usa	-6406
exerc	-6407
▁prud	-6408
agence	-6409
anding	-6410
▁banks	-6411
▁fruit	-6412
▁malad	-6413
▁puiss	-6414
▁résid	-6415
▁incomp	-6416
▁viande	-6417
▁avancer	-6418
▁reprise	-6419
▁précédent	-6420
▁différences	-6421
▁disponibles	-6422
œur	-6423
icht	-6424
▁adh	-6425
▁lost	-6426
accent	-6427
▁breve	-6428
▁categ	-6429
▁chefs	-6430
▁stake	-6431
alistes	-6432
▁discip	-6433
▁factor	-6434
▁shared	-6435
▁wishes	-6436
exécution	-6437
▁recovery	-6438
▁regrette	-6439
▁réaction	-6440
▁réponses	-6441
expérience	-6442
▁commissioners	-6443
ah	-6444
sv	-6445
onu	-6446
▁29	-6447
▁mc	-6448
tier	-6449
▁cuba	-6450
autant	-6451
examin	-6452
▁multi	-6453
▁adjust	-6454
utiliser	-6455
▁section	-6456
▁attendre	-6457
▁nucléaires	-6458
▁immédiatement	-6459
▁troisièmement	-6460
▁mi	-6461
attle	-6462
esses	-6463
▁vite	-6464
▁numer	-6465
▁quels	-6466
▁tests	-6467
▁étape	-6468
▁puisqu	-6469
▁rappro	-6470
applause	-6471
ceptions	-6472
▁argument	-6473
▁domestic	-6474
▁protocol	-6475
▁labelling	-6476
▁progresser	-6477
▁statistiques	-6478
▁véritablement	-6479
ini	-6480
mun	-6481
aken	-6482
unité	-6483
▁préc	-6484
▁hours	-6485
▁langues	-6486
▁pétrole	-6487
▁thereby	-6488
▁complète	-6489
▁poursuiv	-6490
▁minorités	-6491
▁considérables	-6492
▁professionnelle	-6493
eur	-6494
▁os	-6495
énie	-6496
▁num	-6497
▁pér	-6498
mping	-6499
▁deme	-6500
▁path	-6501
apport	-6502
▁ordre	-6503
▁voice	-6504
▁failed	-6505
▁laisse	-6506
▁penser	-6507
▁repeat	-6508
▁juillet	-6509
▁pensions	-6510
▁rappelle	-6511
▁vehicles	-6512
▁compagnies	-6513
applaudissements	-6514
ush	-6515
isté	-6516
▁exc	-6517
▁irak	-6518
▁êtes	-6519
▁ultim	-6520
▁délais	-6521
▁please	-6522
internet	-6523
▁getting	-6524
▁moindre	-6525
▁élector	-6526
▁designed	-6527
▁diverses	-6528
▁profonde	-6529
▁combattre	-6530
▁justement	-6531
rég	-6532
uth	-6533
▁31	-6534
oine	-6535
pérer	-6536
▁goal	-6537
▁secr	-6538
▁durée	-6539
▁forth	-6540
▁obtenu	-6541
activité	-6542
astricht	-6543
▁maladie	-6544
▁contrôler	-6545
▁conviction	-6546
▁dirigeants	-6547
▁historique	-6548
▁correctement	-6549
▁bil	-6550
▁pie	-6551
▁sat	-6552
tiers	-6553
▁greek	-6554
▁terre	-6555
itables	-6556
▁leader	-6557
▁limite	-6558
▁poland	-6559
▁agences	-6560
▁granted	-6561
ercussions	-6562
▁ambitieux	-6563
▁territory	-6564
ek	-6565
grer	-6566
hors	-6567
itié	-6568
▁dram	-6569
▁indé	-6570
▁georg	-6571
▁gradu	-6572
èrement	-6573
▁auront	-6574
▁lancer	-6575
▁ajouter	-6576
▁changed	-6577
▁citizen	-6578
▁explain	-6579
▁adéquate	-6580
▁emphasis	-6581
▁envisage	-6582
ez	-6583
agé	-6584
cert	-6585
cally	-6586
illed	-6587
▁cœur	-6588
▁iden	-6589
ateful	-6590
▁rendu	-6591
▁intend	-6592
cription	-6593
amsterdam	-6594
intérieur	-6595
▁adopting	-6596
▁insuffis	-6597
▁souverain	-6598
▁maastricht	-6599
▁consumption	-6600
▁functioning	-6601
▁utilisation	-6602
osed	-6603
▁mic	-6604
ifier	-6605
ouvez	-6606
▁refl	-6607
tition	-6608
▁admit	-6609
cession	-6610
▁attack	-6611
▁chemin	-6612
▁recour	-6613
▁amongst	-6614
▁arriver	-6615
▁indiqué	-6616
▁parents	-6617
▁reflect	-6618
▁replace	-6619
▁revient	-6620
▁terrain	-6621
épendance	-6622
▁matières	-6623
▁inclusion	-6624
▁respected	-6625
▁ultimately	-6626
établissement	-6627
▁commissaires	-6628
ché	-6629
étr	-6630
▁évol	-6631
▁blanc	-6632
▁accrue	-6633
▁israël	-6634
▁lastly	-6635
▁siècle	-6636
▁sujets	-6637
exercice	-6638
▁imposed	-6639
▁pologne	-6640
▁torture	-6641
▁entitled	-6642
▁évidence	-6643
▁conflicts	-6644
▁criminalité	-6645
▁extérieures	-6646
oke	-6647
atta	-6648
chec	-6649
▁bomb	-6650
▁late	-6651
▁nour	-6652
▁sept	-6653
undred	-6654
▁adoptées	-6655
▁judicial	-6656
▁préserver	-6657
▁calendrier	-6658
▁evaluation	-6659
▁requirement	-6660
▁technological	-6661
▁ut	-6662
▁mult	-6663
▁sûre	-6664
export	-6665
▁enreg	-6666
▁mains	-6667
▁ready	-6668
▁entier	-6669
▁series	-6670
▁tackle	-6671
▁devrons	-6672
▁hundred	-6673
allemagne	-6674
▁grateful	-6675
▁minority	-6676
▁numerous	-6677
assistance	-6678
obligation	-6679
▁comprends	-6680
▁mentionné	-6681
▁terrorist	-6682
pril	-6683
▁dest	-6684
inguis	-6685
▁outil	-6686
▁credit	-6687
▁appears	-6688
▁ouverte	-6689
▁portant	-6690
▁regular	-6691
▁delighted	-6692
▁circonstances	-6693
pay	-6694
set	-6695
▁idé	-6696
▁coal	-6697
▁témo	-6698
atever	-6699
encour	-6700
▁range	-6701
ocation	-6702
▁compré	-6703
▁detail	-6704
▁limits	-6705
▁permit	-6706
▁sweden	-6707
▁attacks	-6708
▁fiscale	-6709
▁réalisés	-6710
▁whatever	-6711
▁zimbabwe	-6712
▁languages	-6713
▁médiateur	-6714
▁satisfais	-6715
▁applicable	-6716
▁competence	-6717
▁undertaking	-6718
▁consequently	-6719
▁conservation	-6720
3.	-6721
»,	-6722
199	-6723
mar	-6724
ttes	-6725
uter	-6726
ènes	-6727
▁migr	-6728
▁sole	-6729
▁april	-6730
▁démon	-6731
▁plais	-6732
▁sides	-6733
▁proche	-6734
▁commenc	-6735
▁israéli	-6736
▁proposing	-6737
▁temporary	-6738
▁déterminer	-6739
▁alternatives	-6740
▁implications	-6741
là	-6742
▁lob	-6743
ueill	-6744
urent	-6745
▁brok	-6746
▁fasse	-6747
▁sauve	-6748
▁spent	-6749
▁chapit	-6750
▁espace	-6751
▁privil	-6752
▁établi	-6753
▁century	-6754
▁utilisé	-6755
▁approval	-6756
▁religion	-6757
▁exactement	-6758
4,	-6759
ués	-6760
rovi	-6761
uant	-6762
▁omb	-6763
ophob	-6764
agenda	-6765
▁hands	-6766
▁annuel	-6767
▁pouvez	-6768
▁tobacc	-6769
▁changer	-6770
▁ferrovi	-6771
▁relever	-6772
▁familles	-6773
▁fermement	-6774
▁religious	-6775
▁meilleures	-6776
▁essentiellement	-6777
50	-6778
lif	-6779
mid	-6780
oub	-6781
orse	-6782
▁tôt	-6783
▁yes	-6784
▁vess	-6785
aliste	-6786
▁énorme	-6787
▁reprodu	-6788
▁tobacco	-6789
▁trading	-6790
▁mauvaise	-6791
▁politics	-6792
▁proposée	-6793
▁destinées	-6794
▁professional	-6795
vo	-6796
nant	-6797
ights	-6798
▁july	-6799
▁soum	-6800
divers	-6801
identi	-6802
▁coher	-6803
▁cycle	-6804
▁facile	-6805
▁moving	-6806
▁mauvais	-6807
▁science	-6808
▁withdraw	-6809
▁souhaitent	-6810
érés	-6811
auche	-6812
▁clas	-6813
actory	-6814
ishing	-6815
▁attra	-6816
▁berlin	-6817
▁ressor	-6818
▁bulgarie	-6819
▁capacités	-6820
▁marchandises	-6821
den	-6822
uds	-6823
prét	-6824
▁ouv	-6825
▁scr	-6826
crimin	-6827
▁works	-6828
▁conven	-6829
▁matéri	-6830
▁volunt	-6831
amérique	-6832
▁recevoir	-6833
▁trouvent	-6834
ifications	-6835
▁immediate	-6836
▁transatlan	-6837
▁improvements	-6838
sy	-6839
née	-6840
▁3,	-6841
ensive	-6842
échelle	-6843
▁wonder	-6844
▁activité	-6845
▁continues	-6846
▁principales	-6847
▁catastrophes	-6848
▁fondamentale	-6849
gouvernementale	-6850
30	-6851
▁%.	-6852
anda	-6853
çant	-6854
▁écr	-6855
cides	-6856
otechn	-6857
▁visas	-6858
▁white	-6859
▁canada	-6860
▁easier	-6861
▁identi	-6862
▁tonnes	-6863
▁unless	-6864
▁actuels	-6865
▁complain	-6866
▁planning	-6867
▁réussite	-6868
▁spending	-6869
▁augmenter	-6870
▁raisonnable	-6871
bit	-6872
inn	-6873
what	-6874
▁mou	-6875
▁2010	-6876
▁febr	-6877
▁heav	-6878
▁welf	-6879
▁souci	-6880
▁dehors	-6881
▁termin	-6882
agissant	-6883
dibility	-6884
▁endorse	-6885
▁chairman	-6886
▁entendre	-6887
▁examples	-6888
▁actuelles	-6889
▁biodivers	-6890
▁generally	-6891
▁copenhague	-6892
▁difficiles	-6893
▁facilitate	-6894
rop	-6895
mark	-6896
tidi	-6897
▁197	-6898
agent	-6899
based	-6900
chant	-6901
▁glad	-6902
▁mold	-6903
▁tabac	-6904
▁visit	-6905
▁noneth	-6906
▁disting	-6907
▁partner	-6908
▁remarks	-6909
▁welfare	-6910
▁february	-6911
▁connaître	-6912
▁démocrates	-6913
▁operations	-6914
▁credibility	-6915
▁investments	-6916
▁nonetheless	-6917
▁traditional	-6918
▁observations	-6919
tise	-6920
vant	-6921
▁sév	-6922
▁eaux	-6923
▁prol	-6924
▁sovi	-6925
▁suède	-6926
▁worse	-6927
▁portée	-6928
▁accident	-6929
▁positifs	-6930
▁permettent	-6931
indépendance	-6932
▁politicians	-6933
érée	-6934
▁jeu	-6935
itage	-6936
▁mine	-6937
▁slow	-6938
▁2004,	-6939
▁fonde	-6940
general	-6941
▁disapp	-6942
▁études	-6943
▁binding	-6944
▁crédibil	-6945
▁meetings	-6946
▁repeated	-6947
▁réserves	-6948
ographique	-6949
▁concluded	-6950
▁fortement	-6951
▁soutenons	-6952
ugg	-6953
onia	-6954
▁tir	-6955
analy	-6956
▁vaut	-6957
▁vive	-6958
▁2005,	-6959
▁aspir	-6960
▁avril	-6961
▁colon	-6962
▁plein	-6963
exemple	-6964
▁ombuds	-6965
▁symbol	-6966
▁parvenus	-6967
▁poursuite	-6968
▁opérations	-6969
▁transactions	-6970
cas	-6971
hib	-6972
mer	-6973
mann	-6974
urde	-6975
lying	-6976
▁doll	-6977
▁flag	-6978
▁spok	-6979
▁vacc	-6980
▁ving	-6981
quently	-6982
▁langue	-6983
▁quotidi	-6984
atteindre	-6985
ciliation	-6986
▁electron	-6987
▁préparer	-6988
▁revision	-6989
▁employees	-6990
▁constituer	-6991
▁crédibilité	-6992
indi	-6993
sias	-6994
erved	-6995
▁debt	-6996
▁gros	-6997
▁reli	-6998
▁apart	-6999
▁break	-7000
▁citer	-7001
▁lower	-7002
▁règle	-7003
▁tibet	-7004
centage	-7005
▁letter	-7006
▁connaît	-7007
▁interne	-7008
▁prosper	-7009
▁produire	-7010
▁préciser	-7011
▁separate	-7012
▁recognised	-7013
▁effectiveness	-7014
/98	-7015
cés	-7016
let	-7017
ypre	-7018
uting	-7019
▁arab	-7020
▁flow	-7021
▁gaza	-7022
entiel	-7023
tering	-7024
▁dépit	-7025
▁entry	-7026
▁equip	-7027
▁gross	-7028
▁tried	-7029
▁étude	-7030
areness	-7031
▁chypre	-7032
▁claires	-7033
▁decisive	-7034
▁pêcheurs	-7035
▁américains	-7036
enez	-7037
oted	-7038
éral	-7039
tront	-7040
▁chim	-7041
▁frag	-7042
▁2009.	-7043
▁cinqu	-7044
▁calcul	-7045
▁quanti	-7046
▁scheme	-7047
▁unilat	-7048
▁compren	-7049
▁resolved	-7050
etherlands	-7051
▁confusion	-7052
▁tentative	-7053
▁distinction	-7054
án	-7055
edy	-7056
uits	-7057
▁fuel	-7058
▁miss	-7059
▁symp	-7060
active	-7061
élimin	-7062
▁incap	-7063
▁solve	-7064
▁fourth	-7065
▁multin	-7066
▁obtain	-7067
▁ouvert	-7068
▁sexual	-7069
▁restent	-7070
▁vouloir	-7071
▁complexe	-7072
▁terrible	-7073
▁awareness	-7074
▁contribué	-7075
▁exclusion	-7076
▁différence	-7077
▁netherlands	-7078
dp	-7079
rés	-7080
▁eg	-7081
uese	-7082
èque	-7083
▁rad	-7084
aison	-7085
angers	-7086
▁behav	-7087
▁class	-7088
▁vingt	-7089
rétiens	-7090
▁complè	-7091
▁déroul	-7092
▁fondée	-7093
▁fulfil	-7094
tisation	-7095
▁comprend	-7096
▁diseases	-7097
▁régional	-7098
▁southern	-7099
▁attendons	-7100
▁officials	-7101
▁possibles	-7102
▁electronic	-7103
▁régionales	-7104
▁negotiating	-7105
▁détermination	-7106
ège	-7107
▁2.	-7108
▁bou	-7109
pping	-7110
▁roma	-7111
atures	-7112
illing	-7113
▁2000.	-7114
▁horiz	-7115
▁param	-7116
▁vivre	-7117
▁drawing	-7118
▁studies	-7119
▁migrants	-7120
▁continued	-7121
▁operators	-7122
▁auxquelles	-7123
▁fonctionne	-7124
▁legitimate	-7125
▁militaires	-7126
▁passengers	-7127
▁portuguese	-7128
▁présidents	-7129
▁encouraging	-7130
▁individuals	-7131
▁participate	-7132
▁résolutions	-7133
▁sérieusement	-7134
écu	-7135
▁rid	-7136
octro	-7137
▁virt	-7138
▁scale	-7139
▁saluer	-7140
▁banques	-7141
▁approfond	-7142
▁conscients	-7143
▁favorables	-7144
2.	-7145
▁ash	-7146
▁dig	-7147
chent	-7148
going	-7149
produ	-7150
▁allou	-7151
▁biens	-7152
▁connu	-7153
▁plant	-7154
▁porter	-7155
▁helping	-7156
▁constate	-7157
▁fighting	-7158
▁financer	-7159
▁prévenir	-7160
▁cohérence	-7161
▁processes	-7162
▁supplement	-7163
▁tac	-7164
▁acte	-7165
▁codé	-7166
▁black	-7167
▁disag	-7168
▁motiv	-7169
▁truth	-7170
▁vaste	-7171
certain	-7172
▁devait	-7173
▁duties	-7174
▁offrir	-7175
▁approve	-7176
▁details	-7177
▁dignity	-7178
▁factors	-7179
▁ombudsman	-7180
▁phénomène	-7181
▁supprimer	-7182
▁voluntary	-7183
▁évolution	-7184
▁copenhagen	-7185
▁culturelle	-7186
▁expérience	-7187
▁législatives	-7188
▁modernisation	-7189
▁multinational	-7190
7,	-7191
▁cong	-7192
▁lien	-7193
italie	-7194
▁juris	-7195
▁urban	-7196
▁viens	-7197
▁garder	-7198
▁undoub	-7199
▁happens	-7200
▁started	-7201
▁allowing	-7202
▁peaceful	-7203
▁utilisés	-7204
▁statistics	-7205
▁écl	-7206
osent	-7207
▁belie	-7208
▁frapp	-7209
▁menac	-7210
▁pharm	-7211
▁esprit	-7212
▁paraît	-7213
▁places	-7214
▁protég	-7215
assurance	-7216
▁division	-7217
▁obstacle	-7218
enseignement	-7219
▁associations	-7220
ctif	-7221
▁thor	-7222
ancing	-7223
econom	-7224
▁dutch	-7225
▁radic	-7226
ctrices	-7227
▁croire	-7228
▁erreur	-7229
▁fabric	-7230
▁honest	-7231
▁latest	-7232
▁lettre	-7233
▁manage	-7234
▁margin	-7235
▁postes	-7236
▁tenter	-7237
▁amounts	-7238
▁grounds	-7239
▁seconde	-7240
president	-7241
▁paiement	-7242
▁ambitions	-7243
▁entraîner	-7244
▁reasonable	-7245
▁regulatory	-7246
rim	-7247
anes	-7248
ares	-7249
once	-7250
tées	-7251
▁gain	-7252
▁recy	-7253
unanim	-7254
▁knows	-7255
▁rédig	-7256
▁friend	-7257
▁refuse	-7258
examiner	-7259
▁benefic	-7260
▁chinese	-7261
▁compter	-7262
▁defined	-7263
▁passage	-7264
▁bulgaria	-7265
▁premiers	-7266
▁somewhat	-7267
démocrates	-7268
▁cohérente	-7269
▁mouvement	-7270
▁leadership	-7271
▁obligatoire	-7272
▁commentaires	-7273
▁généralement	-7274
▁fonctionnaires	-7275
ût	-7276
car	-7277
lez	-7278
ened	-7279
ired	-7280
ining	-7281
onais	-7282
▁amen	-7283
▁feed	-7284
▁nato	-7285
issait	-7286
▁adver	-7287
▁privé	-7288
▁préoc	-7289
▁voulu	-7290
▁prévue	-7291
▁voisin	-7292
▁israeli	-7293
▁payment	-7294
▁présentée	-7295
▁publicité	-7296
▁entreprise	-7297
▁principale	-7298
no	-7299
cin	-7300
ott	-7301
▁abus	-7302
▁fine	-7303
▁lond	-7304
espoir	-7305
époque	-7306
▁space	-7307
▁valid	-7308
▁déposé	-7309
▁likely	-7310
▁moitié	-7311
▁serons	-7312
▁cherche	-7313
unanimité	-7314
▁bénéfici	-7315
▁disagree	-7316
▁allocated	-7317
▁dangereux	-7318
▁emergency	-7319
▁protected	-7320
appe	-7321
▁fri	-7322
▁hos	-7323
▁joue	-7324
▁rome	-7325
▁placed	-7326
▁slovak	-7327
▁villes	-7328
▁voyage	-7329
▁penalty	-7330
▁profits	-7331
▁speaker	-7332
▁uniform	-7333
européens	-7334
▁chemical	-7335
▁tendance	-7336
▁commerciale	-7337
▁undoubtedly	-7338
▁demonstrated	-7339
▁parallèlement	-7340
ns	-7341
ara	-7342
oon	-7343
▁70	-7344
▁ax	-7345
-200	-7346
cipé	-7347
zech	-7348
▁lif	-7349
isant	-7350
▁gave	-7351
▁ment	-7352
▁valu	-7353
▁2008,	-7354
▁baltic	-7355
▁behavi	-7356
▁involve	-7357
▁largely	-7358
▁ambition	-7359
▁director	-7360
▁démarche	-7361
▁cooperate	-7362
▁justified	-7363
▁réfléchir	-7364
▁concernent	-7365
lim	-7366
▁fat	-7367
ermen	-7368
▁1995	-7369
▁basée	-7370
▁czech	-7371
▁topic	-7372
▁trait	-7373
▁petite	-7374
▁aliments	-7375
▁purposes	-7376
▁sensibil	-7377
▁américain	-7378
▁orientale	-7379
▁compliance	-7380
▁mentionner	-7381
▁composition	-7382
▁forthcoming	-7383
5%	-7384
try	-7385
▁got	-7386
lated	-7387
rième	-7388
▁appu	-7389
▁diox	-7390
▁flor	-7391
▁péti	-7392
iennes	-7393
▁clari	-7394
▁india	-7395
▁parad	-7396
▁youth	-7397
quetage	-7398
érieurs	-7399
▁hypocr	-7400
▁trouvé	-7401
▁vivent	-7402
▁élevés	-7403
accepter	-7404
▁autrich	-7405
▁identit	-7406
▁infring	-7407
▁linguis	-7408
▁operate	-7409
▁plaisir	-7410
▁realise	-7411
▁destinés	-7412
▁débattre	-7413
▁orateurs	-7414
▁stronger	-7415
▁thorough	-7416
▁interested	-7417
▁acknowledge	-7418
▁appropriations	-7419
▁administratives	-7420
year	-7421
éder	-7422
▁ecu	-7423
▁ong	-7424
▁tam	-7425
aucun	-7426
crire	-7427
inqui	-7428
mbers	-7429
obile	-7430
érance	-7431
▁2006,	-7432
▁fixer	-7433
▁hence	-7434
▁jeudi	-7435
▁prest	-7436
▁swift	-7437
appelle	-7438
▁assume	-7439
▁autour	-7440
▁philos	-7441
tiennent	-7442
▁apporté	-7443
▁average	-7444
▁communs	-7445
▁régimes	-7446
▁existent	-7447
▁extended	-7448
▁overcome	-7449
▁signaler	-7450
▁behaviour	-7451
▁centrales	-7452
▁confirmed	-7453
▁interpret	-7454
▁operating	-7455
▁subsidies	-7456
▁codécision	-7457
▁souveraineté	-7458
▁préoccupation	-7459
▁constitutionnel	-7460
ba	-7461
cho	-7462
ley	-7463
onner	-7464
▁chaî	-7465
ientôt	-7466
ouvrir	-7467
▁domin	-7468
▁décenn	-7469
▁notion	-7470
▁reiter	-7471
▁unfair	-7472
ctricité	-7473
▁bientôt	-7474
▁friends	-7475
▁compared	-7476
▁electric	-7477
▁présents	-7478
▁contained	-7479
▁fishermen	-7480
▁insurance	-7481
▁suppression	-7482
▁méditerranée	-7483
mas	-7484
ames	-7485
isée	-7486
▁bol	-7487
▁hal	-7488
aider	-7489
appar	-7490
▁stra	-7491
mpleur	-7492
▁payer	-7493
▁tasks	-7494
▁allows	-7495
▁ethnic	-7496
▁offers	-7497
economic	-7498
▁evening	-7499
▁irlande	-7500
▁missions	-7501
▁universal	-7502
▁associated	-7503
▁entreprene	-7504
▁restructur	-7505
▁socialistes	-7506
▁consolidation	-7507
▁réglementations	-7508
▁ru	-7509
5-00	-7510
▁300	-7511
▁feu	-7512
▁ras	-7513
▁alde	-7514
▁chef	-7515
▁perdu	-7516
▁socio	-7517
▁arrest	-7518
▁hongro	-7519
▁passed	-7520
▁rétabl	-7521
▁évoqué	-7522
▁dignité	-7523
▁retrait	-7524
▁culturel	-7525
▁facteurs	-7526
▁revanche	-7527
▁tribunal	-7528
▁quatrième	-7529
exportation	-7530
▁continuent	-7531
interdiction	-7532
▁permettrait	-7533
▁importations	-7534
▁âg	-7535
sibly	-7536
▁bout	-7537
▁liée	-7538
▁imposer	-7539
▁planned	-7540
▁envisager	-7541
▁pacifique	-7542
▁ressortiss	-7543
▁fonctionner	-7544
▁sovereignty	-7545
▁systématique	-7546
dr	-7547
ives	-7548
sign	-7549
▁fal	-7550
▁alco	-7551
▁lose	-7552
▁quin	-7553
▁abuse	-7554
▁détru	-7555
▁facts	-7556
▁impar	-7557
lection	-7558
▁argent	-7559
▁handic	-7560
▁menées	-7561
▁pillar	-7562
▁privée	-7563
▁austria	-7564
▁dangers	-7565
▁farming	-7566
▁futures	-7567
▁meaning	-7568
▁annivers	-7569
▁capables	-7570
▁historic	-7571
▁garantiss	-7572
▁guaranteed	-7573
9)	-7574
ette	-7575
▁grec	-7576
▁wide	-7577
▁navig	-7578
▁êtres	-7579
espagne	-7580
estions	-7581
tically	-7582
▁crédit	-7583
▁oppose	-7584
apporter	-7585
▁facteur	-7586
▁valuable	-7587
▁perfectly	-7588
▁realistic	-7589
▁signature	-7590
▁transfert	-7591
▁codecision	-7592
▁intervenir	-7593
▁stratégies	-7594
▁amélioration	-7595
▁applications	-7596
▁britanniques	-7597
▁transposition	-7598
cks	-7599
hne	-7600
ior	-7601
ills	-7602
▁...	-7603
▁clé	-7604
abling	-7605
ointed	-7606
▁clean	-7607
▁ignor	-7608
▁micro	-7609
ajouter	-7610
termine	-7611
▁cancer	-7612
▁exists	-7613
▁hausse	-7614
▁patent	-7615
▁surely	-7616
▁tâches	-7617
auration	-7618
▁experien	-7619
▁intensif	-7620
▁coordinated	-7621
▁relativement	-7622
où	-7623
ect	-7624
wan	-7625
▁4,	-7626
burg	-7627
vité	-7628
▁bit	-7629
▁reb	-7630
étude	-7631
▁cars	-7632
▁paro	-7633
▁réel	-7634
▁tool	-7635
effort	-7636
▁noted	-7637
▁toler	-7638
▁espoir	-7639
▁fruits	-7640
▁pilier	-7641
▁spread	-7642
▁conjoin	-7643
▁highest	-7644
▁majeure	-7645
▁répéter	-7646
▁amending	-7647
▁auraient	-7648
impression	-7649
▁referring	-7650
▁considering	-7651
▁demonstrate	-7652
▁maintaining	-7653
▁politically	-7654
▁represented	-7655
▁palestiniens	-7656
irak	-7657
iran	-7658
otan	-7659
▁cig	-7660
▁prêt	-7661
▁sacr	-7662
▁verh	-7663
alists	-7664
▁2009,	-7665
▁garde	-7666
▁gérer	-7667
▁pouss	-7668
▁formal	-7669
▁précise	-7670
▁geograph	-7671
▁réunions	-7672
▁française	-7673
▁innovative	-7674
▁introducing	-7675
institutional	-7676
▁concentration	-7677
ints	-7678
▁spr	-7679
▁trou	-7680
gement	-7681
unesse	-7682
▁carte	-7683
▁signé	-7684
ibilité	-7685
▁absten	-7686
▁réagir	-7687
▁solide	-7688
▁soyons	-7689
▁visite	-7690
▁concert	-7691
▁largest	-7692
▁partout	-7693
exclusion	-7694
▁adhésion	-7695
▁respecte	-7696
▁urgently	-7697
▁différente	-7698
▁settlement	-7699
▁suggestions	-7700
oks	-7701
aceu	-7702
iale	-7703
pped	-7704
appel	-7705
▁aéro	-7706
▁bons	-7707
▁joué	-7708
▁ngos	-7709
ducted	-7710
▁moral	-7711
▁trial	-7712
identif	-7713
▁offered	-7714
▁persuad	-7715
▁treated	-7716
▁collabor	-7717
▁contamin	-7718
▁administr	-7719
▁disasters	-7720
▁appropriée	-7721
▁exceptions	-7722
▁preventing	-7723
▁inquiétudes	-7724
▁significantly	-7725
▁stabilisation	-7726
▁qualifications	-7727
/97	-7728
ses	-7729
erty	-7730
inde	-7731
médi	-7732
néra	-7733
▁gone	-7734
▁2008.	-7735
▁brings	-7736
▁couver	-7737
▁propag	-7738
▁ajoutée	-7739
▁croatia	-7740
▁identify	-7741
▁identity	-7742
▁proposés	-7743
▁inflation	-7744
▁remarquer	-7745
▁appreciate	-7746
▁contradiction	-7747
▁installations	-7748
▁transformation	-7749
enty	-7750
euse	-7751
ming	-7752
▁cot	-7753
ignent	-7754
itness	-7755
octroi	-7756
▁moroc	-7757
▁adopte	-7758
▁réduit	-7759
▁vérité	-7760
▁prolong	-7761
▁accounts	-7762
▁capitaux	-7763
▁changing	-7764
▁viennent	-7765
▁attentive	-7766
▁palestine	-7767
▁bee	-7768
avais	-7769
exper	-7770
lions	-7771
▁2011	-7772
▁ense	-7773
ential	-7774
▁2007.	-7775
▁2010.	-7776
▁inade	-7777
▁afford	-7778
▁concré	-7779
▁drogue	-7780
▁recycl	-7781
▁solana	-7782
▁elector	-7783
▁erreurs	-7784
▁biotechn	-7785
▁equipment	-7786
▁existants	-7787
▁reprendre	-7788
▁uncertain	-7789
▁construire	-7790
▁determined	-7791
▁participants	-7792
▁énergétiques	-7793
ika	-7794
med	-7795
arme	-7796
otes	-7797
▁beg	-7798
▁bush	-7799
▁néer	-7800
▁phen	-7801
tising	-7802
▁coast	-7803
▁homme	-7804
▁marge	-7805
▁prose	-7806
▁spect	-7807
▁teach	-7808
affaire	-7809
appréci	-7810
engager	-7811
▁relève	-7812
▁contain	-7813
▁pouvait	-7814
▁statute	-7815
▁concrète	-7816
▁phenomen	-7817
▁paiements	-7818
▁propriété	-7819
▁naturelles	-7820
▁strengthened	-7821
%.	-7822
▁[	-7823
yes	-7824
blin	-7825
ived	-7826
neur	-7827
▁cab	-7828
oslav	-7829
▁doha	-7830
▁flot	-7831
▁suit	-7832
▁tête	-7833
▁arrêt	-7834
▁bound	-7835
▁cruci	-7836
▁lancé	-7837
▁prohib	-7838
▁textes	-7839
▁intends	-7840
▁sympath	-7841
▁vulnéra	-7842
▁prennent	-7843
▁property	-7844
▁énergies	-7845
▁automobile	-7846
▁performance	-7847
▁proceedings	-7848
öm	-7849
ett	-7850
ball	-7851
isra	-7852
uent	-7853
▁err	-7854
▁lou	-7855
human	-7856
▁hors	-7857
▁advis	-7858
▁postp	-7859
hension	-7860
▁greens	-7861
▁satell	-7862
▁taxpay	-7863
▁advance	-7864
▁dumping	-7865
▁medical	-7866
▁procure	-7867
▁avancées	-7868
▁aviation	-7869
▁générales	-7870
▁activement	-7871
▁difference	-7872
▁efficacité	-7873
▁travaillent	-7874
icy	-7875
ony	-7876
argo	-7877
iées	-7878
pées	-7879
tröm	-7880
uves	-7881
▁fév	-7882
▁kar	-7883
▁rac	-7884
▁yug	-7885
estim	-7886
ovine	-7887
▁corr	-7888
▁rent	-7889
▁roms	-7890
▁tang	-7891
▁alarm	-7892
▁check	-7893
▁evalu	-7894
▁execu	-7895
▁subse	-7896
quested	-7897
▁déploy	-7898
▁répète	-7899
▁vendre	-7900
▁careful	-7901
▁déposés	-7902
▁enquête	-7903
▁février	-7904
▁georgia	-7905
▁keeping	-7906
▁someone	-7907
▁vessels	-7908
▁barriers	-7909
▁rational	-7910
▁remettre	-7911
▁yugoslav	-7912
▁enregistr	-7913
▁préalable	-7914
▁renforcée	-7915
▁requested	-7916
▁utilisées	-7917
électricité	-7918
▁existantes	-7919
▁neighbours	-7920
▁traditions	-7921
▁directrices	-7922
▁indépendants	-7923
gl	-7924
ery	-7925
ona	-7926
pere	-7927
tein	-7928
▁supr	-7929
▁judic	-7930
▁prove	-7931
▁tarif	-7932
▁abordé	-7933
▁découl	-7934
▁routes	-7935
▁spoken	-7936
▁élimin	-7937
paravant	-7938
▁briefly	-7939
▁communi	-7940
▁imagine	-7941
▁remarqu	-7942
discrimin	-7943
prétation	-7944
▁soutiend	-7945
▁qualified	-7946
▁soumettre	-7947
▁intéressant	-7948
▁operational	-7949
▁essentielles	-7950
02	-7951
9,	-7952
▁ep	-7953
adow	-7954
cies	-7955
curr	-7956
sifs	-7957
▁tun	-7958
avait	-7959
▁bref	-7960
▁sold	-7961
ergies	-7962
ulsion	-7963
▁2003,	-7964
▁2007,	-7965
▁cofin	-7966
▁délic	-7967
▁optim	-7968
▁pesti	-7969
aliment	-7970
▁donnée	-7971
▁dublin	-7972
▁firmly	-7973
▁latter	-7974
▁played	-7975
▁proved	-7976
▁pursue	-7977
▁vulner	-7978
▁answers	-7979
▁federal	-7980
▁inclure	-7981
▁persist	-7982
▁relates	-7983
▁primarily	-7984
▁published	-7985
▁écologique	-7986
ato	-7987
dess	-7988
▁psy	-7989
▁team	-7990
advant	-7991
▁2010,	-7992
▁arbit	-7993
▁conce	-7994
▁rémun	-7995
▁spoke	-7996
▁colomb	-7997
▁perdre	-7998
▁volume	-7999
▁wealth	-8000
▁observe	-8001
▁silence	-8002
▁suivant	-8003
▁urgency	-8004
▁accompan	-8005
▁proposes	-8006
▁vivement	-8007
▁accroître	-8008
▁extensive	-8009
▁meilleurs	-8010
▁philosoph	-8011
▁compatible	-8012
▁constantly	-8013
▁manufacturer	-8014
dez	-8015
osé	-8016
▁bö	-8017
ison	-8018
▁ende	-8019
▁honn	-8020
▁horr	-8021
▁none	-8022
▁rejo	-8023
▁1999,	-8024
▁ville	-8025
▁détails	-8026
▁ressort	-8027
▁attempts	-8028
▁believes	-8029
▁chapitre	-8030
▁indirect	-8031
▁semblent	-8032
instrument	-8033
▁disadvant	-8034
▁proposées	-8035
▁territorial	-8036
▁possibilities	-8037
▁technologique	-8038
▁inn	-8039
▁rob	-8040
▁taxe	-8041
▁wine	-8042
périté	-8043
▁chale	-8044
▁désas	-8045
▁fisch	-8046
▁seven	-8047
▁sites	-8048
instant	-8049
titudes	-8050
▁crains	-8051
▁endeav	-8052
▁matern	-8053
▁préjud	-8054
appropri	-8055
entendre	-8056
honorable	-8057
▁contrats	-8058
▁incident	-8059
▁sanction	-8060
▁scandale	-8061
▁approprié	-8062
▁travaillé	-8063
▁prosperity	-8064
▁prospérité	-8065
▁équilibrée	-8066
▁complètement	-8067
▁consultations	-8068
▁investigation	-8069
▁répercussions	-8070
▁5,	-8071
bone	-8072
infr	-8073
▁bor	-8074
▁vat	-8075
/2000	-8076
aving	-8077
isées	-8078
▁birm	-8079
▁forg	-8080
▁soud	-8081
▁slova	-8082
▁régler	-8083
▁serbia	-8084
▁transn	-8085
▁finland	-8086
▁himself	-8087
▁prepare	-8088
▁rurales	-8089
infrastru	-8090
▁commencé	-8091
▁debating	-8092
▁exemples	-8093
▁formuler	-8094
▁humaines	-8095
▁supervis	-8096
▁pharmaceu	-8097
▁contradict	-8098
▁partenaire	-8099
▁volontaire	-8100
▁pratiquement	-8101
▁ressortissants	-8102
ds	-8103
ko	-8104
aily	-8105
ured	-8106
comed	-8107
itely	-8108
sives	-8109
acquis	-8110
ficits	-8111
tivity	-8112
▁chann	-8113
▁daily	-8114
▁japan	-8115
▁psych	-8116
▁react	-8117
▁tenue	-8118
▁majeur	-8119
▁salari	-8120
▁school	-8121
érations	-8122
▁appoint	-8123
▁conduit	-8124
▁déficit	-8125
▁exports	-8126
▁faibles	-8127
▁suppose	-8128
▁turning	-8129
▁witness	-8130
▁actively	-8131
▁conforme	-8132
▁illégale	-8133
▁involves	-8134
▁quantité	-8135
▁retraite	-8136
▁trouvons	-8137
▁welcomed	-8138
▁organisée	-8139
▁satisfied	-8140
▁tellement	-8141
▁électeurs	-8142
approbation	-8143
▁considérons	-8144
21	-8145
ova	-8146
vit	-8147
undi	-8148
▁eco	-8149
▁flu	-8150
/2001	-8151
arrêt	-8152
phere	-8153
▁educ	-8154
▁kore	-8155
▁mode	-8156
▁saur	-8157
icycle	-8158
tation	-8159
▁degré	-8160
▁deter	-8161
▁expli	-8162
▁modes	-8163
▁russe	-8164
▁users	-8165
▁agence	-8166
▁syndic	-8167
standing	-8168
▁afrique	-8169
▁courant	-8170
▁deliber	-8171
▁devient	-8172
▁mutuelle	-8173
▁expliquer	-8174
▁intensive	-8175
▁materials	-8176
▁preparing	-8177
▁discipline	-8178
▁socialists	-8179
6,	-8180
uted	-8181
▁eth	-8182
ieuse	-8183
oubli	-8184
parli	-8185
round	-8186
èvent	-8187
▁felt	-8188
▁perç	-8189
ualité	-8190
▁1999.	-8191
▁compt	-8192
▁quota	-8193
▁revis	-8194
▁humain	-8195
▁remark	-8196
▁spring	-8197
iendrait	-8198
▁aurions	-8199
▁follows	-8200
▁legitim	-8201
▁reconnu	-8202
▁avantage	-8203
▁fischler	-8204
▁élaborer	-8205
parliament	-8206
▁announced	-8207
▁contracts	-8208
▁dependent	-8209
▁connaissons	-8210
▁formulation	-8211
▁remerciements	-8212
▁restructuring	-8213
8,	-8214
itz	-8215
ési	-8216
bler	-8217
care	-8218
romp	-8219
▁host	-8220
▁méde	-8221
▁pire	-8222
▁éché	-8223
instar	-8224
ulsory	-8225
▁congo	-8226
▁dérog	-8227
▁géorg	-8228
▁intol	-8229
▁souha	-8230
▁danish	-8231
▁fields	-8232
▁patten	-8233
▁viable	-8234
▁finding	-8235
▁ongoing	-8236
▁tampere	-8237
▁textile	-8238
▁reaction	-8239
▁requests	-8240
▁described	-8241
▁industrie	-8242
▁participé	-8243
▁organismes	-8244
▁satisfaire	-8245
▁observation	-8246
▁satisfactory	-8247
▁problématique	-8248
▁régulièrement	-8249
pal	-8250
▁35	-8251
cées	-8252
uler	-8253
umed	-8254
inely	-8255
istic	-8256
léter	-8257
▁agit	-8258
▁bâti	-8259
▁corp	-8260
érales	-8261
▁2001,	-8262
▁divid	-8263
▁débou	-8264
▁meant	-8265
▁pragm	-8266
▁timor	-8267
raction	-8268
▁clairs	-8269
▁distor	-8270
▁gauche	-8271
▁quinze	-8272
▁seeing	-8273
▁suffer	-8274
▁taille	-8275
▁affects	-8276
▁approxim	-8277
▁learning	-8278
▁privatis	-8279
▁suspension	-8280
▁undertaken	-8281
▁ferroviaire	-8282
▁sincèrement	-8283
▁expectations	-8284
▁industrielle	-8285
▁indépendante	-8286
▁contrairement	-8287
ops	-8288
teen	-8289
▁mag	-8290
▁mos	-8291
▁piè	-8292
▁sid	-8293
▁tol	-8294
▁élo	-8295
ennes	-8296
▁kept	-8297
▁liqu	-8298
▁vast	-8299
▁vict	-8300
▁eight	-8301
▁perte	-8302
▁baisse	-8303
▁define	-8304
▁défaut	-8305
▁examen	-8306
▁réform	-8307
▁visent	-8308
▁adoptés	-8309
▁organes	-8310
▁precise	-8311
▁accordée	-8312
▁capitale	-8313
▁légitime	-8314
▁centaines	-8315
▁conducted	-8316
▁remplacer	-8317
▁complicated	-8318
▁electricity	-8319
▁essentially	-8320
▁répartition	-8321
▁électronique	-8322
))	-8323
(200	-8324
isted	-8325
oquer	-8326
▁arch	-8327
▁demi	-8328
aucune	-8329
▁block	-8330
▁somme	-8331
▁timet	-8332
▁wider	-8333
demment	-8334
quality	-8335
▁appare	-8336
▁preced	-8337
▁stands	-8338
agissait	-8339
▁annoncé	-8340
▁monopol	-8341
▁paroles	-8342
▁radical	-8343
▁heritage	-8344
▁organisé	-8345
▁polonais	-8346
▁méditerrané	-8347
▁significance	-8348
▁améliorations	-8349
▁institutionnel	-8350
▁az	-8351
ondu	-8352
▁gdp	-8353
▁pic	-8354
▁vin	-8355
▁win	-8356
▁bann	-8357
▁créé	-8358
▁quit	-8359
▁dette	-8360
▁dites	-8361
▁douan	-8362
▁voici	-8363
▁deficit	-8364
▁driving	-8365
▁incombe	-8366
▁playing	-8367
▁consenti	-8368
▁football	-8369
▁launched	-8370
▁dynamique	-8371
▁provenant	-8372
amendements	-8373
▁pesticides	-8374
▁respectent	-8375
▁respective	-8376
▁advertising	-8377
ano	-8378
itée	-8379
nées	-8380
▁saw	-8381
▁tva	-8382
alisé	-8383
rière	-8384
étais	-8385
▁insu	-8386
diovis	-8387
ground	-8388
▁leads	-8389
▁prête	-8390
▁vigil	-8391
▁beings	-8392
▁denrées	-8393
▁déclare	-8394
▁essayer	-8395
▁prenons	-8396
▁prévues	-8397
excellent	-8398
▁coordonn	-8399
▁contribue	-8400
▁frontière	-8401
▁genuinely	-8402
▁provenance	-8403
▁highlighted	-8404
▁sufficiently	-8405
▁élargissement	-8406
oz	-8407
’.	-8408
pre	-8409
ileo	-8410
▁phr	-8411
▁exha	-8412
andest	-8413
▁2005.	-8414
▁2006.	-8415
▁levée	-8416
▁links	-8417
▁tools	-8418
▁choisi	-8419
▁désign	-8420
▁détail	-8421
istiques	-8422
ièvement	-8423
▁anciens	-8424
▁anticip	-8425
▁croatie	-8426
▁galileo	-8427
▁holding	-8428
▁supprim	-8429
▁vérifier	-8430
▁allemande	-8431
▁opérateurs	-8432
▁indépendant	-8433
▁étroitement	-8434
▁neighbourhood	-8435
lers	-8436
uing	-8437
▁lié	-8438
▁urb	-8439
ories	-8440
▁biom	-8441
▁kurd	-8442
accomp	-8443
agisse	-8444
sement	-8445
▁displ	-8446
▁faute	-8447
▁image	-8448
▁médic	-8449
▁nourr	-8450
▁ashton	-8451
▁carbon	-8452
▁duquel	-8453
▁latine	-8454
▁quelqu	-8455
▁rectif	-8456
▁remove	-8457
▁réside	-8458
▁sortir	-8459
▁amended	-8460
▁belgium	-8461
▁convenu	-8462
▁disappe	-8463
▁moyenne	-8464
▁prétend	-8465
▁énergie	-8466
▁airlines	-8467
▁applying	-8468
▁attentes	-8469
▁intégrée	-8470
▁montrent	-8471
▁bénéfices	-8472
▁completed	-8473
▁determine	-8474
▁governing	-8475
▁brièvement	-8476
▁strategies	-8477
▁television	-8478
▁exportations	-8479
▁clarification	-8480
▁exclusivement	-8481
urb	-8482
▁fic	-8483
▁tri	-8484
iphér	-8485
lined	-8486
timis	-8487
▁enqu	-8488
contre	-8489
▁latin	-8490
▁maced	-8491
▁neutr	-8492
analyse	-8493
ventive	-8494
▁entrer	-8495
▁repose	-8496
▁stipul	-8497
culation	-8498
▁privilég	-8499
▁stressed	-8500
▁catégorie	-8501
▁christian	-8502
▁difficulty	-8503
▁understood	-8504
▁concentrate	-8505
▁présentation	-8506
▁extraordinaire	-8507
hor	-8508
ilt	-8509
▁ic	-8510
gest	-8511
holm	-8512
osen	-8513
▁diss	-8514
▁fixé	-8515
▁pain	-8516
▁room	-8517
bilité	-8518
israël	-8519
▁ayons	-8520
▁comit	-8521
▁entam	-8522
▁spite	-8523
imposer	-8524
▁débatt	-8525
▁irresp	-8526
▁touche	-8527
▁waters	-8528
▁becomes	-8529
▁chinois	-8530
▁clarify	-8531
▁imparti	-8532
▁mettent	-8533
▁pencher	-8534
▁récente	-8535
augmenter	-8536
▁commence	-8537
▁désastre	-8538
▁jeunesse	-8539
▁supposed	-8540
introduire	-8541
▁disposent	-8542
▁fonctions	-8543
▁introduit	-8544
▁petitions	-8545
▁régionaux	-8546
▁worldwide	-8547
▁diplomatic	-8548
▁dépendance	-8549
▁identified	-8550
▁preparation	-8551
▁territoires	-8552
▁profondément	-8553
uild	-8554
▁gue	-8555
atisf	-8556
▁inad	-8557
▁mich	-8558
▁rang	-8559
dessus	-8560
élérer	-8561
▁corps	-8562
▁thurs	-8563
▁toxic	-8564
aborder	-8565
▁chosen	-8566
▁ignore	-8567
▁privés	-8568
▁riches	-8569
▁réserv	-8570
attitude	-8571
▁alcohol	-8572
▁heading	-8573
▁imports	-8574
▁manifes	-8575
▁players	-8576
▁primary	-8577
▁reflète	-8578
▁release	-8579
▁retirer	-8580
▁clandest	-8581
▁deserves	-8582
▁libéraux	-8583
▁difficulté	-8584
▁neighbouring	-8585
▁determination	-8586
▁environmentally	-8587
6)	-8588
vic	-8589
▁rh	-8590
5-01	-8591
hand	-8592
roit	-8593
▁fas	-8594
offre	-8595
osing	-8596
▁recr	-8597
▁hopes	-8598
▁japon	-8599
▁quote	-8600
onniers	-8601
▁certif	-8602
▁plants	-8603
▁revenu	-8604
▁biggest	-8605
▁choisir	-8606
▁exercer	-8607
▁illustr	-8608
▁legally	-8609
▁numbers	-8610
▁relance	-8611
▁species	-8612
christian	-8613
▁adresser	-8614
▁granting	-8615
▁internes	-8616
▁thanking	-8617
encourager	-8618
▁hungarian	-8619
▁vulnerable	-8620
▁experienced	-8621
▁bureaucratie	-8622
odi	-8623
rol	-8624
▁fu	-8625
▁hu	-8626
ging	-8627
mité	-8628
ordi	-8629
▁bce	-8630
▁kil	-8631
▁lam	-8632
▁lay	-8633
itons	-8634
▁amis	-8635
▁cite	-8636
▁stay	-8637
▁défav	-8638
▁liens	-8639
▁mines	-8640
▁aftern	-8641
▁disant	-8642
▁minist	-8643
▁racism	-8644
▁shadow	-8645
▁slight	-8646
émicycle	-8647
▁civiles	-8648
▁allemand	-8649
▁thursday	-8650
▁nécessite	-8651
▁reconnaît	-8652
▁télévision	-8653
▁publication	-8654
▁connaissances	-8655
▁entrepreneurs	-8656
▁manifestement	-8657
bc	-8658
ga	-8659
▁î	-8660
uré	-8661
vie	-8662
èse	-8663
▁%,	-8664
appu	-8665
iable	-8666
▁banc	-8667
▁irré	-8668
▁plaf	-8669
ansion	-8670
ements	-8671
ighten	-8672
▁fixés	-8673
▁menée	-8674
▁venez	-8675
▁évalu	-8676
related	-8677
▁bosnie	-8678
▁diverg	-8679
▁forêts	-8680
▁interv	-8681
▁polish	-8682
▁rédigé	-8683
▁strugg	-8684
ériences	-8685
▁preuves	-8686
▁promise	-8687
▁prévoir	-8688
▁rigoure	-8689
▁fiscales	-8690
▁opposite	-8691
▁possibly	-8692
▁barcelona	-8693
▁conserver	-8694
▁medicines	-8695
▁succeeded	-8696
▁conception	-8697
▁introduire	-8698
▁suggestion	-8699
▁permettront	-8700
ki	-8701
inki	-8702
terr	-8703
▁sum	-8704
ified	-8705
ètent	-8706
▁empê	-8707
▁hous	-8708
▁venu	-8709
▁coûte	-8710
▁fifth	-8711
▁firms	-8712
▁préci	-8713
▁schul	-8714
elsinki	-8715
enfants	-8716
▁libres	-8717
▁summer	-8718
▁destroy	-8719
▁greatly	-8720
▁inutile	-8721
▁licenci	-8722
▁répondu	-8723
▁tchèque	-8724
▁whereby	-8725
▁concrets	-8726
▁informer	-8727
iphériques	-8728
▁afternoon	-8729
▁nettement	-8730
▁resulting	-8731
▁stockholm	-8732
▁suffisant	-8733
▁accessible	-8734
▁maintained	-8735
▁appropriées	-8736
▁multilateral	-8737
▁3.	-8738
▁6,	-8739
avec	-8740
free	-8741
iant	-8742
pire	-8743
qual	-8744
rees	-8745
▁mach	-8746
▁ravi	-8747
▁rede	-8748
▁unne	-8749
▁2004.	-8750
▁heavy	-8751
▁sugar	-8752
burants	-8753
enquête	-8754
importe	-8755
▁choose	-8756
▁length	-8757
▁madrid	-8758
▁schulz	-8759
accorder	-8760
alliance	-8761
▁clauses	-8762
▁complet	-8763
▁rejeter	-8764
▁waiting	-8765
président	-8766
▁carrying	-8767
▁chaleure	-8768
▁chercher	-8769
▁distance	-8770
▁modified	-8771
▁unnecess	-8772
▁attendent	-8773
▁chimiques	-8774
▁elsewhere	-8775
▁positives	-8776
▁suggested	-8777
▁appliquées	-8778
▁auparavant	-8779
▁background	-8780
▁controvers	-8781
▁presidents	-8782
▁interdiction	-8783
▁législations	-8784
èles	-8785
quons	-8786
▁prev	-8787
aurais	-8788
invite	-8789
irable	-8790
▁délib	-8791
▁frank	-8792
▁précé	-8793
▁requi	-8794
▁vague	-8795
▁clarté	-8796
▁gagner	-8797
▁opened	-8798
▁voyons	-8799
▁engagés	-8800
▁enhance	-8801
▁salaires	-8802
▁acknowled	-8803
▁génétique	-8804
▁habitants	-8805
▁producing	-8806
▁prononcer	-8807
▁secretary	-8808
▁équilibré	-8809
orientation	-8810
▁convaincre	-8811
▁précédemment	-8812
▁successfully	-8813
▁développements	-8814
mod	-8815
pap	-8816
agée	-8817
inal	-8818
voir	-8819
▁ant	-8820
▁hol	-8821
▁lan	-8822
▁maî	-8823
▁rub	-8824
effor	-8825
lever	-8826
mages	-8827
orous	-8828
▁mené	-8829
▁sert	-8830
▁bilan	-8831
▁quasi	-8832
▁ambigu	-8833
▁civils	-8834
▁refers	-8835
▁carbone	-8836
▁clarity	-8837
▁debated	-8838
▁extreme	-8839
▁feeling	-8840
▁échange	-8841
▁évaluer	-8842
▁audiovis	-8843
▁declared	-8844
▁déclarer	-8845
▁utilisée	-8846
▁travaille	-8847
▁encouraged	-8848
▁suffisante	-8849
▁temporaire	-8850
discrimination	-8851
uées	-8852
▁hun	-8853
▁web	-8854
▁prie	-8855
▁remp	-8856
▁effor	-8857
▁niger	-8858
▁pollu	-8859
▁prati	-8860
adresse	-8861
▁issued	-8862
▁rejeté	-8863
▁thèmes	-8864
affaires	-8865
élaborer	-8866
▁decades	-8867
▁obliged	-8868
▁2007-201	-8869
▁derrière	-8870
▁disposal	-8871
▁dossiers	-8872
▁existant	-8873
▁finlande	-8874
▁register	-8875
▁surround	-8876
▁competent	-8877
▁considéré	-8878
▁nationals	-8879
▁compulsory	-8880
▁constitute	-8881
▁présentent	-8882
▁destination	-8883
ext	-8884
rov	-8885
sen	-8886
tex	-8887
▁lie	-8888
▁rul	-8889
eties	-8890
igner	-8891
iling	-8892
▁city	-8893
▁indu	-8894
▁went	-8895
▁évid	-8896
érable	-8897
▁cheap	-8898
▁déten	-8899
▁scrut	-8900
▁signe	-8901
▁sorry	-8902
▁texts	-8903
cidence	-8904
ueillir	-8905
▁agents	-8906
▁breach	-8907
▁franch	-8908
▁santer	-8909
▁avancée	-8910
▁chapter	-8911
▁healthy	-8912
▁foremost	-8913
▁hundreds	-8914
▁openness	-8915
▁worrying	-8916
étiquetage	-8917
▁accomplis	-8918
▁rencontre	-8919
▁societies	-8920
▁inadequate	-8921
▁précédente	-8922
▁bureaucracy	-8923
▁comportement	-8924
▁concrètement	-8925
▁mobilisation	-8926
▁représentation	-8927
jan	-8928
vez	-8929
bret	-8930
▁adm	-8931
▁loy	-8932
aller	-8933
garde	-8934
échec	-8935
▁asia	-8936
▁core	-8937
▁inég	-8938
▁litu	-8939
▁milk	-8940
▁roth	-8941
▁sain	-8942
▁1998,	-8943
▁imper	-8944
▁label	-8945
▁lobby	-8946
▁monti	-8947
▁reten	-8948
▁révis	-8949
▁ultra	-8950
▁usage	-8951
▁chargé	-8952
▁greenh	-8953
▁locaux	-8954
▁recall	-8955
▁revers	-8956
▁séjour	-8957
affirmer	-8958
bretagne	-8959
▁assumer	-8960
▁comport	-8961
▁depends	-8962
▁géorgie	-8963
▁schools	-8964
▁apparaît	-8965
▁remaining	-8966
▁appartient	-8967
▁emphasised	-8968
▁inquiétude	-8969
▁légitimité	-8970
▁susceptibles	-8971
▁transitional	-8972
bo	-8973
ypt	-8974
▁400	-8975
▁dre	-8976
▁hit	-8977
▁thé	-8978
outer	-8979
unity	-8980
états	-8981
▁peur	-8982
▁soup	-8983
ieuses	-8984
oivent	-8985
▁earth	-8986
▁sinon	-8987
▁savent	-8988
▁widely	-8989
isations	-8990
▁apporte	-8991
▁belgian	-8992
▁britain	-8993
▁digital	-8994
▁islands	-8995
inclusion	-8996
▁coopérer	-8997
▁dommages	-8998
▁ratified	-8999
▁décennies	-9000
▁employers	-9001
▁présentés	-9002
▁pétitions	-9003
▁suivantes	-9004
▁complement	-9005
▁inappropri	-9006
▁indication	-9007
▁concessions	-9008
▁enforcement	-9009
▁particuliers	-9010
▁stratégiques	-9011
non	-9012
▁4.	-9013
lymp	-9014
▁eye	-9015
▁mun	-9016
▁mén	-9017
érant	-9018
▁flux	-9019
▁inév	-9020
▁perp	-9021
▁sets	-9022
▁élus	-9023
▁armed	-9024
▁olymp	-9025
▁paris	-9026
acement	-9027
èvement	-9028
▁exhaus	-9029
▁finale	-9030
▁punish	-9031
fficient	-9032
▁bearing	-9033
▁directe	-9034
▁dollars	-9035
▁poorest	-9036
▁rassemb	-9037
organiser	-9038
▁sentence	-9039
▁strictes	-9040
▁allemagne	-9041
▁correctly	-9042
▁detriment	-9043
▁voisinage	-9044
▁diminution	-9045
▁facilement	-9046
▁previously	-9047
▁significative	-9048
▁administrations	-9049
cut	-9050
han	-9051
law	-9052
ork	-9053
uée	-9054
▁37	-9055
aves	-9056
cupé	-9057
gues	-9058
▁aug	-9059
▁ord	-9060
▁ache	-9061
▁aids	-9062
▁cauc	-9063
▁dess	-9064
▁alleg	-9065
holders	-9066
▁acting	-9067
▁deeply	-9068
▁immigr	-9069
▁handica	-9070
▁hungary	-9071
▁pouvant	-9072
▁running	-9073
▁scrutin	-9074
▁threats	-9075
▁fragment	-9076
▁respects	-9077
▁suffered	-9078
▁exprimées	-9079
▁fournisse	-9080
▁addressing	-9081
▁greenhouse	-9082
▁navigation	-9083
▁guaranteeing	-9084
▁contribuables	-9085
▁justification	-9086
▁manufacturers	-9087
▁considérations	-9088
▁sustainability	-9089
▁environnemental	-9090
ça	-9091
ili	-9092
grad	-9093
▁bse	-9094
cting	-9095
eugen	-9096
irait	-9097
▁conç	-9098
▁dism	-9099
▁lith	-9100
▁noon	-9101
ingent	-9102
▁count	-9103
▁décis	-9104
▁bosnia	-9105
▁partly	-9106
▁patrim	-9107
▁serbie	-9108
▁surmon	-9109
▁téléph	-9110
▁ukrain	-9111
▁dispute	-9112
▁dynamic	-9113
▁engager	-9114
▁motions	-9115
▁category	-9116
▁voitures	-9117
▁approuver	-9118
▁détriment	-9119
▁extending	-9120
▁formulées	-9121
▁sensibles	-9122
▁timetable	-9123
▁excellente	-9124
▁instamment	-9125
▁recommande	-9126
▁véritables	-9127
▁negotiation	-9128
▁intellectual	-9129
%,	-9130
6-0	-9131
ngl	-9132
put	-9133
ski	-9134
▁xx	-9135
akes	-9136
incl	-9137
obil	-9138
resh	-9139
écus	-9140
▁cad	-9141
▁upd	-9142
rance	-9143
titut	-9144
▁echo	-9145
▁huit	-9146
▁magn	-9147
▁poet	-9148
anging	-9149
▁lithu	-9150
▁manip	-9151
▁médec	-9152
▁préte	-9153
▁sched	-9154
▁tenus	-9155
▁vente	-9156
jection	-9157
▁doubts	-9158
▁futurs	-9159
▁marque	-9160
▁pronon	-9161
▁purely	-9162
▁twenty	-9163
applique	-9164
émission	-9165
▁harmful	-9166
▁millenn	-9167
▁soulevé	-9168
▁austrian	-9169
▁cruciale	-9170
▁effectué	-9171
▁messages	-9172
▁passenger	-9173
▁verheugen	-9174
entreprises	-9175
▁phenomenon	-9176
▁constitutes	-9177
▁importantly	-9178
▁compréhension	-9179
▁structurelles	-9180
3)	-9181
sp	-9182
abe	-9183
enz	-9184
hou	-9185
▁ed	-9186
▁mè	-9187
vote	-9188
▁fit	-9189
scale	-9190
uding	-9191
▁beef	-9192
▁canc	-9193
▁clon	-9194
▁parc	-9195
▁built	-9196
▁desqu	-9197
▁remov	-9198
▁ridic	-9199
▁siège	-9200
accueil	-9201
▁became	-9202
▁helped	-9203
▁leçons	-9204
▁liquid	-9205
▁précon	-9206
▁russes	-9207
▁subsid	-9208
▁destiné	-9209
▁hearing	-9210
▁lacunes	-9211
▁suédois	-9212
▁tragedy	-9213
▁visible	-9214
ervations	-9215
▁conseils	-9216
▁histoire	-9217
▁méritent	-9218
▁ordinary	-9219
▁explicite	-9220
▁indicated	-9221
▁instances	-9222
▁continuera	-9223
▁convaincue	-9224
▁croissante	-9225
▁definitely	-9226
▁presenting	-9227
instauration	-9228
▁approfondie	-9229
▁bénéficiaires	-9230
pa	-9231
âge	-9232
▁ig	-9233
isés	-9234
redi	-9235
abled	-9236
enses	-9237
▁barb	-9238
▁fast	-9239
▁honor	-9240
▁watch	-9241
▁worst	-9242
évaluer	-9243
▁advice	-9244
▁genève	-9245
▁posent	-9246
▁revoir	-9247
▁tenant	-9248
▁turned	-9249
▁accordé	-9250
▁discuté	-9251
▁disposi	-9252
▁engagée	-9253
▁exploit	-9254
▁hauteur	-9255
▁mistake	-9256
▁morocco	-9257
▁schemes	-9258
▁belgique	-9259
▁consacré	-9260
▁examined	-9261
▁investir	-9262
▁sexuelle	-9263
▁aériennes	-9264
▁confirmer	-9265
▁considers	-9266
▁discutons	-9267
▁marketing	-9268
▁pressions	-9269
▁surmonter	-9270
▁durabilité	-9271
▁réductions	-9272
▁achievement	-9273
▁bénéficient	-9274
▁contribuera	-9275
▁inspections	-9276
▁vulnérables	-9277
25	-9278
aw	-9279
sim	-9280
sts	-9281
yle	-9282
▁8,	-9283
imag	-9284
▁dév	-9285
▁jun	-9286
▁élu	-9287
ading	-9288
agnes	-9289
aille	-9290
asser	-9291
liers	-9292
oured	-9293
▁site	-9294
/2001)	-9295
ancien	-9296
▁motor	-9297
▁perpé	-9298
▁proof	-9299
▁chaîne	-9300
▁claims	-9301
▁compon	-9302
▁massac	-9303
▁motifs	-9304
▁owners	-9305
dictions	-9306
iendrons	-9307
▁espérer	-9308
▁hongrie	-9309
▁plafond	-9310
▁raising	-9311
▁savings	-9312
extérieur	-9313
▁constaté	-9314
▁enabling	-9315
▁excluded	-9316
▁financed	-9317
adaptation	-9318
▁appliquée	-9319
▁certainty	-9320
▁cinquième	-9321
▁concrétis	-9322
▁consacrer	-9323
▁macedonia	-9324
▁développés	-9325
▁intégration	-9326
▁prisonniers	-9327
▁considerably	-9328
▁geographical	-9329
▁restructuration	-9330
mn	-9331
)).	-9332
aie	-9333
itis	-9334
riez	-9335
▁dav	-9336
▁gap	-9337
▁mob	-9338
armes	-9339
entra	-9340
érées	-9341
▁mosc	-9342
alisée	-9343
▁2001.	-9344
▁2003.	-9345
▁arise	-9346
▁blood	-9347
▁déplo	-9348
▁lever	-9349
▁piece	-9350
▁réels	-9351
▁combin	-9352
▁inspir	-9353
▁phrase	-9354
▁restre	-9355
▁solely	-9356
▁écoles	-9357
approuve	-9358
opportun	-9359
▁négatif	-9360
▁quelcon	-9361
▁soumise	-9362
▁écrites	-9363
▁affirmer	-9364
▁diffusion	-9365
▁impliqués	-9366
▁satellite	-9367
▁américaine	-9368
▁candidates	-9369
▁foundation	-9370
▁procedural	-9371
▁secrétaire	-9372
▁aspirations	-9373
▁dangereuses	-9374
▁remarquable	-9375
▁professionnels	-9376
cod	-9377
mor	-9378
son	-9379
zen	-9380
ayer	-9381
cons	-9382
rets	-9383
user	-9384
▁cou	-9385
▁dar	-9386
habil	-9387
▁murd	-9388
▁wind	-9389
innock	-9390
▁2002,	-9391
▁camps	-9392
▁dirig	-9393
▁etats	-9394
▁pleas	-9395
▁pénal	-9396
▁âgées	-9397
adapter	-9398
session	-9399
▁appris	-9400
▁brevet	-9401
▁concep	-9402
▁dirais	-9403
▁prévoy	-9404
▁seules	-9405
▁équipe	-9406
iquement	-9407
▁affirme	-9408
▁chiffre	-9409
▁commend	-9410
▁smaller	-9411
▁conduire	-9412
▁familiar	-9413
▁purement	-9414
▁stations	-9415
▁limitation	-9416
▁millennium	-9417
▁handicapées	-9418
▁insufficient	-9419
arc	-9420
cap	-9421
▁75	-9422
èces	-9423
▁ing	-9424
▁inj	-9425
ocide	-9426
oulez	-9427
tream	-9428
▁1994	-9429
▁atti	-9430
▁fire	-9431
▁irre	-9432
▁fresh	-9433
▁noire	-9434
▁scène	-9435
▁sudan	-9436
▁écout	-9437
ampleur	-9438
étaient	-9439
étendre	-9440
▁martin	-9441
▁notice	-9442
▁voulez	-9443
currence	-9444
▁donnent	-9445
▁kinnock	-9446
▁leaving	-9447
▁planète	-9448
▁racisme	-9449
abilities	-9450
accroître	-9451
▁démontré	-9452
▁négocier	-9453
▁observer	-9454
▁prétexte	-9455
▁reaching	-9456
▁reliable	-9457
▁assurance	-9458
▁bienvenue	-9459
▁clarifier	-9460
▁criminels	-9461
▁negotiate	-9462
▁prochains	-9463
▁prospects	-9464
▁unanimous	-9465
▁favourable	-9466
▁présentées	-9467
alimentation	-9468
▁accordingly	-9469
▁applicables	-9470
.,	-9471
asm	-9472
osy	-9473
rad	-9474
ajus	-9475
alle	-9476
erai	-9477
▁cam	-9478
▁mix	-9479
▁ral	-9480
▁spl	-9481
▁unw	-9482
▁éth	-9483
tered	-9484
▁alli	-9485
▁army	-9486
▁choc	-9487
▁clés	-9488
▁inqu	-9489
▁town	-9490
▁vill	-9491
formes	-9492
venues	-9493
▁atmos	-9494
▁boost	-9495
▁corée	-9496
▁hamas	-9497
▁seeks	-9498
▁unity	-9499
aissent	-9500
autrich	-9501
▁battle	-9502
▁espère	-9503
▁publié	-9504
▁yougos	-9505
▁drafted	-9506
▁moldova	-9507
▁élaboré	-9508
▁airports	-9509
▁analyses	-9510
▁baltique	-9511
▁heureuse	-9512
▁minorité	-9513
▁promised	-9514
▁speeches	-9515
▁tangible	-9516
▁electoral	-9517
▁everybody	-9518
élimination	-9519
▁facilities	-9520
▁legitimacy	-9521
▁libération	-9522
▁révolution	-9523
▁susceptible	-9524
▁garantissant	-9525
institutionnel	-9526
5-03	-9527
iann	-9528
lant	-9529
midi	-9530
umes	-9531
ctifs	-9532
effet	-9533
naire	-9534
▁ence	-9535
▁push	-9536
▁sake	-9537
▁sang	-9538
▁scot	-9539
▁size	-9540
▁tari	-9541
aspect	-9542
orship	-9543
▁exemp	-9544
▁fleet	-9545
▁innoc	-9546
▁labor	-9547
▁macéd	-9548
▁maroc	-9549
▁étend	-9550
▁combus	-9551
▁courts	-9552
▁exceed	-9553
▁moteur	-9554
▁outset	-9555
▁paying	-9556
▁saisir	-9557
▁unions	-9558
▁focused	-9559
▁journal	-9560
▁menaces	-9561
▁newspap	-9562
▁partant	-9563
▁urgence	-9564
▁énormes	-9565
▁coherent	-9566
▁diminuer	-9567
▁handicap	-9568
▁initiale	-9569
▁listened	-9570
▁souhaité	-9571
▁weakness	-9572
▁applicant	-9573
▁coalition	-9574
▁différent	-9575
▁taxpayers	-9576
▁définitive	-9577
▁considérant	-9578
▁rapporteure	-9579
▁représenter	-9580
▁souhaitable	-9581
▁discriminations	-9582
▁œ	-9583
iry	-9584
yth	-9585
coni	-9586
coun	-9587
▁hui	-9588
▁sau	-9589
▁von	-9590
influ	-9591
place	-9592
tiend	-9593
▁depr	-9594
atrice	-9595
▁atlan	-9596
▁await	-9597
▁blair	-9598
▁franc	-9599
▁fréqu	-9600
▁shape	-9601
▁stopp	-9602
argeted	-9603
ivalent	-9604
▁cities	-9605
▁frustr	-9606
▁island	-9607
▁millén	-9608
▁nearly	-9609
▁prévus	-9610
▁pénale	-9611
▁remédi	-9612
▁retire	-9613
▁simult	-9614
▁utmost	-9615
▁critère	-9616
▁entered	-9617
▁rapidly	-9618
▁rappelé	-9619
▁credible	-9620
▁deadline	-9621
▁démontre	-9622
▁entraîne	-9623
▁occurred	-9624
▁primordi	-9625
▁recourir	-9626
▁regarded	-9627
▁suitable	-9628
▁aéroports	-9629
▁demanding	-9630
▁débattons	-9631
▁espagnole	-9632
▁intervene	-9633
▁modalités	-9634
▁prisoners	-9635
▁ecological	-9636
▁relatively	-9637
▁revolution	-9638
▁progressivement	-9639
▁pn	-9640
berg	-9641
ield	-9642
oved	-9643
ussie	-9644
▁card	-9645
▁door	-9646
▁meat	-9647
▁unli	-9648
▁îles	-9649
assent	-9650
▁egypt	-9651
▁flood	-9652
▁korea	-9653
alising	-9654
▁impéra	-9655
missible	-9656
▁demeure	-9657
▁disprop	-9658
▁incenti	-9659
▁journée	-9660
▁railway	-9661
▁combined	-9662
▁concepts	-9663
▁explicit	-9664
▁licences	-9665
▁straight	-9666
commission	-9667
▁barcelone	-9668
▁extérieur	-9669
▁impliquer	-9670
▁increases	-9671
▁surprised	-9672
▁advantages	-9673
▁expériences	-9674
▁intelligent	-9675
▁necessarily	-9676
▁reservations	-9677
▁transatlantic	-9678
▁indépendamment	-9679
▁chaleureusement	-9680
10	-9681
uc	-9682
’,	-9683
▁dg	-9684
itch	-9685
mont	-9686
onie	-9687
ueux	-9688
agées	-9689
issue	-9690
▁honte	-9691
▁récip	-9692
istique	-9693
kestein	-9694
uilding	-9695
▁prenne	-9696
▁sought	-9697
▁supran	-9698
▁sûreté	-9699
▁tragic	-9700
autriche	-9701
empêcher	-9702
médiaire	-9703
▁frontal	-9704
▁moderne	-9705
▁organiz	-9706
▁popular	-9707
arisation	-9708
essentiel	-9709
▁atteinte	-9710
▁disabled	-9711
▁mondiaux	-9712
▁périodes	-9713
▁surprise	-9714
▁expressing	-9715
▁millénaire	-9716
▁citizenship	-9717
▁indépendance	-9718
▁journalistes	-9719
▁transparente	-9720
▁utilisateurs	-9721
▁indispensables	-9722
▁interpretation	-9723
lt	-9724
ami	-9725
iel	-9726
mic	-9727
ogue	-9728
▁gro	-9729
▁haz	-9730
▁imb	-9731
▁pet	-9732
estre	-9733
▁biof	-9734
▁crée	-9735
alisés	-9736
timate	-9737
▁leban	-9738
▁morts	-9739
▁poste	-9740
▁proud	-9741
▁recip	-9742
▁récon	-9743
accords	-9744
experts	-9745
érences	-9746
▁affron	-9747
▁appelé	-9748
▁décide	-9749
▁excuse	-9750
▁parent	-9751
▁skills	-9752
humanité	-9753
▁absolue	-9754
▁connais	-9755
▁intégré	-9756
▁lasting	-9757
▁portent	-9758
▁possède	-9759
▁retards	-9760
▁simples	-9761
▁wording	-9762
▁élevées	-9763
habitants	-9764
▁preserve	-9765
▁subjects	-9766
▁targeted	-9767
roissement	-9768
▁buildings	-9769
▁qualifiée	-9770
▁étrangers	-9771
▁quelconque	-9772
▁disproportion	-9773
&#	-9774
)]	-9775
mé	-9776
ned	-9777
osur	-9778
oute	-9779
raid	-9780
▁côt	-9781
elson	-9782
lavie	-9783
▁engl	-9784
▁file	-9785
▁vain	-9786
▁veto	-9787
▁derog	-9788
▁faith	-9789
▁serre	-9790
▁hardly	-9791
▁michel	-9792
▁réclam	-9793
▁utiles	-9794
▁creates	-9795
▁frontex	-9796
▁missing	-9797
▁voulais	-9798
▁appliqué	-9799
▁autorité	-9800
▁helsinki	-9801
▁intégrer	-9802
▁tensions	-9803
▁abolition	-9804
▁incompati	-9805
▁underline	-9806
▁disappoint	-9807
▁irlandaise	-9808
▁recherches	-9809
▁contributed	-9810
▁explanation	-9811
▁judiciaires	-9812
.)	-9813
▁7,	-9814
▁mm	-9815
/98)	-9816
augh	-9817
keep	-9818
onne	-9819
rupt	-9820
▁aus	-9821
▁ecb	-9822
armée	-9823
astat	-9824
avère	-9825
▁batt	-9826
enneté	-9827
▁exter	-9828
▁guère	-9829
▁resid	-9830
▁roman	-9831
▁veill	-9832
▁afraid	-9833
▁exacer	-9834
▁incont	-9835
▁postal	-9836
▁sports	-9837
▁stream	-9838
intégrer	-9839
▁définis	-9840
▁informé	-9841
▁remplir	-9842
▁violent	-9843
approuver	-9844
▁communic	-9845
▁indiquer	-9846
▁informal	-9847
▁regulate	-9848
▁rétablir	-9849
▁tackling	-9850
économique	-9851
▁accompagn	-9852
▁culturels	-9853
▁institute	-9854
▁undermine	-9855
▁adaptation	-9856
▁bolkestein	-9857
▁generation	-9858
▁historical	-9859
▁incentives	-9860
▁negotiated	-9861
▁patrimoine	-9862
▁profondeur	-9863
▁competences	-9864
▁connaissent	-9865
▁educational	-9866
▁occidentaux	-9867
▁unanimously	-9868
▁unnecessary	-9869
▁nécessairement	-9870
ón	-9871
amo	-9872
bel	-9873
cns	-9874
esb	-9875
asie	-9876
auff	-9877
hear	-9878
ouer	-9879
wing	-9880
écut	-9881
étch	-9882
▁éti	-9883
assin	-9884
voyer	-9885
while	-9886
▁beau	-9887
▁camb	-9888
▁club	-9889
▁unan	-9890
alling	-9891
entiss	-9892
lected	-9893
▁coton	-9894
▁somal	-9895
ictions	-9896
ounting	-9897
▁checks	-9898
▁disent	-9899
▁désire	-9900
▁easily	-9901
▁exiger	-9902
▁légale	-9903
▁organe	-9904
▁pertes	-9905
▁pièces	-9906
▁relate	-9907
▁retain	-9908
▁venons	-9909
estation	-9910
▁banking	-9911
▁removed	-9912
▁rendent	-9913
▁tchétch	-9914
▁apparent	-9915
▁correcte	-9916
▁destinée	-9917
▁enhanced	-9918
▁eurostat	-9919
▁resulted	-9920
▁sacrific	-9921
▁reiterate	-9922
▁retrouver	-9923
▁poettering	-9924
▁restricted	-9925
▁néerlandais	-9926
▁incorporated	-9927
▁palestinians	-9928
▁spécifiquement	-9929
.'	-9930
âts	-9931
card	-9932
diff	-9933
face	-9934
osex	-9935
road	-9936
zone	-9937
▁20%	-9938
▁50%	-9939
▁aér	-9940
▁iii	-9941
▁sak	-9942
▁vac	-9943
▁affa	-9944
▁négl	-9945
▁posé	-9946
▁rare	-9947
aurait	-9948
istics	-9949
▁2020.	-9950
▁aggra	-9951
▁belge	-9952
▁night	-9953
▁repro	-9954
comings	-9955
▁deaths	-9956
▁droite	-9957
▁dégâts	-9958
▁italie	-9959
▁nobody	-9960
hensible	-9961
▁emphasi	-9962
▁justify	-9963
▁mettant	-9964
▁periods	-9965
▁récents	-9966
▁touchés	-9967
▁évoquer	-9968
▁distingu	-9969
▁garantit	-9970
▁mercosur	-9971
▁offering	-9972
▁partager	-9973
▁recettes	-9974
▁rencontr	-9975
▁suédoise	-9976
▁yourself	-9977
▁conscient	-9978
▁incapable	-9979
▁printemps	-9980
▁allocation	-9981
▁automatique	-9982
▁shortcomings	-9983
▁réglementaire	-9984
ank	-9985
umn	-9986
abol	-9987
cles	-9988
dent	-9989
main	-9990
▁aud	-9991
emark	-9992
▁bois	-9993
▁enje	-9994
▁plat	-9995
▁deals	-9996
▁dress	-9997
unction	-9998
▁cultiv	-9999
▁fairly	-10000
▁feront	-10001
▁saddam	-10002
adresser	-10003
▁forests	-10004
▁passion	-10005
▁picture	-10006
▁revised	-10007
▁tiendra	-10008
▁élargie	-10009
▁civilian	-10010
▁danemark	-10011
▁devienne	-10012
▁jugement	-10013
▁physical	-10014
tissements	-10015
▁basically	-10016
▁eliminate	-10017
▁endeavour	-10018
▁instaurer	-10019
▁macédoine	-10020
ographiques	-10021
▁adjustment	-10022
▁frequently	-10023
▁intérieure	-10024
▁objections	-10025
▁simplifier	-10026
▁constamment	-10027
▁journalists	-10028
▁planification	-10029
▁supplementary	-10030
15	-10031
ney	-10032
▁36	-10033
raft	-10034
énor	-10035
▁opt	-10036
exten	-10037
grade	-10038
évent	-10039
▁cele	-10040
▁darf	-10041
▁exag	-10042
▁finn	-10043
▁fisc	-10044
▁prec	-10045
▁sûrs	-10046
osevic	-10047
▁aside	-10048
▁below	-10049
▁côtés	-10050
▁désir	-10051
▁procl	-10052
▁purch	-10053
▁voies	-10054
▁endors	-10055
▁vivant	-10056
ormément	-10057
▁english	-10058
▁indique	-10059
▁lessons	-10060
▁prisons	-10061
▁privile	-10062
▁augmenté	-10063
▁drafting	-10064
▁organise	-10065
▁powerful	-10066
▁explained	-10067
▁lithuania	-10068
▁voudrions	-10069
▁contribuent	-10070
▁industriels	-10071
▁pourcentage	-10072
▁transmission	-10073
▁manifestations	-10074
sch	-10075
ulé	-10076
zil	-10077
▁pi	-10078
▁ça	-10079
ario	-10080
eurs	-10081
oned	-10082
▁fos	-10083
▁pib	-10084
▁pir	-10085
chnya	-10086
envis	-10087
phère	-10088
pital	-10089
minent	-10090
venons	-10091
▁began	-10092
▁burma	-10093
▁falls	-10094
▁finir	-10095
▁mexic	-10096
▁reass	-10097
▁thres	-10098
utation	-10099
▁celebr	-10100
▁fortun	-10101
▁interd	-10102
▁specif	-10103
▁denmark	-10104
▁offices	-10105
▁chechnya	-10106
▁confirme	-10107
▁récentes	-10108
▁expensive	-10109
▁justifier	-10110
▁milosevic	-10111
▁puissance	-10112
▁reflected	-10113
▁threshold	-10114
▁génération	-10115
▁sauvegarde	-10116
▁surveiller	-10117
▁unemployed	-10118
▁foundations	-10119
▁uncertainty	-10120
▁programmation	-10121
▁reconciliation	-10122
▁congratulations	-10123
uck	-10124
bate	-10125
▁bir	-10126
▁igc	-10127
▁vel	-10128
▁vou	-10129
oupes	-10130
▁bour	-10131
▁coin	-10132
▁jeux	-10133
▁éman	-10134
ulaires	-10135
▁fermet	-10136
▁incend	-10137
▁inclus	-10138
▁killed	-10139
▁marine	-10140
▁prompt	-10141
▁repris	-10142
▁warmly	-10143
ographic	-10144
étranger	-10145
▁affirmé	-10146
▁arising	-10147
▁couvrir	-10148
▁dépasse	-10149
▁immense	-10150
▁intense	-10151
▁italien	-10152
▁candidat	-10153
▁directed	-10154
▁slovakia	-10155
occurrence	-10156
▁affecting	-10157
▁alongside	-10158
▁communist	-10159
▁complexes	-10160
▁defending	-10161
▁minimales	-10162
▁supérieur	-10163
▁comparable	-10164
▁demandeurs	-10165
▁partageons	-10166
▁repeatedly	-10167
▁énormément	-10168
▁générations	-10169
▁attentivement	-10170
▁politiquement	-10171
▁reconnaissant	-10172
zz	-10173
etr	-10174
mat	-10175
run	-10176
akis	-10177
édie	-10178
élev	-10179
▁sah	-10180
isten	-10181
▁airc	-10182
▁chur	-10183
▁frat	-10184
▁nine	-10185
▁actif	-10186
▁montr	-10187
▁pétro	-10188
▁rende	-10189
▁tente	-10190
pective	-10191
tivités	-10192
▁couple	-10193
▁expert	-10194
▁outils	-10195
▁weight	-10196
▁accorde	-10197
▁brevets	-10198
▁deserve	-10199
▁drogues	-10200
▁paradox	-10201
▁pensent	-10202
▁refuser	-10203
▁scandal	-10204
▁shortly	-10205
extension	-10206
▁pluriann	-10207
▁promises	-10208
▁pursuant	-10209
▁remédier	-10210
▁suivants	-10211
▁campagnes	-10212
▁condamner	-10213
▁demandent	-10214
▁détention	-10215
▁promesses	-10216
▁complaints	-10217
▁considérée	-10218
▁accusations	-10219
▁culturelles	-10220
▁generations	-10221
▁unfortunate	-10222
▁écologiques	-10223
▁biodiversity	-10224
▁demonstrates	-10225
▁authorisation	-10226
▁considerations	-10227
ria	-10228
/199	-10229
exer	-10230
hier	-10231
lées	-10232
uons	-10233
èges	-10234
▁raw	-10235
itive	-10236
▁cell	-10237
▁keen	-10238
▁trip	-10239
▁1997,	-10240
▁ferre	-10241
▁illus	-10242
▁liked	-10243
▁perce	-10244
▁absurd	-10245
▁london	-10246
▁milieu	-10247
▁mobile	-10248
▁strike	-10249
▁veille	-10250
▁clearer	-10251
▁optimis	-10252
▁pursued	-10253
▁revenue	-10254
▁sending	-10255
▁tunisie	-10256
▁vitesse	-10257
▁washing	-10258
▁whereas	-10259
entissage	-10260
▁déployés	-10261
▁emerging	-10262
▁montants	-10263
▁obtained	-10264
▁soulever	-10265
▁stimuler	-10266
▁welcomes	-10267
regulation	-10268
▁demandant	-10269
▁gratitude	-10270
▁hautement	-10271
▁manifeste	-10272
▁necessity	-10273
▁préoccupe	-10274
▁collaborer	-10275
▁confidenti	-10276
▁healthcare	-10277
▁underlying	-10278
▁yugoslavia	-10279
▁opportunité	-10280
▁orientation	-10281
▁economically	-10282
▁explications	-10283
▁jurisdiction	-10284
▁preparations	-10285
▁satisfaisante	-10286
40	-10287
fa	-10288
tte	-10289
▁5.	-10290
▁nô	-10291
ypri	-10292
érir	-10293
▁buy	-10294
▁déç	-10295
▁emu	-10296
inten	-10297
uries	-10298
versi	-10299
étend	-10300
▁acce	-10301
▁cond	-10302
▁diam	-10303
▁lire	-10304
▁maur	-10305
▁reve	-10306
▁soft	-10307
ulaire	-10308
▁accur	-10309
▁artif	-10310
▁fewer	-10311
▁maîtr	-10312
▁repos	-10313
▁walls	-10314
arrêter	-10315
housias	-10316
itarian	-10317
▁agrees	-10318
▁disons	-10319
▁doutes	-10320
▁déplac	-10321
▁freely	-10322
▁geneva	-10323
▁jouent	-10324
▁laissé	-10325
▁néglig	-10326
▁octroy	-10327
▁soviet	-10328
▁tenons	-10329
entement	-10330
ractions	-10331
sibility	-10332
▁aboutir	-10333
▁censure	-10334
▁décisif	-10335
▁embargo	-10336
▁fallait	-10337
▁modifié	-10338
▁prendra	-10339
▁retrouv	-10340
▁aircraft	-10341
▁friendly	-10342
▁interpre	-10343
▁sérieuse	-10344
▁vendredi	-10345
▁numérique	-10346
▁regulated	-10347
▁catégories	-10348
▁citoyenneté	-10349
▁contraintes	-10350
▁palestinien	-10351
▁restrictive	-10352
▁transmettre	-10353
▁willingness	-10354
▁biodiversité	-10355
▁territoriale	-10356
▁particulières	-10357
27	-10358
5.	-10359
ws	-10360
ôts	-10361
exig	-10362
▁cau	-10363
▁mug	-10364
▁édu	-10365
asion	-10366
èdent	-10367
ètres	-10368
▁bate	-10369
▁eyes	-10370
▁meur	-10371
▁remb	-10372
▁york	-10373
itical	-10374
▁begun	-10375
▁doter	-10376
▁irrég	-10377
▁liban	-10378
▁notes	-10379
▁surpl	-10380
▁title	-10381
orateur	-10382
▁brazil	-10383
▁fourni	-10384
▁modest	-10385
▁offert	-10386
▁qualit	-10387
▁sauver	-10388
▁sloven	-10389
aviation	-10390
▁applaud	-10391
▁exercis	-10392
▁formule	-10393
▁paralle	-10394
▁rigueur	-10395
▁authoris	-10396
▁birmanie	-10397
▁concerné	-10398
▁emission	-10399
▁simplify	-10400
▁students	-10401
▁accepting	-10402
▁africains	-10403
▁concentre	-10404
▁liberties	-10405
▁quotidien	-10406
▁bilatéraux	-10407
▁convaincus	-10408
▁nomination	-10409
▁compétentes	-10410
▁législatifs	-10411
▁restriction	-10412
▁civilisation	-10413
▁undertakings	-10414
infrastructure	-10415
▁certification	-10416
urg	-10417
alco	-10418
alon	-10419
fort	-10420
gner	-10421
nier	-10422
oman	-10423
tige	-10424
▁sta	-10425
▁jean	-10426
▁mart	-10427
▁mène	-10428
▁rely	-10429
▁sell	-10430
▁unit	-10431
▁2002.	-10432
▁crops	-10433
▁inond	-10434
▁loans	-10435
▁octro	-10436
▁tenté	-10437
ensions	-10438
▁delays	-10439
▁flotte	-10440
▁funded	-10441
▁impati	-10442
▁looked	-10443
▁animale	-10444
▁broader	-10445
▁causing	-10446
▁fassent	-10447
▁modèles	-10448
▁approfon	-10449
▁justifie	-10450
▁restrict	-10451
▁expansion	-10452
▁receiving	-10453
▁communiste	-10454
▁officielle	-10455
▁assessments	-10456
▁exclusively	-10457
▁declarations	-10458
▁exploitations	-10459
▁diversification	-10460
do	-10461
ama	-10462
ube	-10463
rist	-10464
annex	-10465
ented	-10466
érité	-10467
▁1990	-10468
▁cast	-10469
▁grip	-10470
▁infe	-10471
▁puts	-10472
▁spor	-10473
▁unre	-10474
sities	-10475
▁1995,	-10476
▁kinds	-10477
▁prouv	-10478
▁seuil	-10479
▁ambass	-10480
▁belief	-10481
▁engagé	-10482
▁enlarg	-10483
▁uphold	-10484
▁vienne	-10485
▁fiscaux	-10486
▁inscrit	-10487
▁insisté	-10488
▁jointly	-10489
▁nigeria	-10490
▁opposés	-10491
▁remplac	-10492
▁reserve	-10493
▁showing	-10494
▁troupes	-10495
▁durables	-10496
▁informés	-10497
▁liberals	-10498
▁pleasure	-10499
▁requiert	-10500
▁respecté	-10501
▁tragédie	-10502
▁executive	-10503
▁invitation	-10504
▁reductions	-10505
▁protectionn	-10506
▁approximately	-10507
."	-10508
11	-10509
yed	-10510
atom	-10511
omin	-10512
onné	-10513
▁196	-10514
▁mur	-10515
elled	-10516
isson	-10517
oring	-10518
▁clôt	-10519
▁codi	-10520
ériens	-10521
▁hoped	-10522
▁laiti	-10523
▁notif	-10524
▁phare	-10525
▁affich	-10526
▁august	-10527
▁autumn	-10528
▁exposé	-10529
▁invent	-10530
▁marked	-10531
▁ouvrir	-10532
▁refusé	-10533
▁stance	-10534
▁époque	-10535
▁étions	-10536
oublions	-10537
▁espagne	-10538
▁routier	-10539
▁suspect	-10540
▁unanime	-10541
chrétiens	-10542
▁confirmé	-10543
▁espagnol	-10544
▁judgment	-10545
▁slovénie	-10546
▁éliminer	-10547
▁abstained	-10548
▁chrétiens	-10549
▁condemned	-10550
▁défavoris	-10551
▁proposons	-10552
▁étudiants	-10553
▁processing	-10554
▁rapprocher	-10555
▁terrorists	-10556
▁washington	-10557
▁électorale	-10558
▁climatiques	-10559
▁controversi	-10560
▁indications	-10561
▁procurement	-10562
▁transformer	-10563
▁explanations	-10564
▁heureusement	-10565
▁prioritaires	-10566
▁structurelle	-10567
/00	-10568
oui	-10569
ser	-10570
abou	-10571
anen	-10572
etus	-10573
aring	-10574
asmus	-10575
enreg	-10576
level	-10577
▁gagn	-10578
▁kong	-10579
▁mere	-10580
▁neuf	-10581
acking	-10582
arians	-10583
auteur	-10584
intégr	-10585
▁exécu	-10586
▁guant	-10587
▁match	-10588
▁mount	-10589
▁posée	-10590
▁règne	-10591
country	-10592
espread	-10593
▁chypri	-10594
▁danois	-10595
▁depart	-10596
▁discre	-10597
▁hazard	-10598
▁mugabe	-10599
▁revend	-10600
▁soudan	-10601
▁soumet	-10602
▁sudden	-10603
▁vieill	-10604
▁worthy	-10605
utrition	-10606
▁albania	-10607
▁croyons	-10608
▁instaur	-10609
▁joining	-10610
▁restore	-10611
▁réussir	-10612
▁utilise	-10613
▁valable	-10614
▁vehicle	-10615
housiasme	-10616
instaurer	-10617
▁apportée	-10618
▁devaient	-10619
▁imposées	-10620
▁lituanie	-10621
▁risquent	-10622
▁touchées	-10623
ajustement	-10624
▁prevented	-10625
▁residence	-10626
▁coordinate	-10627
▁horizontal	-10628
▁widespread	-10629
▁constructif	-10630
▁globalement	-10631
▁outstanding	-10632
▁surrounding	-10633
▁encourageant	-10634
▁organization	-10635
▁organizations	-10636
▁supranational	-10637
▁complémentaires	-10638
aks	-10639
feu	-10640
▁0,	-10641
▁48	-10642
acio	-10643
agés	-10644
opol	-10645
ossé	-10646
ypte	-10647
élas	-10648
▁agg	-10649
▁cyn	-10650
▁dup	-10651
▁fro	-10652
▁voc	-10653
erson	-10654
illon	-10655
owski	-10656
▁bott	-10657
▁mépr	-10658
alcool	-10659
ariats	-10660
crates	-10661
▁1997.	-10662
▁enshr	-10663
▁fallu	-10664
▁rares	-10665
▁ships	-10666
attends	-10667
honneur	-10668
ologies	-10669
▁corpor	-10670
▁couvre	-10671
▁ecofin	-10672
▁lourde	-10673
▁récent	-10674
identité	-10675
▁accepte	-10676
▁adéquat	-10677
▁evident	-10678
▁finnish	-10679
▁hommage	-10680
▁privées	-10681
▁proches	-10682
▁rédiger	-10683
▁salaire	-10684
▁suggère	-10685
▁tribute	-10686
▁advocate	-10687
▁artifici	-10688
▁généraux	-10689
▁hypocris	-10690
▁négatifs	-10691
▁postpone	-10692
▁relèvent	-10693
▁soutenue	-10694
▁spéciale	-10695
▁ultrapér	-10696
lifération	-10697
▁americans	-10698
▁gradually	-10699
▁liability	-10700
▁portugais	-10701
▁reinforce	-10702
▁événement	-10703
▁compétente	-10704
▁controlled	-10705
▁inégalités	-10706
▁safeguarding	-10707
yr	-10708
▁»	-10709
ala	-10710
uem	-10711
▁.-	-10712
▁ms	-10713
▁rê	-10714
arde	-10715
hard	-10716
roît	-10717
▁ola	-10718
▁épr	-10719
alise	-10720
opoul	-10721
▁pier	-10722
husias	-10723
▁1996,	-10724
▁cease	-10725
▁déliv	-10726
▁hélas	-10727
▁trend	-10728
▁wages	-10729
exercer	-10730
tements	-10731
▁attent	-10732
▁changé	-10733
▁covers	-10734
▁envoyé	-10735
▁forgot	-10736
▁interf	-10737
▁joined	-10738
▁provin	-10739
▁ration	-10740
▁éclair	-10741
▁devenue	-10742
▁décentr	-10743
▁espèces	-10744
▁feuille	-10745
▁islamic	-10746
▁longues	-10747
▁améliore	-10748
▁négative	-10749
▁renforce	-10750
▁renoncer	-10751
enregistre	-10752
▁italienne	-10753
▁ouverture	-10754
▁respectés	-10755
▁assurances	-10756
▁permanente	-10757
▁précaution	-10758
▁résistance	-10759
▁similaires	-10760
autorisation	-10761
▁accompanied	-10762
▁apparemment	-10763
▁experiencing	-10764
9.	-10765
hom	-10766
ori	-10767
▁6.	-10768
/97)	-10769
lent	-10770
▁nar	-10771
stuff	-10772
ueuse	-10773
▁fier	-10774
▁scep	-10775
cution	-10776
istrib	-10777
observ	-10778
offrir	-10779
▁artis	-10780
▁birth	-10781
▁chain	-10782
▁diagn	-10783
▁déloc	-10784
▁fears	-10785
install	-10786
regular	-10787
▁losses	-10788
▁prejud	-10789
▁redund	-10790
▁terres	-10791
▁concret	-10792
▁ethical	-10793
▁honnête	-10794
▁intoler	-10795
▁minimal	-10796
▁obtenus	-10797
▁prouver	-10798
▁reprend	-10799
▁tension	-10800
▁benefici	-10801
▁employés	-10802
▁intercon	-10803
▁parallel	-10804
▁plaintes	-10805
▁struggle	-10806
▁supplies	-10807
▁wherever	-10808
▁exchanges	-10809
▁hémicycle	-10810
▁integrate	-10811
▁légitimes	-10812
▁signifier	-10813
▁similarly	-10814
▁supporter	-10815
▁beneficial	-10816
▁highlights	-10817
▁productive	-10818
▁précédents	-10819
▁respecting	-10820
▁répression	-10821
▁américaines	-10822
▁appointment	-10823
▁maintenance	-10824
apprentissage	-10825
▁expressément	-10826
interprétation	-10827
▁conservateurs	-10828
▁extraordinary	-10829
▁félicitations	-10830
▁intellectuelle	-10831
▁transatlantique	-10832
ems	-10833
look	-10834
émie	-10835
▁arc	-10836
▁diz	-10837
/2002	-10838
image	-10839
itées	-10840
▁berl	-10841
▁cuts	-10842
▁dele	-10843
▁eldr	-10844
▁ryth	-10845
▁sauv	-10846
attend	-10847
enfant	-10848
▁catch	-10849
▁fores	-10850
▁husse	-10851
▁kilom	-10852
▁pilot	-10853
▁écoul	-10854
istered	-10855
▁cesser	-10856
liminary	-10857
▁choices	-10858
▁command	-10859
▁entamer	-10860
▁expense	-10861
▁impetus	-10862
▁learned	-10863
▁échelle	-10864
actualité	-10865
ouvements	-10866
▁matériel	-10867
▁renforcé	-10868
▁desirable	-10869
▁incidents	-10870
▁listening	-10871
▁provoquer	-10872
▁rejoindre	-10873
▁tribunaux	-10874
unification	-10875
▁acceptance	-10876
▁occupation	-10877
▁percentage	-10878
▁regardless	-10879
▁demographic	-10880
▁législature	-10881
▁preliminary	-10882
▁géographique	-10883
▁controversial	-10884
▁investisseurs	-10885
▁participating	-10886
▁congratulating	-10887
▁éventuellement	-10888
bé	-10889
hy	-10890
lés	-10891
méd	-10892
oué	-10893
eken	-10894
eline	-10895
erons	-10896
harov	-10897
tième	-10898
▁depl	-10899
▁intr	-10900
▁nuit	-10901
▁ster	-10902
▁vent	-10903
annexe	-10904
▁bless	-10905
▁légif	-10906
▁trace	-10907
alisées	-10908
ataires	-10909
▁accent	-10910
▁deploy	-10911
▁défini	-10912
▁female	-10913
▁indiff	-10914
▁laeken	-10915
▁marche	-10916
▁munici	-10917
▁résult	-10918
▁suspic	-10919
▁tariff	-10920
▁vivons	-10921
apprécie	-10922
intérêts	-10923
élection	-10924
▁auteurs	-10925
▁aériens	-10926
▁fifteen	-10927
▁maintes	-10928
▁palacio	-10929
▁disputes	-10930
▁milliard	-10931
▁prestige	-10932
▁reflects	-10933
▁sakharov	-10934
▁sections	-10935
▁standing	-10936
▁uniforme	-10937
▁compléter	-10938
▁contenues	-10939
▁enthusias	-10940
▁interromp	-10941
▁irregular	-10942
▁librement	-10943
▁mobiliser	-10944
▁négatives	-10945
▁redistrib	-10946
▁reçoivent	-10947
▁rédaction	-10948
▁slovaquie	-10949
▁souffrent	-10950
▁universel	-10951
▁confrontée	-10952
▁disponible	-10953
▁monétaires	-10954
▁divergences	-10955
▁efficiently	-10956
▁suffisantes	-10957
▁territories	-10958
▁prostitution	-10959
▁génétiquement	-10960
spe	-10961
voi	-10962
▁0.	-10963
▁38	-10964
▁45	-10965
alem	-10966
fond	-10967
ocar	-10968
tini	-10969
whel	-10970
▁80%	-10971
▁ben	-10972
▁nap	-10973
▁sis	-10974
roits	-10975
▁dras	-10976
▁grat	-10977
▁olaf	-10978
▁regr	-10979
▁scre	-10980
▁stic	-10981
▁adult	-10982
▁award	-10983
▁bench	-10984
▁dream	-10985
▁musul	-10986
▁older	-10987
▁sales	-10988
ocratic	-10989
▁danube	-10990
▁expand	-10991
▁larger	-10992
▁losing	-10993
▁posées	-10994
▁search	-10995
▁troops	-10996
▁voient	-10997
imposent	-10998
▁compete	-10999
▁dommage	-11000
▁hussein	-11001
▁recital	-11002
▁signalé	-11003
▁spectac	-11004
ématiques	-11005
▁imported	-11006
▁imposing	-11007
▁confident	-11008
▁directeur	-11009
▁judicieux	-11010
▁sérieuses	-11011
▁unanimity	-11012
▁comparison	-11013
▁coordonner	-11014
▁fourniture	-11015
▁indicators	-11016
▁systematic	-11017
▁approbation	-11018
▁considèrent	-11019
▁soutiennent	-11020
▁travaillons	-11021
▁presentation	-11022
▁privatisation	-11023
▁réconciliation	-11024
wa	-11025
ald	-11026
bio	-11027
tan	-11028
yez	-11029
cade	-11030
rule	-11031
stan	-11032
ètes	-11033
▁11.	-11034
▁dil	-11035
▁xen	-11036
arité	-11037
chons	-11038
▁(200	-11039
▁gard	-11040
▁liti	-11041
▁seas	-11042
ertion	-11043
impose	-11044
timent	-11045
uaires	-11046
usalem	-11047
▁brési	-11048
▁déloy	-11049
▁embry	-11050
▁fails	-11051
▁serai	-11052
▁équiv	-11053
abandon	-11054
▁classe	-11055
▁devenu	-11056
▁détour	-11057
▁détéri	-11058
▁numéro	-11059
▁occupe	-11060
▁ruling	-11061
▁sphere	-11062
▁électr	-11063
insister	-11064
▁assisté	-11065
▁consent	-11066
▁débattu	-11067
▁engaged	-11068
▁majeurs	-11069
▁sharing	-11070
▁usually	-11071
ignements	-11072
▁biofuels	-11073
▁combusti	-11074
▁craintes	-11075
▁frattini	-11076
▁overwhel	-11077
▁platform	-11078
▁précises	-11079
▁reported	-11080
▁rigorous	-11081
▁soumises	-11082
▁strictly	-11083
▁xenophob	-11084
▁exemption	-11085
▁observers	-11086
▁permitted	-11087
▁rencontré	-11088
▁suspended	-11089
▁syndicats	-11090
▁sélection	-11091
▁apparently	-11092
▁collection	-11093
▁employeurs	-11094
▁eventually	-11095
▁mouvements	-11096
▁nourriture	-11097
▁consequence	-11098
▁participent	-11099
▁réjouissons	-11100
▁achievements	-11101
▁opportunités	-11102
▁spécialement	-11103
▁électroniques	-11104
24	-11105
umé	-11106
éth	-11107
▁ah	-11108
▁iv	-11109
apes	-11110
auté	-11111
beit	-11112
osis	-11113
▁10%	-11114
▁hyd	-11115
angle	-11116
appli	-11117
débat	-11118
tious	-11119
▁cach	-11120
▁sauf	-11121
▁tolé	-11122
▁vide	-11123
aching	-11124
afghan	-11125
équipe	-11126
▁2020,	-11127
▁adequ	-11128
▁lehne	-11129
▁lieux	-11130
▁river	-11131
▁sucre	-11132
▁syrie	-11133
insiste	-11134
ériment	-11135
▁abroad	-11136
▁christ	-11137
▁enrich	-11138
▁ferons	-11139
▁oblige	-11140
▁opposé	-11141
▁promis	-11142
▁severe	-11143
▁showed	-11144
▁spécul	-11145
▁victim	-11146
▁éloign	-11147
armement	-11148
ressions	-11149
▁airport	-11150
▁cutting	-11151
▁decentr	-11152
▁fictifs	-11153
▁housing	-11154
▁instant	-11155
▁manquer	-11156
▁organic	-11157
▁préparé	-11158
▁resumed	-11159
nellement	-11160
▁admettre	-11161
▁crédible	-11162
▁enquêtes	-11163
▁interdit	-11164
▁slightly	-11165
▁bâtiments	-11166
▁criminals	-11167
▁fermeture	-11168
▁penalties	-11169
▁rejection	-11170
▁sincerely	-11171
▁stringent	-11172
▁deviennent	-11173
▁federation	-11174
▁harmonised	-11175
▁potentiels	-11176
▁subvention	-11177
▁éventuelle	-11178
▁genetically	-11179
▁individuels	-11180
▁innovations	-11181
▁universités	-11182
▁contamination	-11183
▁inappropriate	-11184
26	-11185
ax	-11186
fl	-11187
vé	-11188
olé	-11189
▁ko	-11190
▁ts	-11191
down	-11192
iring	-11193
▁defe	-11194
▁jeop	-11195
▁lait	-11196
▁meda	-11197
▁sale	-11198
attrib	-11199
nalité	-11200
▁1998.	-11201
▁alger	-11202
▁dériv	-11203
▁judge	-11204
▁norme	-11205
▁porté	-11206
▁redev	-11207
▁arbitr	-11208
▁bovine	-11209
▁démant	-11210
▁essayé	-11211
▁locale	-11212
▁shares	-11213
▁combler	-11214
▁conclus	-11215
▁declare	-11216
▁divided	-11217
▁homosex	-11218
▁inquiry	-11219
▁restera	-11220
▁sachant	-11221
▁atlantic	-11222
▁collecte	-11223
▁exprimés	-11224
▁railways	-11225
méditerran	-11226
occupation	-11227
▁fiscalité	-11228
▁forgotten	-11229
▁lancement	-11230
▁utilisent	-11231
▁virtually	-11232
afghanistan	-11233
importation	-11234
▁impliquant	-11235
▁anniversary	-11236
▁paragraphes	-11237
▁personnelle	-11238
▁établissant	-11239
mediterranean	-11240
▁dictatorship	-11241
▁disappointed	-11242
how	-11243
nam	-11244
ola	-11245
ral	-11246
▁43	-11247
▁da	-11248
▁od	-11249
aled	-11250
ancy	-11251
lais	-11252
orre	-11253
quac	-11254
▁fea	-11255
▁basé	-11256
▁erad	-11257
▁faim	-11258
▁hour	-11259
▁soin	-11260
▁vues	-11261
▁dates	-11262
▁fires	-11263
▁flows	-11264
▁inhum	-11265
▁révél	-11266
▁sadly	-11267
▁signs	-11268
▁talib	-11269
▁tough	-11270
▁usual	-11271
avancer	-11272
▁cigare	-11273
▁indemn	-11274
▁inside	-11275
▁murder	-11276
▁rising	-11277
▁rythme	-11278
ancienne	-11279
sibilité	-11280
▁arrière	-11281
▁chemins	-11282
▁détenus	-11283
▁fournit	-11284
▁mineurs	-11285
▁notably	-11286
▁piliers	-11287
▁testing	-11288
▁warning	-11289
inflation	-11290
influence	-11291
▁directes	-11292
▁enceinte	-11293
▁physique	-11294
▁souvenir	-11295
▁textiles	-11296
▁campaigns	-11297
▁détaillée	-11298
▁envisaged	-11299
▁functions	-11300
▁integrity	-11301
▁fabricants	-11302
▁rechercher	-11303
▁reflection	-11304
▁delegations	-11305
▁anniversaire	-11306
▁humanitaires	-11307
▁presidential	-11308
▁significatif	-11309
▁démographique	-11310
▁juridiquement	-11311
▁palestinienne	-11312
eec	-11313
oda	-11314
rui	-11315
▁cf	-11316
fast	-11317
olib	-11318
umul	-11319
érin	-11320
▁150	-11321
▁die	-11322
▁hoc	-11323
▁mcc	-11324
eland	-11325
▁cash	-11326
▁heur	-11327
▁sida	-11328
▁soil	-11329
engage	-11330
erving	-11331
soever	-11332
▁borne	-11333
▁elder	-11334
▁misle	-11335
▁track	-11336
▁échec	-11337
▁émerg	-11338
entends	-11339
▁albeit	-11340
▁paraly	-11341
▁résolu	-11342
building	-11343
ographie	-11344
▁directs	-11345
▁inviter	-11346
▁limitée	-11347
▁moments	-11348
▁posselt	-11349
▁prevail	-11350
▁covering	-11351
▁engendre	-11352
▁indicate	-11353
▁observed	-11354
▁protégés	-11355
▁resource	-11356
▁salariés	-11357
▁suggests	-11358
▁accomplir	-11359
▁chemicals	-11360
▁dépendent	-11361
▁désaccord	-11362
▁effectuer	-11363
▁entrepris	-11364
▁ethniques	-11365
▁multiples	-11366
méditerrané	-11367
opportunité	-11368
▁constatons	-11369
▁inspection	-11370
▁resistance	-11371
▁simplified	-11372
▁soviétique	-11373
▁threatened	-11374
▁transporte	-11375
▁clandestine	-11376
▁supervisory	-11377
▁rapprochement	-11378
▁classification	-11379
▁transeuropéens	-11380
6.	-11381
bes	-11382
ded	-11383
idé	-11384
▁95	-11385
▁pé	-11386
anch	-11387
illi	-11388
iwan	-11389
olaf	-11390
élor	-11391
énég	-11392
▁11,	-11393
▁195	-11394
▁fid	-11395
▁wed	-11396
▁xén	-11397
ouest	-11398
water	-11399
▁décr	-11400
▁faux	-11401
▁frid	-11402
▁gmos	-11403
▁guer	-11404
▁latv	-11405
▁race	-11406
▁scen	-11407
▁turc	-11408
avérer	-11409
▁exclu	-11410
▁fixed	-11411
▁fruct	-11412
▁illic	-11413
▁jeune	-11414
▁libya	-11415
▁malta	-11416
▁prize	-11417
▁shame	-11418
▁sight	-11419
▁sixth	-11420
▁story	-11421
▁théor	-11422
istency	-11423
▁abuses	-11424
▁biélor	-11425
▁drafts	-11426
▁natura	-11427
▁survie	-11428
▁taiwan	-11429
▁voters	-11430
▁étapes	-11431
attaquer	-11432
▁barnier	-11433
▁dégager	-11434
▁elderly	-11435
▁illégal	-11436
▁interim	-11437
▁lacking	-11438
▁rejette	-11439
▁réjouir	-11440
▁disposés	-11441
▁figurent	-11442
▁humanity	-11443
▁released	-11444
▁septième	-11445
▁xénophob	-11446
▁adéquates	-11447
▁constante	-11448
▁effectués	-11449
▁fondement	-11450
▁initiated	-11451
▁investors	-11452
▁tolérance	-11453
▁wholehear	-11454
▁dimensions	-11455
▁equivalent	-11456
▁produisent	-11457
▁whatsoever	-11458
▁constituera	-11459
▁convictions	-11460
▁distributed	-11461
▁tchétchénie	-11462
▁bureaucratic	-11463
▁préservation	-11464
▁accountability	-11465
▁complémentaire	-11466
▁investigations	-11467
1.	-11468
adi	-11469
exc	-11470
iop	-11471
▁9,	-11472
eneg	-11473
extr	-11474
isen	-11475
joute	-11476
▁arrê	-11477
▁céré	-11478
▁earm	-11479
▁stor	-11480
▁wage	-11481
▁blind	-11482
▁dirai	-11483
▁erron	-11484
▁fuels	-11485
▁johan	-11486
▁masse	-11487
▁mette	-11488
▁noise	-11489
▁orale	-11490
▁outer	-11491
▁plate	-11492
aughter	-11493
inscrit	-11494
ortions	-11495
écurité	-11496
▁ageing	-11497
▁allant	-11498
▁classi	-11499
▁créant	-11500
▁démont	-11501
▁fusion	-11502
▁serais	-11503
▁succes	-11504
▁talked	-11505
▁absurde	-11506
▁adhérer	-11507
▁déplore	-11508
▁jeopard	-11509
▁patient	-11510
▁poisson	-11511
▁refugee	-11512
▁réduite	-11513
▁écouter	-11514
▁allusion	-11515
▁augmente	-11516
▁certific	-11517
▁employed	-11518
▁hongrois	-11519
▁illustre	-11520
▁reminded	-11521
▁replaced	-11522
▁tiennent	-11523
▁traduire	-11524
▁accélérer	-11525
▁bénéficie	-11526
▁coherence	-11527
▁hopefully	-11528
▁incendies	-11529
▁dérogation	-11530
▁inondations	-11531
▁financements	-11532
▁partenariats	-11533
▁partnerships	-11534
▁personnelles	-11535
▁representing	-11536
▁subsequently	-11537
▁démantèlement	-11538
▁prochainement	-11539
▁substantially	-11540
ho	-11541
cht	-11542
ecd	-11543
iev	-11544
agon	-11545
ibli	-11546
lied	-11547
ries	-11548
▁gon	-11549
▁hab	-11550
▁lom	-11551
▁pul	-11552
▁sri	-11553
arked	-11554
euses	-11555
known	-11556
▁ball	-11557
▁bang	-11558
▁blue	-11559
▁côte	-11560
▁leon	-11561
▁uses	-11562
▁viet	-11563
▁vols	-11564
▁écar	-11565
annual	-11566
debate	-11567
stuffs	-11568
▁chaos	-11569
▁chute	-11570
▁fossi	-11571
▁subir	-11572
exprime	-11573
▁appels	-11574
▁biocar	-11575
▁disreg	-11576
▁exempl	-11577
▁inevit	-11578
▁invité	-11579
▁monday	-11580
▁rating	-11581
▁timely	-11582
▁underp	-11583
▁ceiling	-11584
▁cotonou	-11585
▁disposé	-11586
▁lebanon	-11587
▁londres	-11588
▁regimes	-11589
▁soulève	-11590
▁traduit	-11591
▁étendre	-11592
condition	-11593
titutions	-11594
▁aérienne	-11595
▁bénéfice	-11596
▁médecins	-11597
▁prudence	-11598
▁ratifier	-11599
▁requises	-11600
▁établies	-11601
▁harmonise	-11602
▁hongroise	-11603
▁tolerance	-11604
▁violences	-11605
instruments	-11606
▁déséquilib	-11607
▁originally	-11608
▁preventive	-11609
▁recognises	-11610
▁régulation	-11611
▁tentatives	-11612
▁unilateral	-11613
▁délégations	-11614
▁exceptional	-11615
▁limitations	-11616
▁fournisseurs	-11617
▁overwhelming	-11618
▁partiellement	-11619
▁transnational	-11620
4/	-11621
kh	-11622
dep	-11623
ero	-11624
yde	-11625
apse	-11626
cape	-11627
iven	-11628
voie	-11629
▁anx	-11630
▁gel	-11631
▁tub	-11632
▁uen	-11633
ercul	-11634
ernob	-11635
oboda	-11636
▁osce	-11637
▁pret	-11638
▁wise	-11639
istent	-11640
oeuvre	-11641
▁blame	-11642
▁ferai	-11643
▁helps	-11644
▁homes	-11645
▁inscr	-11646
▁lundi	-11647
atrices	-11648
▁allait	-11649
▁confir	-11650
▁except	-11651
▁fortes	-11652
▁incons	-11653
▁lourds	-11654
▁papier	-11655
▁passée	-11656
▁provis	-11657
▁sevent	-11658
oulement	-11659
ularités	-11660
▁archite	-11661
▁donnera	-11662
▁erasmus	-11663
▁failing	-11664
▁harbour	-11665
▁logical	-11666
▁ratifié	-11667
▁signing	-11668
▁station	-11669
▁visited	-11670
entielles	-11671
▁commises	-11672
▁dizaines	-11673
▁entraîné	-11674
▁evaluate	-11675
▁promoted	-11676
▁reserves	-11677
▁appointed	-11678
▁expertise	-11679
▁initially	-11680
▁mandatory	-11681
▁précision	-11682
▁présentes	-11683
▁wallström	-11684
▁ambitieuse	-11685
▁portugaise	-11686
▁préférable	-11687
▁coexistence	-11688
▁communiquer	-11689
▁compétitive	-11690
▁concrétiser	-11691
▁infractions	-11692
▁contributing	-11693
▁infringement	-11694
▁characteristics	-11695
(9	-11696
2/	-11697
ja	-11698
akh	-11699
uns	-11700
onte	-11701
tate	-11702
▁dap	-11703
▁nic	-11704
achat	-11705
appui	-11706
isons	-11707
izing	-11708
timid	-11709
▁capt	-11710
▁liik	-11711
▁vend	-11712
disant	-11713
effect	-11714
friend	-11715
iement	-11716
itimes	-11717
usconi	-11718
▁abatt	-11719
▁allég	-11720
▁distr	-11721
▁ideal	-11722
▁looks	-11723
▁names	-11724
▁éduca	-11725
ernobyl	-11726
keeping	-11727
▁arrivé	-11728
▁engine	-11729
▁englob	-11730
▁pensez	-11731
▁persec	-11732
▁stages	-11733
▁écrite	-11734
▁égards	-11735
attendre	-11736
▁arrêter	-11737
▁chargée	-11738
▁drivers	-11739
▁inciter	-11740
▁ineffic	-11741
▁libéral	-11742
▁passant	-11743
▁rapides	-11744
▁saurait	-11745
▁stipule	-11746
▁swoboda	-11747
▁échéant	-11748
▁établis	-11749
▁atteints	-11750
▁bancaire	-11751
▁defining	-11752
▁découver	-11753
▁enlarged	-11754
▁expliqué	-11755
▁liikanen	-11756
▁managing	-11757
▁pursuing	-11758
▁réformer	-11759
▁thousand	-11760
quaculture	-11761
▁estimated	-11762
▁modifiant	-11763
▁partisans	-11764
▁undertake	-11765
habilitation	-11766
▁corrections	-11767
▁prioritaire	-11768
▁condamnation	-11769
▁obligatoires	-11770
▁corresponding	-11771
5)	-11772
cp	-11773
erb	-11774
oni	-11775
▁34	-11776
cker	-11777
effe	-11778
erge	-11779
▁hés	-11780
▁irr	-11781
▁naz	-11782
▁pip	-11783
▁smo	-11784
force	-11785
écart	-11786
élarg	-11787
▁brid	-11788
▁corb	-11789
▁inse	-11790
▁lobb	-11791
▁lomé	-11792
▁radi	-11793
affect	-11794
fiques	-11795
tienne	-11796
▁baiss	-11797
▁imbal	-11798
▁indig	-11799
▁irres	-11800
▁items	-11801
▁moved	-11802
▁noter	-11803
▁shift	-11804
develop	-11805
▁assets	-11806
▁connex	-11807
▁décrit	-11808
▁entrée	-11809
▁hypoth	-11810
▁raises	-11811
▁réunir	-11812
▁saving	-11813
▁solved	-11814
▁tarifs	-11815
▁univer	-11816
iendront	-11817
▁comités	-11818
▁envoyer	-11819
▁essence	-11820
▁euratom	-11821
▁procédé	-11822
▁scienti	-11823
envisager	-11824
▁cohérent	-11825
▁convince	-11826
▁desquels	-11827
▁déficits	-11828
▁hospital	-11829
▁immunity	-11830
▁interfer	-11831
▁johannes	-11832
▁mistakes	-11833
▁modifiés	-11834
▁registre	-11835
▁rubrique	-11836
▁réaliste	-11837
▁scotland	-11838
identifier	-11839
▁approuvée	-11840
▁compagnie	-11841
▁contenter	-11842
▁criterion	-11843
▁croissant	-11844
▁organiser	-11845
▁outermost	-11846
▁préoccupé	-11847
▁restaurer	-11848
économiques	-11849
▁berlusconi	-11850
▁coordonnée	-11851
▁honorables	-11852
▁mainstream	-11853
▁présentera	-11854
▁respectant	-11855
▁incorporate	-11856
▁inhabitants	-11857
▁professions	-11858
▁précédentes	-11859
▁rémunération	-11860
▁universities	-11861
identification	-11862
▁technologiques	-11863
▁démocratisation	-11864
alg	-11865
auv	-11866
iné	-11867
lah	-11868
▁gh	-11869
vens	-11870
▁cow	-11871
▁foi	-11872
▁œuv	-11873
ensen	-11874
▁fixe	-11875
▁douze	-11876
▁fossé	-11877
▁iraqi	-11878
▁jeter	-11879
▁oomen	-11880
▁plays	-11881
▁saine	-11882
▁équip	-11883
▁absent	-11884
▁engend	-11885
▁models	-11886
▁object	-11887
▁prends	-11888
▁prouve	-11889
▁rendue	-11890
▁répand	-11891
▁écouté	-11892
▁antibio	-11893
▁contest	-11894
▁corbett	-11895
▁enables	-11896
▁examiné	-11897
▁exprime	-11898
▁founded	-11899
▁ignored	-11900
▁insiste	-11901
▁parvenu	-11902
▁résolus	-11903
▁worried	-11904
▁apparten	-11905
▁appelons	-11906
▁attaques	-11907
▁collapse	-11908
▁focusing	-11909
▁montagne	-11910
▁pourrais	-11911
▁totalité	-11912
▁tragique	-11913
▁consulted	-11914
▁démontrer	-11915
▁maritimes	-11916
▁mentionne	-11917
▁movements	-11918
importantes	-11919
▁completion	-11920
▁containing	-11921
▁inevitably	-11922
▁precaution	-11923
▁profitable	-11924
▁satisfaits	-11925
▁withdrawal	-11926
▁comitologie	-11927
▁comprennent	-11928
▁contributes	-11929
▁experiences	-11930
▁pertinentes	-11931
▁statistical	-11932
▁threatening	-11933
▁conviendrait	-11934
▁inadmissible	-11935
▁irrespective	-11936
▁reproductive	-11937
▁representation	-11938
-9	-11939
fra	-11940
kin	-11941
oût	-11942
tén	-11943
▁7.	-11944
▁eh	-11945
lave	-11946
outs	-11947
▁12,	-11948
▁jac	-11949
▁mém	-11950
▁péd	-11951
erate	-11952
onnés	-11953
point	-11954
quait	-11955
▁cerc	-11956
▁débl	-11957
▁mann	-11958
▁page	-11959
▁réag	-11960
▁wars	-11961
ancies	-11962
▁annon	-11963
▁decre	-11964
▁drive	-11965
▁erika	-11966
▁error	-11967
▁fabri	-11968
▁faill	-11969
▁fondé	-11970
▁marks	-11971
▁ouvre	-11972
▁remet	-11973
▁woman	-11974
▁aborde	-11975
▁decade	-11976
▁entamé	-11977
▁ferait	-11978
▁fermer	-11979
accident	-11980
friendly	-11981
▁classes	-11982
▁helpful	-11983
▁incorre	-11984
▁indones	-11985
▁perpetr	-11986
▁prenant	-11987
▁renewed	-11988
▁sévères	-11989
▁tighten	-11990
▁amélioré	-11991
▁corriger	-11992
▁poissons	-11993
▁poursuit	-11994
▁provoqué	-11995
▁reconsid	-11996
▁superfic	-11997
democratic	-11998
▁affronter	-11999
▁constrain	-12000
▁counterfe	-12001
▁hazardous	-12002
▁objection	-12003
▁soulevées	-12004
▁assurément	-12005
▁categories	-12006
▁complexité	-12007
▁conformité	-12008
▁consistant	-12009
▁differenti	-12010
▁sanitaires	-12011
▁séparation	-12012
▁ultérieure	-12013
▁disparition	-12014
▁parviennent	-12015
▁transitoire	-12016
▁consistently	-12017
▁contraignant	-12018
ör	-12019
jac	-12020
ulf	-12021
▁10,	-12022
▁bei	-12023
▁boy	-12024
▁hes	-12025
▁mep	-12026
▁usd	-12027
▁vét	-12028
aides	-12029
anged	-12030
hardt	-12031
▁atom	-12032
ounded	-12033
▁prévo	-12034
▁roads	-12035
▁virus	-12036
autonom	-12037
tection	-12038
élevage	-12039
▁banned	-12040
▁decent	-12041
▁genres	-12042
▁mother	-12043
▁openly	-12044
▁remise	-12045
▁requis	-12046
▁sahara	-12047
▁adapted	-12048
▁backing	-12049
▁caution	-12050
▁closing	-12051
▁collect	-12052
▁devions	-12053
▁display	-12054
▁profite	-12055
▁réduits	-12056
▁saluons	-12057
▁tackled	-12058
▁trouble	-12059
▁égalité	-12060
exception	-12061
intégrité	-12062
▁councils	-12063
▁distinct	-12064
▁immigrés	-12065
▁irrespon	-12066
▁probable	-12067
▁professe	-12068
▁reaffirm	-12069
▁stricter	-12070
▁sympathy	-12071
▁disappear	-12072
▁judiciary	-12073
▁accounting	-12074
▁adequately	-12075
▁approfondi	-12076
▁remarkable	-12077
▁terroriste	-12078
▁examination	-12079
▁religieuses	-12080
▁continuation	-12081
▁observateurs	-12082
▁productivité	-12083
▁biocarburants	-12084
▁characterised	-12085
▁55	-12086
▁flé	-12087
▁hat	-12088
▁âge	-12089
extra	-12090
étudi	-12091
▁berg	-12092
▁game	-12093
▁sark	-12094
▁scol	-12095
▁vary	-12096
▁warn	-12097
▁épar	-12098
antime	-12099
nesday	-12100
▁accél	-12101
▁devez	-12102
▁farms	-12103
▁guide	-12104
▁inher	-12105
▁monit	-12106
▁soldi	-12107
animaux	-12108
arriver	-12109
efforts	-12110
onction	-12111
échelon	-12112
▁encoun	-12113
▁exécut	-12114
▁fixées	-12115
▁friday	-12116
▁gained	-12117
▁maurit	-12118
▁morale	-12119
▁signer	-12120
▁smooth	-12121
▁wished	-12122
éliminer	-12123
▁actives	-12124
▁alleged	-12125
▁contrat	-12126
▁espoirs	-12127
▁gravité	-12128
▁joindre	-12129
▁sincere	-12130
▁stating	-12131
▁stricte	-12132
▁accommod	-12133
▁applause	-12134
▁céréales	-12135
▁deficits	-12136
▁democrat	-12137
▁meantime	-12138
▁profound	-12139
▁tubercul	-12140
intervenir	-12141
▁destroyed	-12142
▁disregard	-12143
▁isolation	-12144
▁mondiales	-12145
▁partagent	-12146
▁responses	-12147
▁utilisant	-12148
▁disparités	-12149
▁impliquées	-12150
▁interconne	-12151
▁intégrante	-12152
▁paragraphs	-12153
▁incidentally	-12154
▁favorablement	-12155
▁contradictions	-12156
▁identification	-12157
▁circonscription	-12158
6/	-12159
8.	-12160
▁0	-12161
adh	-12162
cee	-12163
kel	-12164
new	-12165
ozy	-12166
zég	-12167
▁33	-12168
▁rw	-12169
chet	-12170
oduc	-12171
oirs	-12172
▁eau	-12173
▁gir	-12174
▁kal	-12175
▁tox	-12176
eneur	-12177
fined	-12178
ourir	-12179
▁1992	-12180
▁earn	-12181
▁gasp	-12182
▁scén	-12183
▁suic	-12184
▁sums	-12185
▁tiss	-12186
▁vies	-12187
ission	-12188
udence	-12189
▁angel	-12190
▁armen	-12191
▁books	-12192
▁ended	-12193
▁fluct	-12194
▁maybe	-12195
▁meets	-12196
▁sexes	-12197
▁brutal	-12198
▁brésil	-12199
▁impris	-12200
▁impôts	-12201
▁préval	-12202
▁ratify	-12203
reaching	-12204
▁bananes	-12205
▁closure	-12206
▁donnant	-12207
▁enforce	-12208
▁faisait	-12209
▁fiables	-12210
▁fragile	-12211
▁gradual	-12212
▁refused	-12213
▁sarkozy	-12214
▁surplus	-12215
▁suscité	-12216
▁tunisia	-12217
▁établit	-12218
expliquer	-12219
▁définies	-12220
▁florence	-12221
▁outlined	-12222
▁presents	-12223
▁réalisée	-12224
▁voterons	-12225
▁apportées	-12226
▁component	-12227
▁exploiter	-12228
▁providers	-12229
▁quantités	-12230
▁transfers	-12231
▁wednesday	-12232
▁primordial	-12233
▁historiques	-12234
▁concertation	-12235
▁incompatible	-12236
▁stakeholders	-12237
enregistrement	-12238
):	-12239
13	-12240
eds	-12241
ker	-12242
aura	-12243
chez	-12244
jten	-12245
vity	-12246
▁ogm	-12247
▁squ	-12248
anium	-12249
atson	-12250
lling	-12251
rompe	-12252
▁corn	-12253
▁hind	-12254
▁merg	-12255
▁nuis	-12256
▁thir	-12257
entend	-12258
oriser	-12259
▁disse	-12260
▁dissu	-12261
▁juger	-12262
▁marqu	-12263
▁nomin	-12264
▁tacis	-12265
▁unpre	-12266
acteurs	-12267
avaient	-12268
control	-12269
ruijten	-12270
▁actors	-12271
▁arises	-12272
▁denoun	-12273
▁placer	-12274
▁quarte	-12275
▁schmid	-12276
▁suisse	-12277
▁underg	-12278
▁unlike	-12279
▁watson	-12280
zégovine	-12281
▁chacune	-12282
▁falling	-12283
▁ignorer	-12284
▁libérer	-12285
▁licence	-12286
▁négocié	-12287
▁servent	-12288
▁tourner	-12289
autonomie	-12290
effective	-12291
▁assassin	-12292
▁broadcas	-12293
▁mercredi	-12294
▁regarder	-12295
rehensible	-12296
▁consacrée	-12297
▁constitué	-12298
▁incontest	-12299
▁recyclage	-12300
▁suspendue	-12301
implication	-12302
▁enterprise	-12303
▁israéliens	-12304
▁misleading	-12305
▁retirement	-12306
▁scientists	-12307
▁compromises	-12308
▁democracies	-12309
▁persecution	-12310
▁quatrièmement	-12311
8/	-12312
bol	-12313
det	-12314
reb	-12315
you	-12316
avie	-12317
ched	-12318
mped	-12319
osce	-12320
osse	-12321
sifi	-12322
text	-12323
▁12.	-12324
▁15,	-12325
▁bow	-12326
▁eib	-12327
▁pnr	-12328
▁unp	-12329
enant	-12330
erted	-12331
inger	-12332
inspe	-12333
ovina	-12334
trons	-12335
wered	-12336
▁142)	-12337
▁arme	-12338
▁born	-12339
▁böge	-12340
▁cath	-12341
▁dure	-12342
ashion	-12343
endous	-12344
entive	-12345
ulated	-12346
▁chôme	-12347
▁conve	-12348
▁intit	-12349
▁posed	-12350
▁rigid	-12351
▁veget	-12352
essalon	-12353
érément	-12354
▁abouti	-12355
▁affair	-12356
▁amener	-12357
▁avance	-12358
▁avancé	-12359
▁denied	-12360
▁hunger	-12361
▁inclut	-12362
▁mexico	-12363
▁préven	-12364
▁sollic	-12365
▁souscr	-12366
▁trente	-12367
▁trompe	-12368
▁vitale	-12369
ristians	-12370
▁acceler	-12371
▁arrived	-12372
▁college	-12373
▁découle	-12374
▁ferrero	-12375
▁interpr	-12376
▁invited	-12377
▁jurispr	-12378
▁liaison	-12379
▁rencont	-12380
▁seventh	-12381
▁sixième	-12382
obtention	-12383
▁adoptant	-12384
▁approuve	-12385
▁autorisé	-12386
▁cellules	-12387
▁creative	-12388
▁dissemin	-12389
▁endroits	-12390
▁ethnique	-12391
▁fourthly	-12392
▁handling	-12393
▁notation	-12394
▁prosecut	-12395
▁remained	-12396
▁romanian	-12397
▁routière	-12398
▁simplifi	-12399
▁souhaits	-12400
▁venezuel	-12401
présidente	-12402
▁allemands	-12403
▁attentats	-12404
▁concludes	-12405
▁connected	-12406
▁consulter	-12407
▁pertinent	-12408
▁subjected	-12409
▁tendances	-12410
herzégovine	-12411
▁christians	-12412
▁conversion	-12413
▁criticised	-12414
▁préférence	-12415
▁prévisions	-12416
▁subsequent	-12417
▁traduction	-12418
▁vocational	-12419
▁consistency	-12420
▁acknowledged	-12421
▁announcement	-12422
▁autrichienne	-12423
▁intervenants	-12424
▁notification	-12425
▁parviendrons	-12426
▁beneficiaries	-12427
investissements	-12428
▁multinationales	-12429
14	-12430
uy	-12431
ipp	-12432
nez	-12433
▁32	-12434
▁ga	-12435
ache	-12436
icon	-12437
itte	-12438
otti	-12439
wald	-12440
▁120	-12441
▁250	-12442
▁dal	-12443
▁2012	-12444
▁fant	-12445
erland	-12446
indemn	-12447
lander	-12448
▁arabe	-12449
▁avéré	-12450
▁enfre	-12451
▁facto	-12452
▁vitor	-12453
inclure	-12454
parlers	-12455
énormes	-12456
▁additi	-12457
▁barbar	-12458
▁chocol	-12459
▁dollar	-12460
▁enfant	-12461
▁narrow	-12462
▁resort	-12463
▁suivie	-12464
intéress	-12465
investir	-12466
onnement	-12467
ortement	-12468
éralisme	-12469
▁affaibl	-12470
▁coastal	-12471
▁emerged	-12472
▁sectori	-12473
▁sembler	-12474
▁warrant	-12475
criptions	-12476
▁annuelle	-12477
▁attached	-12478
▁attaquer	-12479
▁contrast	-12480
▁exigence	-12481
▁facility	-12482
▁identité	-12483
▁parvenue	-12484
▁patience	-12485
▁scrutiny	-12486
▁semestre	-12487
▁stockage	-12488
▁vitorino	-12489
▁évidente	-12490
appliquent	-12491
liferation	-12492
▁consentis	-12493
▁contenant	-12494
▁développé	-12495
▁examinons	-12496
▁proactive	-12497
▁réalisées	-12498
▁biologique	-12499
▁philosophy	-12500
▁présentant	-12501
▁respectées	-12502
▁réflexions	-12503
▁références	-12504
▁university	-12505
▁décisionnel	-12506
▁fortunately	-12507
▁ministerial	-12508
▁multiannual	-12509
▁pourparlers	-12510
▁recommended	-12511
▁diplomatique	-12512
▁conjointement	-12513
▁systematically	-12514
▁internationally	-12515
23	-12516
hl	-12517
zá	-12518
île	-12519
▁ot	-12520
4-00	-12521
erie	-12522
urée	-12523
▁600	-12524
▁kla	-12525
/1999	-12526
adesh	-12527
antly	-12528
being	-12529
elong	-12530
icing	-12531
urant	-12532
▁dear	-12533
▁porn	-12534
▁shut	-12535
▁tape	-12536
▁tomb	-12537
▁émis	-12538
ionale	-12539
ladesh	-12540
licate	-12541
▁aband	-12542
▁bange	-12543
▁baron	-12544
▁cance	-12545
▁escal	-12546
▁liter	-12547
▁ravie	-12548
▁tardi	-12549
▁vraie	-12550
vidence	-12551
waldner	-12552
▁actifs	-12553
▁chanti	-12554
▁disait	-12555
▁dégrad	-12556
▁forese	-12557
▁jouets	-12558
▁maison	-12559
▁mépris	-12560
▁secrét	-12561
ambition	-12562
habitude	-12563
▁alloués	-12564
▁anglais	-12565
▁desired	-12566
▁devoted	-12567
▁ensured	-12568
▁figurer	-12569
▁frankly	-12570
▁passing	-12571
▁pretext	-12572
▁privacy	-12573
▁rappell	-12574
▁rejoins	-12575
▁vétérin	-12576
émissions	-12577
▁2000-200	-12578
▁assessed	-12579
▁chancell	-12580
▁conjoint	-12581
▁devastat	-12582
▁dépasser	-12583
▁explique	-12584
▁promesse	-12585
▁prononcé	-12586
▁relancer	-12587
▁richesse	-12588
▁substitu	-12589
▁victoire	-12590
imposition	-12591
▁bangemann	-12592
▁bénéfique	-12593
▁familiale	-12594
▁inclusive	-12595
▁individus	-12596
▁légiférer	-12597
▁ownership	-12598
▁préjudice	-12599
▁reporting	-12600
▁similaire	-12601
▁thessalon	-12602
▁references	-12603
▁audiovisual	-12604
▁explication	-12605
▁ideological	-12606
▁potentially	-12607
▁prestations	-12608
▁continuerons	-12609
▁confrontation	-12610
▁jurisprudence	-12611
▁normalisation	-12612
▁protectionism	-12613
▁wholeheartedly	-12614
4.	-12615
sl	-12616
bul	-12617
pid	-12618
usi	-12619
élo	-12620
▁42	-12621
auer	-12622
emed	-12623
oper	-12624
uled	-12625
▁13,	-12626
▁ami	-12627
▁kaz	-12628
▁map	-12629
incer	-12630
èques	-12631
▁149)	-12632
▁bulg	-12633
▁deny	-12634
▁died	-12635
▁sand	-12636
▁unif	-12637
▁wake	-12638
entraî	-12639
▁argue	-12640
▁badly	-12641
▁cruel	-12642
▁digne	-12643
▁mille	-12644
▁tromp	-12645
▁twice	-12646
▁veter	-12647
respect	-12648
▁church	-12649
▁courte	-12650
▁leaves	-12651
▁prouvé	-12652
▁sentir	-12653
▁turque	-12654
dication	-12655
▁appeler	-12656
▁attaque	-12657
▁avancés	-12658
▁bateaux	-12659
▁convers	-12660
▁fondées	-12661
▁refusal	-12662
▁reverse	-12663
▁réelles	-12664
▁résulte	-12665
▁soldats	-12666
▁storage	-12667
abolition	-12668
▁amérique	-12669
▁autonomy	-12670
▁chômeurs	-12671
▁décisive	-12672
▁exprimée	-12673
▁inaccept	-12674
▁maximale	-12675
▁modernes	-12676
▁mountain	-12677
▁précieux	-12678
▁socrates	-12679
▁soldiers	-12680
inquiétude	-12681
▁concilier	-12682
▁detention	-12683
▁draftsman	-12684
▁découlant	-12685
▁démission	-12686
▁justifiée	-12687
▁ministéri	-12688
▁naissance	-12689
▁obtaining	-12690
▁reconnais	-12691
▁regularly	-12692
▁sanitaire	-12693
▁dramatique	-12694
▁explicitly	-12695
▁inventions	-12696
▁renational	-12697
▁responding	-12698
▁travelling	-12699
▁équitables	-12700
▁arrangement	-12701
▁consolidate	-12702
▁disparaître	-12703
▁franchement	-12704
▁constituency	-12705
▁disagreement	-12706
▁contraignante	-12707
▁disadvantaged	-12708
▁precautionary	-12709
▁transporteurs	-12710
▁sensibilisation	-12711
gs	-12712
(2)	-12713
acte	-12714
cast	-12715
gure	-12716
inée	-12717
radi	-12718
tera	-12719
ware	-12720
èvre	-12721
▁130	-12722
▁fly	-12723
▁wis	-12724
acted	-12725
ients	-12726
ulous	-12727
▁elig	-12728
▁stal	-12729
/2000)	-12730
/2002)	-12731
ensité	-12732
ipping	-12733
oppose	-12734
▁admis	-12735
▁appui	-12736
▁chira	-12737
▁codes	-12738
▁doors	-12739
▁dérég	-12740
▁incur	-12741
▁lende	-12742
▁leçon	-12743
▁nôtre	-12744
▁placé	-12745
▁remis	-12746
▁throw	-12747
▁viend	-12748
aboutir	-12749
iration	-12750
opoulos	-12751
▁basque	-12752
▁destru	-12753
▁enjeux	-12754
▁fought	-12755
▁interl	-12756
▁latvia	-12757
▁marqué	-12758
▁reding	-12759
▁élevée	-12760
▁éprouv	-12761
ignation	-12762
▁abordés	-12763
▁adaptée	-12764
▁chambre	-12765
▁earthqu	-12766
▁empêche	-12767
▁marquer	-12768
▁offrent	-12769
▁olympic	-12770
▁pénales	-12771
▁requête	-12772
▁surface	-12773
▁suspens	-12774
▁vietnam	-12775
▁voulait	-12776
itzerland	-12777
objectifs	-12778
énagement	-12779
▁advanced	-12780
▁dramatic	-12781
▁durement	-12782
▁entering	-12783
▁faillite	-12784
▁features	-12785
▁forestry	-12786
▁lifelong	-12787
▁majeures	-12788
▁oriental	-12789
▁simultan	-12790
▁traitées	-12791
▁témoigne	-12792
▁villages	-12793
avancement	-12794
▁barrières	-12795
▁certitude	-12796
▁enshrined	-12797
▁existante	-12798
▁incentive	-12799
▁investing	-12800
▁nutrition	-12801
▁parallèle	-12802
lementation	-12803
termination	-12804
▁appropriés	-12805
▁considérés	-12806
▁directions	-12807
▁everywhere	-12808
▁exhaustive	-12809
▁xenophobia	-12810
▁commentaire	-12811
▁comparaison	-12812
▁nécessitent	-12813
▁occidentale	-12814
▁practically	-12815
▁programming	-12816
▁confirmation	-12817
▁sensiblement	-12818
▁automatically	-12819
▁cofinancement	-12820
▁inacceptables	-12821
▁repercussions	-12822
▁définitivement	-12823
hyp	-12824
▁rü	-12825
/96)	-12826
agog	-12827
lete	-12828
▁bid	-12829
▁pav	-12830
▁riv	-12831
iales	-12832
inscr	-12833
terre	-12834
▁book	-12835
▁cere	-12836
▁gold	-12837
▁sele	-12838
▁souv	-12839
▁traç	-12840
▁zero	-12841
▁émet	-12842
rances	-12843
▁allez	-12844
▁décès	-12845
▁fauss	-12846
▁marin	-12847
▁morte	-12848
▁péril	-12849
▁safer	-12850
▁unequ	-12851
▁unres	-12852
▁yield	-12853
mention	-12854
▁apolog	-12855
▁chirac	-12856
▁dûment	-12857
▁faster	-12858
▁génére	-12859
▁minors	-12860
▁praise	-12861
▁proxim	-12862
▁sauveg	-12863
▁serves	-12864
▁struck	-12865
▁trends	-12866
institut	-12867
▁accueil	-12868
▁affecte	-12869
▁appuyer	-12870
▁charbon	-12871
▁danoise	-12872
▁dismant	-12873
▁implies	-12874
▁predict	-12875
▁préserv	-12876
▁suscite	-12877
▁tolérer	-12878
▁équival	-12879
▁associés	-12880
▁contenus	-12881
▁damaging	-12882
▁estiment	-12883
▁favorise	-12884
▁illégaux	-12885
▁mentions	-12886
▁offences	-12887
▁pressing	-12888
▁socially	-12889
▁spéciaux	-12890
▁survival	-12891
▁touchent	-12892
avortement	-12893
▁attitudes	-12894
▁bénéficié	-12895
▁entendons	-12896
▁exploited	-12897
▁hypocrisy	-12898
▁preferred	-12899
▁répondent	-12900
▁soutenant	-12901
▁viabilité	-12902
attribution	-12903
▁biological	-12904
▁dangereuse	-12905
▁fédération	-12906
▁mentionnés	-12907
▁pluralisme	-12908
▁punishment	-12909
▁rencontrer	-12910
▁weaknesses	-12911
▁évolutions	-12912
▁switzerland	-12913
▁translation	-12914
▁évaluations	-12915
▁entreprendre	-12916
▁johannesburg	-12917
▁productivity	-12918
▁transparentes	-12919
▁interprétation	-12920
▁irregularities	-12921
▁š	-12922
ena	-12923
fsp	-12924
rob	-12925
asus	-12926
endt	-12927
oupl	-12928
ômes	-12929
▁agi	-12930
▁bag	-12931
▁cib	-12932
▁hiv	-12933
▁ken	-12934
▁sir	-12935
▁thr	-12936
inary	-12937
onnée	-12938
osyst	-12939
trait	-12940
▁2013	-12941
▁bill	-12942
▁horm	-12943
▁oost	-12944
▁seat	-12945
▁stup	-12946
▁tuna	-12947
▁unie	-12948
▁xxie	-12949
determ	-12950
govina	-12951
émique	-12952
▁acted	-12953
▁assor	-12954
▁dénon	-12955
▁gains	-12956
▁gases	-12957
▁guise	-12958
▁issus	-12959
▁lance	-12960
▁moves	-12961
▁nordi	-12962
▁nulle	-12963
▁pages	-12964
opposer	-12965
▁bottom	-12966
▁donors	-12967
▁finish	-12968
▁letton	-12969
▁mental	-12970
▁pierre	-12971
▁serbes	-12972
▁served	-12973
▁specul	-12974
▁teleph	-12975
▁thinks	-12976
▁tunnel	-12977
▁échapp	-12978
informer	-12979
▁adapter	-12980
▁clients	-12981
▁congrès	-12982
▁dépassé	-12983
▁exigent	-12984
▁feature	-12985
▁formulé	-12986
▁guerres	-12987
▁intérim	-12988
▁jacques	-12989
▁mettons	-12990
▁mémoire	-12991
▁quarter	-12992
▁topical	-12993
accession	-12994
▁caucasus	-12995
▁condamné	-12996
▁couverts	-12997
▁disposée	-12998
▁drinking	-12999
▁injustif	-13000
▁monopole	-13001
▁pourriez	-13002
▁réexamen	-13003
▁cinquante	-13004
▁criticise	-13005
▁dictature	-13006
▁examining	-13007
▁irrespons	-13008
▁israélien	-13009
▁lendemain	-13010
▁religieux	-13011
▁retraites	-13012
▁approaches	-13013
▁assistants	-13014
▁concluding	-13015
▁definitive	-13016
▁dispositif	-13017
▁domination	-13018
▁grandement	-13019
▁oostlander	-13020
▁signatures	-13021
▁differently	-13022
▁ouvertement	-13023
▁quotidienne	-13024
▁réglementer	-13025
▁secrétariat	-13026
▁vaccination	-13027
▁intelligence	-13028
▁opérationnel	-13029
▁administratif	-13030
▁demonstration	-13031
▁fragmentation	-13032
▁fundamentally	-13033
▁représentante	-13034
▁substantielle	-13035
▁investissement	-13036
▁inévitablement	-13037
29	-13038
än	-13039
ham	-13040
ijk	-13041
isc	-13042
ppe	-13043
uts	-13044
5-04	-13045
ivoc	-13046
nera	-13047
uiss	-13048
▁jar	-13049
etric	-13050
islam	-13051
▁gest	-13052
▁pace	-13053
▁rand	-13054
▁tiré	-13055
actuel	-13056
mström	-13057
outine	-13058
▁absor	-13059
▁brefs	-13060
▁chron	-13061
▁congé	-13062
▁exert	-13063
▁faces	-13064
▁faibl	-13065
▁forts	-13066
▁forêt	-13067
▁indub	-13068
▁intra	-13069
▁lanka	-13070
▁retir	-13071
▁scrup	-13072
▁sympt	-13073
▁volet	-13074
envoyer	-13075
iconque	-13076
▁assuré	-13077
▁bonino	-13078
▁conjon	-13079
▁connue	-13080
▁douane	-13081
▁estimé	-13082
▁fièvre	-13083
▁relief	-13084
▁remedy	-13085
▁sortie	-13086
▁trains	-13087
▁velzen	-13088
▁échoué	-13089
cedented	-13090
▁accused	-13091
▁arbitra	-13092
▁broadly	-13093
▁bureaux	-13094
▁dioxyde	-13095
▁enabled	-13096
▁fashion	-13097
▁fermeté	-13098
▁profess	-13099
▁publier	-13100
▁removal	-13101
▁transpl	-13102
▁victime	-13103
▁voterai	-13104
activités	-13105
rogatives	-13106
▁autonome	-13107
▁baroness	-13108
▁computer	-13109
▁formally	-13110
▁generate	-13111
▁interrog	-13112
▁isolated	-13113
▁logement	-13114
▁modifiée	-13115
▁producer	-13116
▁survenus	-13117
▁appalling	-13118
▁belonging	-13119
▁capitales	-13120
▁civilians	-13121
▁commenter	-13122
▁consister	-13123
▁delivered	-13124
▁déboucher	-13125
▁generated	-13126
▁indicates	-13127
▁indiquant	-13128
▁malmström	-13129
▁newspaper	-13130
▁éducation	-13131
▁bangladesh	-13132
▁chancellor	-13133
▁continents	-13134
▁derogation	-13135
▁industriel	-13136
▁linguistic	-13137
▁perception	-13138
▁registered	-13139
▁acceptables	-13140
▁conjunction	-13141
▁considérées	-13142
▁finlandaise	-13143
▁indicateurs	-13144
▁radioactive	-13145
▁recognising	-13146
▁souffrances	-13147
▁strictement	-13148
intermédiaire	-13149
▁insuffisante	-13150
▁difficilement	-13151
▁encouragement	-13152
▁professionals	-13153
▁bureaucratique	-13154
▁compréhensible	-13155
7/	-13156
bg	-13157
po	-13158
ín	-13159
gne	-13160
oms	-13161
tée	-13162
urt	-13163
4-03	-13164
abst	-13165
irds	-13166
itig	-13167
medi	-13168
▁700	-13169
▁ali	-13170
▁box	-13171
▁fan	-13172
▁mem	-13173
▁swe	-13174
autom	-13175
depth	-13176
ional	-13177
olved	-13178
▁août	-13179
▁arti	-13180
▁cibl	-13181
▁croy	-13182
▁ends	-13183
▁lamy	-13184
▁pesc	-13185
▁trem	-13186
▁tril	-13187
person	-13188
sifier	-13189
▁accru	-13190
▁allev	-13191
▁asian	-13192
▁false	-13193
▁logic	-13194
▁minds	-13195
▁mutil	-13196
▁récol	-13197
▁situe	-13198
▁vieux	-13199
▁vérif	-13200
attaque	-13201
entrepr	-13202
vergure	-13203
élargir	-13204
évoquer	-13205
▁disarm	-13206
▁frappé	-13207
▁judges	-13208
▁lesson	-13209
▁magnif	-13210
▁merkel	-13211
▁prêter	-13212
▁rendus	-13213
▁révèle	-13214
▁révélé	-13215
▁synony	-13216
actuelle	-13217
exigence	-13218
zegovina	-13219
▁arrivés	-13220
▁déposer	-13221
▁exposed	-13222
▁fraudes	-13223
▁illness	-13224
▁pillars	-13225
▁récipro	-13226
▁telling	-13227
▁urgente	-13228
▁émanant	-13229
▁établie	-13230
▁advances	-13231
▁anywhere	-13232
▁interreg	-13233
▁moldavie	-13234
▁slovenia	-13235
▁2007-2013	-13236
▁améliorée	-13237
▁autoriser	-13238
▁deviendra	-13239
▁définitif	-13240
▁emphasize	-13241
▁incorrect	-13242
▁monitored	-13243
▁naturelle	-13244
▁proposant	-13245
▁quiconque	-13246
▁scheduled	-13247
▁selection	-13248
▁subissent	-13249
▁attractive	-13250
▁chercheurs	-13251
▁provisoire	-13252
▁puissances	-13253
▁accessibles	-13254
▁conjoncture	-13255
▁constraints	-13256
▁fabrication	-13257
▁luxembourge	-13258
▁preparatory	-13259
▁simplifying	-13260
▁transferred	-13261
▁yougoslavie	-13262
▁quantitative	-13263
▁registration	-13264
▁conservatives	-13265
▁explicitement	-13266
▁officiellement	-13267
▁protectionnisme	-13268
19	-13269
28	-13270
ae	-13271
ía	-13272
ún	-13273
iro	-13274
ray	-13275
▁44	-13276
ilty	-13277
urés	-13278
utie	-13279
▁20,	-13280
▁pom	-13281
▁sép	-13282
▁won	-13283
board	-13284
roger	-13285
veurs	-13286
▁avoc	-13287
▁cfsp	-13288
▁célé	-13289
▁dést	-13290
▁haye	-13291
▁oecd	-13292
▁pick	-13293
▁user	-13294
▁égal	-13295
illage	-13296
requis	-13297
▁2013.	-13298
▁bruit	-13299
▁bösch	-13300
▁clubs	-13301
▁coeur	-13302
▁posts	-13303
▁synth	-13304
▁towns	-13305
▁urged	-13306
impasse	-13307
underst	-13308
version	-13309
▁auteur	-13310
▁banana	-13311
▁confed	-13312
▁devise	-13313
▁formid	-13314
▁gather	-13315
▁guilty	-13316
▁laying	-13317
▁remote	-13318
évidence	-13319
▁avoided	-13320
▁combine	-13321
▁compare	-13322
▁morator	-13323
▁occuper	-13324
▁optique	-13325
▁ouverts	-13326
▁placing	-13327
▁quartet	-13328
▁souffre	-13329
▁swiftly	-13330
▁variety	-13331
▁acceptés	-13332
▁channels	-13333
▁déstabil	-13334
▁endorsed	-13335
▁innocent	-13336
▁inutiles	-13337
▁limitées	-13338
▁quantity	-13339
▁realised	-13340
▁stresses	-13341
productive	-13342
▁cherchent	-13343
▁clarified	-13344
▁conformer	-13345
▁conjointe	-13346
▁estimates	-13347
▁indiquent	-13348
▁parvenons	-13349
▁recycling	-13350
▁récession	-13351
▁unequivoc	-13352
▁comitology	-13353
▁consolider	-13354
▁différenci	-13355
▁exemptions	-13356
▁identifier	-13357
▁imperative	-13358
▁propaganda	-13359
▁religieuse	-13360
▁safeguards	-13361
▁determining	-13362
▁présidences	-13363
accroissement	-13364
▁ferroviaires	-13365
▁initialement	-13366
▁vérification	-13367
▁diplomatiques	-13368
▁disponibilité	-13369
▁unprecedented	-13370
▁administratifs	-13371
▁demonstrations	-13372
▁automatiquement	-13373
▁méditerranéenne	-13374
mo	-13375
30.	-13376
cra	-13377
rou	-13378
▁46	-13379
▁65	-13380
ault	-13381
behr	-13382
cend	-13383
esty	-13384
excl	-13385
mans	-13386
onds	-13387
orce	-13388
sted	-13389
stes	-13390
▁30%	-13391
▁40%	-13392
▁bén	-13393
▁cox	-13394
▁era	-13395
▁mét	-13396
▁vil	-13397
afric	-13398
edies	-13399
▁hall	-13400
▁iron	-13401
▁mens	-13402
▁musi	-13403
▁romp	-13404
▁root	-13405
▁thro	-13406
▁1994,	-13407
▁1996.	-13408
▁coins	-13409
▁cypri	-13410
▁empre	-13411
▁evans	-13412
▁feels	-13413
▁gonzá	-13414
▁grass	-13415
▁input	-13416
▁libye	-13417
▁malte	-13418
▁motif	-13419
▁nommé	-13420
▁split	-13421
▁syria	-13422
▁write	-13423
europol	-13424
▁balkan	-13425
▁barrot	-13426
▁cattle	-13427
▁chasse	-13428
▁fallen	-13429
▁famine	-13430
▁grants	-13431
▁livres	-13432
▁online	-13433
▁prévis	-13434
▁résumé	-13435
▁teneur	-13436
▁tomber	-13437
▁valoir	-13438
behrendt	-13439
▁annuels	-13440
▁burdens	-13441
▁caucase	-13442
▁channel	-13443
▁freight	-13444
▁grecque	-13445
▁inspect	-13446
▁intégra	-13447
▁iranian	-13448
▁malades	-13449
▁postaux	-13450
▁premium	-13451
▁quitter	-13452
▁strikes	-13453
▁voiture	-13454
admission	-13455
▁accueill	-13456
▁affectés	-13457
▁answered	-13458
▁assister	-13459
▁congress	-13460
▁dénoncer	-13461
▁déposées	-13462
▁externes	-13463
▁lettonie	-13464
▁souffert	-13465
▁voulions	-13466
▁addresses	-13467
▁approuvés	-13468
▁conformes	-13469
▁exécution	-13470
▁faiblesse	-13471
▁gravement	-13472
▁inférieur	-13473
▁interdire	-13474
▁monopoles	-13475
▁prévoient	-13476
▁resolving	-13477
▁workplace	-13478
▁cigarettes	-13479
▁dependence	-13480
▁fondements	-13481
▁intéressés	-13482
▁misunderst	-13483
▁pertinente	-13484
▁repression	-13485
▁scandaleux	-13486
▁veterinary	-13487
▁biologiques	-13488
▁biélorussie	-13489
▁implication	-13490
▁migratoires	-13491
▁pluriannuel	-13492
▁référendums	-13493
▁traçabilité	-13494
▁volontaires	-13495
▁decommission	-13496
▁fonctionnent	-13497
▁presidencies	-13498
▁remplacement	-13499
▁biotechnology	-13500
▁établissements	-13501
gi	-13502
(1)	-13503
bus	-13504
cor	-13505
ome	-13506
weg	-13507
enko	-13508
▁bab	-13509
▁god	-13510
▁lul	-13511
▁rav	-13512
/2003	-13513
/2004	-13514
aggra	-13515
arriv	-13516
ijing	-13517
xique	-13518
▁1993	-13519
▁acti	-13520
▁asie	-13521
▁cité	-13522
▁cold	-13523
▁fame	-13524
▁fate	-13525
▁film	-13526
▁gall	-13527
▁pare	-13528
▁rêve	-13529
▁sexe	-13530
▁subi	-13531
▁tens	-13532
▁ties	-13533
▁webs	-13534
▁wild	-13535
▁élig	-13536
arisme	-13537
gments	-13538
ignore	-13539
ueille	-13540
▁2011,	-13541
▁fault	-13542
▁gardi	-13543
▁guine	-13544
▁recul	-13545
▁sécur	-13546
▁volon	-13547
extrême	-13548
occuper	-13549
ranging	-13550
▁aiming	-13551
▁arctic	-13552
▁commod	-13553
▁dissim	-13554
▁divide	-13555
▁débarr	-13556
▁exempt	-13557
▁guided	-13558
▁images	-13559
▁kazakh	-13560
▁moscou	-13561
▁portes	-13562
▁transl	-13563
entielle	-13564
▁charged	-13565
▁decline	-13566
▁disastr	-13567
▁estonia	-13568
▁exclure	-13569
▁iceland	-13570
▁injuste	-13571
▁minutie	-13572
▁passons	-13573
▁perpétr	-13574
▁préféré	-13575
▁renvers	-13576
▁réservé	-13577
▁strange	-13578
▁étiquet	-13579
apprendre	-13580
opération	-13581
▁advisory	-13582
▁deciding	-13583
▁delivery	-13584
▁expenses	-13585
▁gonzález	-13586
▁likewise	-13587
▁maintenu	-13588
▁normally	-13589
▁pointing	-13590
▁soulevée	-13591
▁transmis	-13592
infraction	-13593
inspection	-13594
▁accordées	-13595
▁apprendre	-13596
▁assessing	-13597
▁deadlines	-13598
▁donateurs	-13599
▁douanière	-13600
▁illegally	-13601
▁injustice	-13602
▁nullement	-13603
▁participe	-13604
▁qualifiés	-13605
▁réactions	-13606
▁sustained	-13607
observation	-13608
▁attempting	-13609
▁criticisms	-13610
▁excellence	-13611
▁possession	-13612
▁résolument	-13613
▁volontiers	-13614
installation	-13615
▁comparative	-13616
▁conferences	-13617
▁cooperating	-13618
▁distorsions	-13619
▁eliminating	-13620
▁elimination	-13621
▁fournissent	-13622
▁intéressées	-13623
▁investigate	-13624
▁juridiction	-13625
▁nationalité	-13626
▁researchers	-13627
▁traitements	-13628
▁contradictory	-13629
▁déséquilibres	-13630
▁réglementaires	-13631
▁économiquement	-13632
▁traditionnelles	-13633
5/	-13634
ïs	-13635
lla	-13636
▁9.	-13637
▁gö	-13638
back	-13639
deau	-13640
eing	-13641
ford	-13642
parc	-13643
ults	-13644
zemb	-13645
▁alg	-13646
▁amp	-13647
▁kau	-13648
▁kir	-13649
▁kre	-13650
▁lad	-13651
▁mol	-13652
▁rab	-13653
▁ram	-13654
reyer	-13655
usage	-13656
école	-13657
▁chré	-13658
▁doté	-13659
▁invo	-13660
▁rehn	-13661
▁réit	-13662
▁scar	-13663
▁thon	-13664
▁tsun	-13665
▁élan	-13666
avance	-13667
ocking	-13668
onents	-13669
▁assum	-13670
▁brève	-13671
▁dedic	-13672
▁doive	-13673
▁incer	-13674
▁murde	-13675
▁prosp	-13676
▁rouge	-13677
▁rétic	-13678
▁unité	-13679
appuyer	-13680
arition	-13681
ativité	-13682
attente	-13683
démocra	-13684
essayer	-13685
ibility	-13686
itement	-13687
▁devote	-13688
▁disgra	-13689
▁driven	-13690
▁déclin	-13691
▁délits	-13692
▁entour	-13693
▁forums	-13694
▁lancée	-13695
▁sooner	-13696
▁tienne	-13697
▁triste	-13698
employed	-13699
▁adverse	-13700
▁algeria	-13701
▁assured	-13702
▁austral	-13703
▁beijing	-13704
▁cardiff	-13705
▁couvert	-13706
▁focuses	-13707
▁footing	-13708
▁gazoduc	-13709
▁inequal	-13710
▁jarzemb	-13711
▁plainte	-13712
▁prépare	-13713
▁pursuit	-13714
▁résolue	-13715
▁seekers	-13716
▁surpris	-13717
impliquer	-13718
ondrement	-13719
▁avoiding	-13720
▁benchmar	-13721
▁complied	-13722
▁delicate	-13723
▁discover	-13724
▁eurojust	-13725
▁feasible	-13726
▁formulée	-13727
▁persuadé	-13728
▁pipeline	-13729
▁schreyer	-13730
▁sectoral	-13731
▁troubles	-13732
▁versions	-13733
▁violated	-13734
▁earmarked	-13735
▁meanwhile	-13736
▁qualifier	-13737
▁reflètent	-13738
▁workforce	-13739
▁abandonner	-13740
▁allowances	-13741
▁approuvons	-13742
▁complexity	-13743
▁comprenons	-13744
▁compétents	-13745
▁consciente	-13746
▁disastrous	-13747
▁expériment	-13748
▁moratorium	-13749
▁permission	-13750
▁preference	-13751
▁adjustments	-13752
▁allocations	-13753
▁directorate	-13754
▁démocraties	-13755
▁dérogations	-13756
▁normalement	-13757
▁problematic	-13758
▁progression	-13759
▁préférences	-13760
▁availability	-13761
▁broadcasting	-13762
▁continueront	-13763
▁coordinating	-13764
▁deliberately	-13765
▁facilitating	-13766
▁interference	-13767
▁satisfaisant	-13768
▁géographiques	-13769
▁irrégularités	-13770
▁licenciements	-13771
▁macroeconomic	-13772
▁mainstreaming	-13773
▁democratisation	-13774
oo	-13775
rne	-13776
uzz	-13777
▁47	-13778
ador	-13779
chés	-13780
held	-13781
urie	-13782
▁exh	-13783
ander	-13784
croît	-13785
ipher	-13786
tices	-13787
▁halt	-13788
▁luck	-13789
▁pled	-13790
▁sols	-13791
enegro	-13792
ounted	-13793
quants	-13794
utable	-13795
▁alter	-13796
▁annan	-13797
▁bears	-13798
▁byrne	-13799
▁copyr	-13800
▁cosme	-13801
▁depth	-13802
▁empty	-13803
▁feira	-13804
▁fémin	-13805
▁shock	-13806
▁stick	-13807
▁turcs	-13808
▁canadi	-13809
▁commen	-13810
▁détach	-13811
▁empris	-13812
▁errors	-13813
▁excise	-13814
▁harass	-13815
▁inland	-13816
▁rwanda	-13817
▁salmon	-13818
▁soigne	-13819
▁topics	-13820
▁venant	-13821
parcours	-13822
▁abolish	-13823
▁accéder	-13824
▁ampleur	-13825
▁discour	-13826
▁disturb	-13827
▁diverse	-13828
▁donnons	-13829
▁dépense	-13830
▁ensures	-13831
▁existed	-13832
▁forecas	-13833
▁heavily	-13834
▁incomes	-13835
▁laissez	-13836
▁néglige	-13837
▁paralys	-13838
▁serions	-13839
▁soupçon	-13840
▁tableau	-13841
▁tonight	-13842
▁warming	-13843
▁appeared	-13844
▁demanded	-13845
▁disgrace	-13846
▁findings	-13847
▁fixation	-13848
▁génocide	-13849
▁horizont	-13850
▁intégrés	-13851
▁mutually	-13852
▁officiel	-13853
▁persuade	-13854
▁promotes	-13855
▁province	-13856
▁reconnus	-13857
▁surcroît	-13858
▁teaching	-13859
▁transmet	-13860
▁traverse	-13861
alisations	-13862
atlantique	-13863
▁chypriote	-13864
▁confronté	-13865
▁critiquer	-13866
▁distances	-13867
▁divisions	-13868
▁intégrées	-13869
▁mandelson	-13870
▁possèdent	-13871
▁préjudici	-13872
▁secondary	-13873
▁suspicion	-13874
▁synergies	-13875
atisfactory	-13876
▁carburants	-13877
▁continuons	-13878
▁enregistré	-13879
▁impatience	-13880
▁inequality	-13881
▁légalement	-13882
▁persistent	-13883
▁rassembler	-13884
▁bilatérales	-13885
▁déterminant	-13886
▁interpreted	-13887
▁intolerable	-13888
▁preferences	-13889
▁travaillant	-13890
▁inequalities	-13891
▁jarzembowski	-13892
▁linguistique	-13893
▁raisonnables	-13894
▁totalitarian	-13895
▁irresponsible	-13896
▁qualification	-13897
▁significatifs	-13898
▁contraignantes	-13899
▁transfrontalier	-13900
16	-13901
adt	-13902
dor	-13903
ias	-13904
itt	-13905
tés	-13906
war	-13907
▁49	-13908
▁8.	-13909
▁ho	-13910
acqu	-13911
anou	-13912
bend	-13913
gans	-13914
iler	-13915
ocde	-13916
serv	-13917
ïwan	-13918
▁14,	-13919
▁800	-13920
▁ath	-13921
▁gol	-13922
▁nai	-13923
▁pla	-13924
▁prô	-13925
▁rio	-13926
▁sag	-13927
▁vég	-13928
acces	-13929
audit	-13930
compl	-13931
faire	-13932
incap	-13933
inson	-13934
ouses	-13935
▁faib	-13936
▁jugé	-13937
▁onto	-13938
▁pion	-13939
▁réch	-13940
▁vien	-13941
▁2011.	-13942
▁arrog	-13943
▁aveug	-13944
▁banan	-13945
▁chief	-13946
▁david	-13947
▁grown	-13948
▁haiti	-13949
▁mitig	-13950
▁peser	-13951
▁promp	-13952
▁steel	-13953
▁écoss	-13954
▁épuis	-13955
accéder	-13956
annonce	-13957
arrivée	-13958
attirer	-13959
embargo	-13960
univers	-13961
élément	-13962
▁aggrav	-13963
▁aidera	-13964
▁fluctu	-13965
▁foster	-13966
▁misère	-13967
▁signes	-13968
▁taïwan	-13969
▁ventes	-13970
▁évoque	-13971
argument	-13972
inquiète	-13973
▁cloning	-13974
▁délicat	-13975
▁députée	-13976
▁flights	-13977
▁handled	-13978
▁passent	-13979
▁précisé	-13980
▁quantif	-13981
▁redress	-13982
▁selling	-13983
▁étudier	-13984
▁évoluer	-13985
accélérer	-13986
insertion	-13987
▁adéquats	-13988
▁autorise	-13989
▁bankrupt	-13990
▁bataille	-13991
▁billions	-13992
▁comptent	-13993
▁genocide	-13994
▁governed	-13995
▁location	-13996
▁minimale	-13997
▁offertes	-13998
▁refléter	-13999
▁removing	-14000
▁reviewed	-14001
▁ridicule	-14002
▁réalités	-14003
▁réchauff	-14004
▁spécific	-14005
achèvement	-14006
incapacité	-14007
▁africaine	-14008
▁approches	-14009
▁approving	-14010
▁autorisés	-14011
▁condamnés	-14012
▁execution	-14013
▁frontiers	-14014
▁impératif	-14015
▁manoeuvre	-14016
▁offensive	-14017
▁profondes	-14018
▁prétendre	-14019
▁prévoyant	-14020
▁stimulate	-14021
forestation	-14022
instabilité	-14023
▁couverture	-14024
▁différends	-14025
▁disability	-14026
▁foodstuffs	-14027
▁indirectly	-14028
▁poursuites	-14029
▁prosecutor	-14030
▁respectifs	-14031
▁xénophobie	-14032
▁compatibles	-14033
▁dispositifs	-14034
▁développées	-14035
▁philosophie	-14036
▁regrettably	-14037
prolifération	-14038
▁conservative	-14039
▁disabilities	-14040
▁preservation	-14041
▁opérationnels	-14042
▁rétablissement	-14043
▁unsatisfactory	-14044
ee	-14045
amp	-14046
asp	-14047
atr	-14048
fat	-14049
ibe	-14050
jug	-14051
ubb	-14052
ump	-14053
▁gn	-14054
ardo	-14055
aust	-14056
bert	-14057
rose	-14058
rote	-14059
yers	-14060
zing	-14061
▁25%	-14062
▁asy	-14063
▁ble	-14064
▁cod	-14065
▁por	-14066
ayant	-14067
orter	-14068
respo	-14069
stadt	-14070
ánamo	-14071
▁agré	-14072
▁ajus	-14073
▁alex	-14074
▁cope	-14075
▁dies	-14076
▁hide	-14077
▁pand	-14078
▁sour	-14079
années	-14080
emblée	-14081
ficien	-14082
ignant	-14083
rables	-14084
rainte	-14085
usions	-14086
▁2013,	-14087
▁cells	-14088
▁donor	-14089
▁epide	-14090
▁foods	-14091
▁games	-14092
▁légal	-14093
▁ramen	-14094
▁units	-14095
▁utter	-14096
▁végét	-14097
▁écras	-14098
accompl	-14099
apporte	-14100
étudier	-14101
▁cessez	-14102
▁corrig	-14103
▁crespo	-14104
▁désesp	-14105
▁famous	-14106
▁finger	-14107
▁listes	-14108
▁néolib	-14109
▁prémat	-14110
▁seemed	-14111
▁vienna	-14112
cidences	-14113
éléments	-14114
▁belongs	-14115
▁disparu	-14116
▁dépensé	-14117
▁endroit	-14118
▁england	-14119
▁exposés	-14120
▁intimid	-14121
▁irakien	-14122
▁menacés	-14123
▁mexique	-14124
▁origine	-14125
▁pattern	-14126
▁proclam	-14127
▁refrain	-14128
▁requise	-14129
▁solving	-14130
▁stopped	-14131
▁unclear	-14132
▁émettre	-14133
▁évoquée	-14134
establish	-14135
[...]
