<unk>	0
<s>	0
</s>	0
▁t	-0
on	-1
▁d	-2
es	-3
en	-4
▁a	-5
▁p	-6
▁l	-7
▁c	-8
in	-9
▁th	-10
re	-11
ti	-12
▁s	-13
er	-14
is	-15
ou	-16
an	-17
▁the	-18
ent	-19
▁m	-20
▁de	-21
it	-22
▁e	-23
or	-24
qu	-25
tion	-26
ro	-27
▁n	-28
▁f	-29
▁w	-30
ar	-31
at	-32
le	-33
▁o	-34
▁b	-35
▁in	-36
om	-37
al	-38
un	-39
ment	-40
▁la	-41
▁qu	-42
si	-43
ur	-44
▁of	-45
▁an	-46
▁to	-47
▁r	-48
il	-49
ve	-50
te	-51
ation	-52
▁le	-53
ic	-54
▁con	-55
▁h	-56
as	-57
us	-58
▁and	-59
▁com	-60
ing	-61
▁re	-62
▁et	-63
our	-64
ce	-65
▁un	-66
▁en	-67
▁pro	-68
▁v	-69
el	-70
▁i	-71
▁les	-72
ra	-73
▁des	-74
▁par	-75
et	-76
▁à	-77
▁g	-78
ed	-79
ous	-80
pe	-81
▁pr	-82
▁comm	-83
ol	-84
ir	-85
▁is	-86
▁j	-87
▁that	-88
▁eu	-89
ant	-90
▁on	-91
▁que	-92
est	-93
ut	-94
▁be	-95
ort	-96
▁é	-97
os	-98
ons	-99
ans	-100
▁euro	-101
pp	-102
ci	-103
me	-104
mp	-105
ot	-106
ch	-107
▁for	-108
ul	-109
tr	-110
▁wh	-111
sion	-112
ly	-113
id	-114
▁we	-115
▁au	-116
ire	-117
ct	-118
▁ma	-119
▁dé	-120
ig	-121
▁it	-122
▁nous	-123
▁ne	-124
▁pour	-125
▁al	-126
▁fa	-127
és	-128
▁du	-129
▁se	-130
ab	-131
▁su	-132
▁as	-133
ter	-134
ie	-135
▁this	-136
ess	-137
que	-138
ion	-139
ers	-140
▁me	-141
de	-142
▁ex	-143
ff	-144
ne	-145
▁commis	-146
▁dans	-147
lement	-148
mb	-149
ag	-150
▁ce	-151
op	-152
iti	-153
▁not	-154
ure	-155
se	-156
▁ha	-157
▁pl	-158
▁qui	-159
ain	-160
out	-161
▁commission	-162
ver	-163
end	-164
ér	-165
ill	-166
oul	-167
▁je	-168
ay	-169
▁une	-170
▁are	-171
▁ré	-172
ont	-173
▁europe	-174
▁pas	-175
ith	-176
▁est	-177
tat	-178
pé	-179
ité	-180
li	-181
▁sur	-182
▁with	-183
▁ch	-184
ow	-185
res	-186
▁so	-187
ux	-188
▁ac	-189
▁y	-190
▁ra	-191
ould	-192
▁mo	-193
▁imp	-194
▁have	-195
tre	-196
▁il	-197
tions	-198
▁pol	-199
ue	-200
▁-	-201
oun	-202
ate	-203
ations	-204
ich	-205
▁pré	-206
ac	-207
▁tr	-208
▁do	-209
and	-210
tive	-211
péen	-212
di	-213
▁européen	-214
▁res	-215
les	-216
▁at	-217
ity	-218
st	-219
im	-220
▁mon	-221
▁which	-222
pr	-223
ord	-224
ence	-225
iv	-226
ad	-227
▁european	-228
ée	-229
ke	-230
▁cons	-231
th	-232
sid	-233
du	-234
ance	-235
▁pe	-236
▁ag	-237
▁prop	-238
mes	-239
▁memb	-240
urs	-241
ens	-242
▁conc	-243
ère	-244
▁sa	-245
▁tra	-246
▁sh	-247
▁will	-248
pport	-249
té	-250
ments	-251
▁by	-252
▁cet	-253
vel	-254
con	-255
▁dis	-256
ts	-257
tic	-258
ib	-259
▁po	-260
aire	-261
able	-262
▁pres	-263
▁plus	-264
am	-265
▁coun	-266
▁am	-267
▁av	-268
oc	-269
ies	-270
▁has	-271
igh	-272
▁mr	-273
▁gr	-274
ction	-275
ust	-276
ven	-277
ore	-278
▁all	-279
▁ad	-280
▁comp	-281
▁inter	-282
▁app	-283
ard	-284
ble	-285
▁fin	-286
ques	-287
▁politi	-288
▁2	-289
ge	-290
▁or	-291
▁ser	-292
▁1	-293
▁co	-294
age	-295
▁cette	-296
ces	-297
au	-298
00	-299
for	-300
ait	-301
▁there	-302
ted	-303
▁cr	-304
ten	-305
port	-306
um	-307
so	-308
rom	-309
elle	-310
ution	-311
▁stat	-312
ud	-313
ise	-314
cess	-315
sie	-316
▁di	-317
ès	-318
▁présid	-319
▁aux	-320
use	-321
tit	-322
une	-323
▁import	-324
bl	-325
ern	-326
tif	-327
▁si	-328
ist	-329
cial	-330
▁(	-331
ient	-332
ées	-333
ament	-334
▁presid	-335
ert	-336
▁ab	-337
air	-338
ég	-339
ays	-340
▁mar	-341
ique	-342
▁reg	-343
▁dire	-344
▁dev	-345
▁ent	-346
ves	-347
▁eff	-348
ale	-349
lo	-350
▁st	-351
▁str	-352
▁can	-353
▁ave	-354
▁européenne	-355
▁would	-356
▁sont	-357
▁but	-358
ien	-359
▁ques	-360
▁vo	-361
▁also	-362
▁cont	-363
être	-364
int	-365
▁our	-366
▁mais	-367
conom	-368
ures	-369
▁li	-370
▁président	-371
▁he	-372
▁ta	-373
▁should	-374
ions	-375
ite	-376
▁pre	-377
▁man	-378
erm	-379
ign	-380
ult	-381
je	-382
ose	-383
▁president	-384
ctive	-385
▁wor	-386
▁dem	-387
▁from	-388
▁pu	-389
▁avec	-390
cl	-391
▁aut	-392
▁som	-393
▁int	-394
▁tout	-395
▁ins	-396
ors	-397
union	-398
▁don	-399
▁go	-400
▁must	-401
▁commun	-402
▁te	-403
oir	-404
▁ces	-405
up	-406
▁union	-407
▁parlement	-408
▁acc	-409
og	-410
ap	-411
fic	-412
▁sou	-413
velop	-414
▁pos	-415
▁pays	-416
its	-417
ational	-418
▁parli	-419
▁trans	-420
aux	-421
ais	-422
▁prog	-423
sition	-424
▁mes	-425
▁ob	-426
form	-427
aut	-428
▁état	-429
ier	-430
▁important	-431
ussi	-432
▁propos	-433
sieur	-434
▁rapport	-435
ree	-436
▁been	-437
▁monsieur	-438
▁k	-439
▁parliament	-440
ond	-441
ally	-442
▁you	-443
ière	-444
▁ou	-445
ine	-446
ong	-447
▁cl	-448
cis	-449
all	-450
aires	-451
▁no	-452
▁être	-453
od	-454
▁us	-455
▁diff	-456
▁its	-457
▁countr	-458
ace	-459
alement	-460
▁report	-461
▁cert	-462
▁part	-463
▁rel	-464
ish	-465
cil	-466
com	-467
ati	-468
▁was	-469
▁conse	-470
▁vous	-471
▁ont	-472
▁ver	-473
▁été	-474
▁certain	-475
▁more	-476
▁question	-477
▁comme	-478
én	-479
▁states	-480
ail	-481
▁ég	-482
pect	-483
ese	-484
ticul	-485
ary	-486
▁produ	-487
▁particul	-488
▁fait	-489
▁états	-490
reat	-491
▁cel	-492
gh	-493
ive	-494
▁ar	-495
king	-496
▁member	-497
ème	-498
orte	-499
fin	-500
▁entre	-501
oup	-502
▁pers	-503
▁dro	-504
▁sy	-505
▁need	-506
che	-507
▁politique	-508
ime	-509
av	-510
ther	-511
▁righ	-512
ins	-513
▁parti	-514
▁concern	-515
▁these	-516
▁cour	-517
ai	-518
▁conseil	-519
ear	-520
▁sit	-521
▁they	-522
▁conf	-523
ca	-524
ême	-525
▁polic	-526
ues	-527
▁trav	-528
cip	-529
til	-530
eu	-531
cep	-532
▁their	-533
▁intern	-534
ase	-535
ouv	-536
▁like	-537
▁tou	-538
get	-539
▁council	-540
▁membres	-541
isation	-542
ide	-543
▁what	-544
uation	-545
sible	-546
▁min	-547
▁out	-548
▁how	-549
ésent	-550
▁op	-551
ui	-552
▁rem	-553
▁very	-554
▁contr	-555
▁200	-556
her	-557
ants	-558
▁rés	-559
▁who	-560
▁également	-561
ative	-562
▁one	-563
▁if	-564
▁ter	-565
ric	-566
▁exp	-567
▁car	-568
olution	-569
ang	-570
▁el	-571
enti	-572
lic	-573
èg	-574
ms	-575
▁nom	-576
▁rég	-577
par	-578
▁col	-579
▁aussi	-580
ram	-581
cur	-582
▁notre	-583
ough	-584
▁ét	-585
▁finan	-586
fore	-587
▁rapp	-588
are	-589
▁than	-590
▁my	-591
nement	-592
▁nou	-593
ét	-594
cy	-595
▁sub	-596
ex	-597
ense	-598
nes	-599
euro	-600
tru	-601
ités	-602
▁bien	-603
ois	-604
erg	-605
jet	-606
éd	-607
▁disc	-608
▁point	-609
▁bud	-610
▁faire	-611
▁program	-612
▁resp	-613
▁countries	-614
▁ind	-615
▁prin	-616
▁other	-617
vent	-618
▁situation	-619
vir	-620
bat	-621
bil	-622
abil	-623
▁peop	-624
▁cela	-625
▁social	-626
▁work	-627
jour	-628
▁commit	-629
▁act	-630
iss	-631
titu	-632
▁fr	-633
▁tous	-634
▁br	-635
▁appro	-636
▁bet	-637
▁about	-638
ande	-639
▁new	-640
▁leur	-641
▁und	-642
▁avons	-643
▁prote	-644
els	-645
▁dép	-646
▁propo	-647
▁enc	-648
ice	-649
mplo	-650
iter	-651
▁perm	-652
▁develop	-653
▁doit	-654
ouver	-655
▁up	-656
viron	-657
ieve	-658
▁spe	-659
▁people	-660
▁consid	-661
ell	-662
▁fe	-663
vis	-664
▁son	-665
▁bel	-666
▁même	-667
▁rec	-668
cte	-669
ely	-670
▁person	-671
▁agree	-672
ach	-673
oy	-674
▁très	-675
ises	-676
▁aff	-677
▁non	-678
▁né	-679
endre	-680
▁hum	-681
ob	-682
▁policy	-683
▁only	-684
ind	-685
▁econom	-686
ia	-687
oud	-688
▁jus	-689
ocra	-690
▁vot	-691
▁year	-692
▁adop	-693
cal	-694
ange	-695
▁coop	-696
gan	-697
act	-698
▁soci	-699
gr	-700
▁support	-701
blic	-702
und	-703
ities	-704
ante	-705
▁ass	-706
▁lib	-707
▁deux	-708
iques	-709
ated	-710
▁iss	-711
▁directive	-712
isl	-713
▁time	-714
▁beca	-715
oi	-716
app	-717
▁peut	-718
mple	-719
elles	-720
ents	-721
jec	-722
▁leg	-723
▁serv	-724
▁because	-725
▁travail	-726
▁fir	-727
▁again	-728
ost	-729
rait	-730
▁sé	-731
▁nos	-732
ères	-733
▁budget	-734
▁mad	-735
▁rapporte	-736
▁some	-737
▁probl	-738
▁now	-739
▁es	-740
▁inc	-741
▁per	-742
▁fond	-743
▁group	-744
▁proposal	-745
rais	-746
acc	-747
min	-748
ced	-749
▁devons	-750
▁contin	-751
▁sign	-752
we	-753
ari	-754
▁march	-755
bre	-756
▁public	-757
▁économ	-758
▁lors	-759
▁accord	-760
▁men	-761
▁rep	-762
lear	-763
▁cro	-764
sions	-765
▁any	-766
pend	-767
ulation	-768
ks	-769
▁possible	-770
ices	-771
ici	-772
▁cas	-773
▁présent	-774
▁long	-775
▁respect	-776
▁droits	-777
▁ro	-778
▁ref	-779
ever	-780
▁ren	-781
▁such	-782
ille	-783
▁rights	-784
▁ann	-785
▁inv	-786
europe	-787
ustr	-788
aine	-789
ner	-790
▁vie	-791
vid	-792
▁process	-793
▁therefore	-794
▁protection	-795
▁contre	-796
lé	-797
▁when	-798
tis	-799
▁toute	-800
érie	-801
▁national	-802
▁voud	-803
▁inform	-804
▁fund	-805
ere	-806
▁princip	-807
▁mark	-808
▁first	-809
▁vote	-810
alis	-811
cr	-812
▁19	-813
▁pri	-814
ards	-815
▁however	-816
▁those	-817
▁vis	-818
▁see	-819
▁dom	-820
▁pouv	-821
▁particular	-822
▁nombre	-823
▁take	-824
▁nécess	-825
alité	-826
▁sol	-827
rer	-828
▁human	-829
▁elle	-830
arge	-831
▁make	-832
order	-833
▁disp	-834
ences	-835
▁committe	-836
▁mill	-837
ight	-838
▁dém	-839
▁ses	-840
▁amend	-841
▁into	-842
▁actu	-843
▁permet	-844
lu	-845
ween	-846
▁u	-847
▁between	-848
ip	-849
▁voudrais	-850
ress	-851
▁met	-852
▁ca	-853
veloppe	-854
▁organ	-855
▁market	-856
▁effe	-857
▁donc	-858
▁fact	-859
▁rapporteur	-860
cision	-861
titution	-862
▁prem	-863
▁international	-864
if	-865
▁environ	-866
sibil	-867
tière	-868
▁proble	-869
▁economic	-870
▁développe	-871
ural	-872
▁rép	-873
▁nu	-874
▁mat	-875
cer	-876
day	-877
▁bas	-878
▁rais	-879
itoy	-880
▁form	-881
▁programme	-882
▁règ	-883
▁place	-884
▁main	-885
▁being	-886
ération	-887
now	-888
ency	-889
▁say	-890
▁gu	-891
▁committee	-892
▁fut	-893
▁contrib	-894
mber	-895
▁sans	-896
ink	-897
▁gen	-898
▁clear	-899
chn	-900
▁proposition	-901
mm	-902
olog	-903
▁débat	-904
urr	-905
vern	-906
tique	-907
insi	-908
▁terr	-909
▁cap	-910
▁développement	-911
▁dont	-912
tiv	-913
isse	-914
xt	-915
▁vi	-916
▁ainsi	-917
arg	-918
▁ess	-919
vention	-920
ph	-921
▁lég	-922
▁tro	-923
▁objec	-924
▁coll	-925
▁soit	-926
▁demand	-927
eration	-928
▁them	-929
ables	-930
▁commiss	-931
ld	-932
▁encore	-933
tifs	-934
équ	-935
one	-936
▁af	-937
▁political	-938
ting	-939
▁over	-940
▁prom	-941
ales	-942
▁év	-943
jourd	-944
ame	-945
▁made	-946
▁citoy	-947
▁ens	-948
ende	-949
▁incl	-950
ass	-951
arm	-952
eng	-953
▁condi	-954
mps	-955
ivent	-956
▁were	-957
▁cent	-958
led	-959
▁state	-960
hui	-961
abl	-962
ious	-963
▁3	-964
tention	-965
▁great	-966
cept	-967
▁many	-968
▁believe	-969
▁techn	-970
cid	-971
▁services	-972
ulture	-973
▁position	-974
▁way	-975
ound	-976
cu	-977
ject	-978
iste	-979
céd	-980
ak	-981
curité	-982
▁communaut	-983
▁commissioner	-984
▁repr	-985
▁know	-986
▁commissaire	-987
▁pra	-988
▁deb	-989
oin	-990
▁ever	-991
▁requ	-992
come	-993
▁bon	-994
▁govern	-995
▁sécurité	-996
▁development	-997
▁dern	-998
▁faut	-999
ôle	-1000
▁rest	-1001
▁tur	-1002
▁quel	-1003
ste	-1004
ast	-1005
ctions	-1006
▁nouvel	-1007
▁supp	-1008
erci	-1009
▁cor	-1010
▁suis	-1011
▁questions	-1012
▁initi	-1013
anti	-1014
venir	-1015
▁against	-1016
ann	-1017
▁agric	-1018
adre	-1019
atives	-1020
▁peu	-1021
ellement	-1022
ov	-1023
▁dur	-1024
aient	-1025
▁mesures	-1026
▁aujourd	-1027
▁sp	-1028
sitions	-1029
▁syste	-1030
▁mal	-1031
▁respons	-1032
itiz	-1033
uct	-1034
▁right	-1035
▁marché	-1036
▁prof	-1037
▁pense	-1038
▁citiz	-1039
red	-1040
▁tw	-1041
ied	-1042
eral	-1043
▁matière	-1044
▁"	-1045
▁even	-1046
▁20	-1047
ack	-1048
▁syst	-1049
oupe	-1050
▁meas	-1051
▁fra	-1052
semb	-1053
tives	-1054
▁citoyens	-1055
vre	-1056
dies	-1057
ful	-1058
▁seu	-1059
▁ve	-1060
cher	-1061
▁just	-1062
▁emplo	-1063
▁gouver	-1064
▁leurs	-1065
▁fav	-1066
▁debate	-1067
▁essenti	-1068
▁nat	-1069
▁afin	-1070
▁sav	-1071
iers	-1072
èmes	-1073
ources	-1074
▁cré	-1075
imp	-1076
▁jour	-1077
▁pass	-1078
▁institu	-1079
éra	-1080
ances	-1081
ved	-1082
▁att	-1083
▁future	-1084
▁regard	-1085
▁transport	-1086
▁maj	-1087
auc	-1088
▁well	-1089
wn	-1090
ating	-1091
▁nive	-1092
mis	-1093
▁nouve	-1094
imin	-1095
▁major	-1096
ug	-1097
ile	-1098
▁good	-1099
▁doivent	-1100
ils	-1101
ute	-1102
▁gar	-1103
▁effort	-1104
▁incre	-1105
▁think	-1106
▁under	-1107
▁where	-1108
▁groupe	-1109
▁issue	-1110
▁citizens	-1111
▁sommes	-1112
▁today	-1113
▁too	-1114
▁déj	-1115
rodu	-1116
oth	-1117
▁199	-1118
▁gén	-1119
▁politiques	-1120
▁déjà	-1121
read	-1122
▁agreement	-1123
uer	-1124
lem	-1125
autres	-1126
▁prior	-1127
▁où	-1128
▁here	-1129
▁aid	-1130
▁change	-1131
▁ris	-1132
erne	-1133
mate	-1134
▁every	-1135
islation	-1136
▁years	-1137
sive	-1138
ving	-1139
go	-1140
▁conditions	-1141
▁two	-1142
▁high	-1143
fr	-1144
ings	-1145
ope	-1146
▁institutions	-1147
▁treat	-1148
▁manière	-1149
▁économique	-1150
ième	-1151
▁simp	-1152
tes	-1153
▁does	-1154
▁industr	-1155
▁cadre	-1156
▁madame	-1157
sieurs	-1158
▁country	-1159
▁world	-1160
not	-1161
▁giv	-1162
▁end	-1163
ical	-1164
▁order	-1165
▁droit	-1166
▁souh	-1167
▁exe	-1168
▁mu	-1169
▁souti	-1170
▁action	-1171
▁port	-1172
▁déf	-1173
▁community	-1174
tice	-1175
uses	-1176
▁concerne	-1177
▁want	-1178
▁tant	-1179
▁plan	-1180
▁mod	-1181
▁hel	-1182
▁cannot	-1183
▁'	-1184
▁view	-1185
ication	-1186
▁level	-1187
ente	-1188
bli	-1189
▁term	-1190
ited	-1191
▁most	-1192
▁members	-1193
▁secon	-1194
éli	-1195
ken	-1196
▁sin	-1197
▁use	-1198
▁had	-1199
▁conv	-1200
▁environment	-1201
abilité	-1202
▁could	-1203
▁same	-1204
amment	-1205
oris	-1206
quer	-1207
▁différ	-1208
ual	-1209
▁financi	-1210
▁ach	-1211
▁effic	-1212
▁financial	-1213
rough	-1214
▁measures	-1215
▁nég	-1216
▁grand	-1217
▁mé	-1218
▁struct	-1219
▁poin	-1220
ory	-1221
▁niveau	-1222
▁pop	-1223
▁sera	-1224
▁sout	-1225
▁diffic	-1226
enir	-1227
▁pa	-1228
▁avant	-1229
▁temps	-1230
▁souhait	-1231
▁minis	-1232
▁mont	-1233
▁ban	-1234
ates	-1235
fe	-1236
▁democra	-1237
ently	-1238
▁aur	-1239
▁said	-1240
▁5	-1241
▁through	-1242
iment	-1243
▁much	-1244
▁problème	-1245
▁expr	-1246
▁may	-1247
ety	-1248
▁démocra	-1249
ll	-1250
▁secte	-1251
▁ext	-1252
▁viol	-1253
▁curr	-1254
▁certains	-1255
▁collèg	-1256
▁entrepr	-1257
▁matter	-1258
▁lim	-1259
▁discus	-1260
▁dou	-1261
ctor	-1262
▁conclu	-1263
▁put	-1264
wor	-1265
▁dit	-1266
▁indi	-1267
elf	-1268
land	-1269
▁imm	-1270
▁last	-1271
row	-1272
▁implement	-1273
▁nor	-1274
▁compr	-1275
près	-1276
ready	-1277
▁personnes	-1278
▁already	-1279
▁common	-1280
▁second	-1281
▁procéd	-1282
till	-1283
▁within	-1284
▁set	-1285
▁donn	-1286
ules	-1287
ality	-1288
he	-1289
▁organis	-1290
▁lis	-1291
▁concernant	-1292
▁your	-1293
esp	-1294
▁mis	-1295
atég	-1296
▁cha	-1297
▁both	-1298
▁raison	-1299
▁4	-1300
▁moy	-1301
▁suff	-1302
▁suc	-1303
▁ir	-1304
▁eng	-1305
accord	-1306
fois	-1307
▁system	-1308
ific	-1309
igr	-1310
▁contra	-1311
▁cooperation	-1312
▁toutes	-1313
tern	-1314
▁européens	-1315
▁représent	-1316
▁–	-1317
low	-1318
agit	-1319
▁dra	-1320
ild	-1321
aines	-1322
cts	-1323
▁relations	-1324
▁still	-1325
▁rev	-1326
pportun	-1327
ats	-1328
▁éle	-1329
▁ans	-1330
pri	-1331
▁fi	-1332
▁mrs	-1333
▁parce	-1334
▁bes	-1335
▁why	-1336
▁oc	-1337
ateg	-1338
quoi	-1339
ages	-1340
clar	-1341
▁respon	-1342
hing	-1343
▁energ	-1344
▁ph	-1345
duc	-1346
▁.	-1347
▁pourquoi	-1348
▁hope	-1349
ial	-1350
omme	-1351
▁fois	-1352
▁fur	-1353
▁own	-1354
▁posi	-1355
alth	-1356
▁employ	-1357
ler	-1358
▁auc	-1359
lob	-1360
▁differ	-1361
▁ful	-1362
comm	-1363
ouse	-1364
▁remerci	-1365
▁conséqu	-1366
▁off	-1367
▁dep	-1368
▁energy	-1369
▁present	-1370
▁course	-1371
lex	-1372
▁interest	-1373
▁projet	-1374
▁autres	-1375
▁law	-1376
▁instru	-1377
▁sein	-1378
▁auth	-1379
▁information	-1380
uis	-1381
mble	-1382
▁mention	-1383
▁ils	-1384
▁opportun	-1385
▁efforts	-1386
▁amende	-1387
dition	-1388
▁traité	-1389
▁beh	-1390
ieu	-1391
ticle	-1392
▁ensure	-1393
▁let	-1394
▁domaine	-1395
▁impro	-1396
▁thank	-1397
▁effet	-1398
▁secur	-1399
▁coopération	-1400
▁then	-1401
▁points	-1402
▁ceux	-1403
erv	-1404
▁vue	-1405
▁his	-1406
reed	-1407
bon	-1408
▁taken	-1409
▁moins	-1410
▁ret	-1411
ivers	-1412
▁z	-1413
▁mme	-1414
▁reas	-1415
▁area	-1416
▁système	-1417
▁exa	-1418
ene	-1419
▁glob	-1420
cted	-1421
▁grande	-1422
▁compte	-1423
oci	-1424
▁région	-1425
▁%	-1426
▁sujet	-1427
▁monde	-1428
omen	-1429
ordin	-1430
pl	-1431
▁case	-1432
▁inde	-1433
▁able	-1434
▁abs	-1435
▁ur	-1436
ré	-1437
▁trois	-1438
▁since	-1439
ret	-1440
era	-1441
▁particip	-1442
▁soul	-1443
▁activ	-1444
blig	-1445
▁med	-1446
▁règlement	-1447
▁réf	-1448
▁seulement	-1449
▁bal	-1450
homme	-1451
▁civ	-1452
él	-1453
lication	-1454
▁problèmes	-1455
éri	-1456
▁security	-1457
erc	-1458
▁fonds	-1459
▁fem	-1460
▁far	-1461
▁base	-1462
▁garanti	-1463
▁mom	-1464
▁effective	-1465
▁without	-1466
▁che	-1467
▁health	-1468
work	-1469
▁arr	-1470
▁necess	-1471
▁val	-1472
▁repres	-1473
▁mettre	-1474
▁cre	-1475
▁renfor	-1476
tiques	-1477
▁stratég	-1478
▁coh	-1479
ains	-1480
▁four	-1481
▁house	-1482
▁aspect	-1483
▁rédu	-1484
vision	-1485
▁sc	-1486
ièrement	-1487
▁tot	-1488
art	-1489
▁transpar	-1490
▁add	-1491
▁lo	-1492
lée	-1493
▁strateg	-1494
êt	-1495
hip	-1496
raph	-1497
▁recon	-1498
▁problem	-1499
▁fon	-1500
ital	-1501
▁possibil	-1502
▁stand	-1503
▁achieve	-1504
▁colle	-1505
▁ple	-1506
▁large	-1507
▁includ	-1508
▁author	-1509
▁solution	-1510
▁exist	-1511
▁help	-1512
ines	-1513
▁consom	-1514
▁demande	-1515
▁cli	-1516
▁mise	-1517
alog	-1518
▁treaty	-1519
▁government	-1520
ount	-1521
▁means	-1522
▁compe	-1523
▁number	-1524
▁proced	-1525
iens	-1526
▁gent	-1527
action	-1528
▁négoci	-1529
▁ask	-1530
▁gentlem	-1531
▁before	-1532
▁déput	-1533
▁fol	-1534
▁region	-1535
▁savoir	-1536
▁opin	-1537
▁résolution	-1538
▁moment	-1539
ether	-1540
ém	-1541
▁pouvoir	-1542
▁gouvernement	-1543
▁sous	-1544
▁mil	-1545
ian	-1546
▁vol	-1547
▁gentlemen	-1548
xte	-1549
▁allow	-1550
▁secteur	-1551
▁speci	-1552
▁emp	-1553
aucoup	-1554
▁deal	-1555
▁beaucoup	-1556
▁example	-1557
▁processus	-1558
▁avoir	-1559
▁sant	-1560
▁importance	-1561
alf	-1562
▁util	-1563
▁ladies	-1564
ition	-1565
utions	-1566
tim	-1567
▁legal	-1568
▁commer	-1569
▁lieu	-1570
▁given	-1571
▁mainten	-1572
▁invol	-1573
▁id	-1574
jours	-1575
▁programmes	-1576
▁progress	-1577
urer	-1578
▁toujours	-1579
▁jur	-1580
▁amendments	-1581
cisions	-1582
▁particulier	-1583
▁compé	-1584
aiss	-1585
bour	-1586
▁toutefois	-1587
▁prov	-1588
▁ele	-1589
oire	-1590
▁nature	-1591
emplo	-1592
▁autre	-1593
▁problems	-1594
▁exemple	-1595
▁devrait	-1596
▁inte	-1597
alisation	-1598
entes	-1599
agement	-1600
ément	-1601
goti	-1602
▁lut	-1603
asi	-1604
▁follow	-1605
▁constitution	-1606
▁introdu	-1607
▁rules	-1608
▁cours	-1609
▁dialog	-1610
▁ke	-1611
▁intér	-1612
▁spé	-1613
▁voul	-1614
▁lisbon	-1615
ability	-1616
▁women	-1617
▁clos	-1618
own	-1619
▁negoti	-1620
▁justice	-1621
▁soutien	-1622
▁aw	-1623
▁entreprises	-1624
▁call	-1625
▁lead	-1626
▁particularly	-1627
▁ten	-1628
▁issues	-1629
ood	-1630
▁consider	-1631
▁madam	-1632
▁bar	-1633
ront	-1634
▁competi	-1635
▁production	-1636
▁tax	-1637
▁déclar	-1638
▁notamment	-1639
ately	-1640
tement	-1641
quelle	-1642
▁laquelle	-1643
▁resolution	-1644
▁necessary	-1645
év	-1646
▁ress	-1647
▁comprom	-1648
semblée	-1649
▁conte	-1650
▁technolog	-1651
▁trade	-1652
▁prendre	-1653
▁hand	-1654
▁présidence	-1655
▁accept	-1656
▁mondi	-1657
▁oblig	-1658
▁equ	-1659
▁après	-1660
▁give	-1661
▁commune	-1662
▁continue	-1663
▁dialogue	-1664
▁ste	-1665
▁difficult	-1666
ablish	-1667
entif	-1668
▁votre	-1669
elon	-1670
▁rap	-1671
veur	-1672
met	-1673
érence	-1674
▁convention	-1675
▁attention	-1676
▁favour	-1677
▁wish	-1678
▁united	-1679
▁propositions	-1680
▁partie	-1681
▁bl	-1682
▁rôle	-1683
▁depuis	-1684
▁conn	-1685
▁contro	-1686
▁én	-1687
▁collègues	-1688
▁priv	-1689
▁faveur	-1690
▁after	-1691
▁docu	-1692
▁suiv	-1693
orer	-1694
▁sector	-1695
▁encour	-1696
▁fish	-1697
▁résul	-1698
oration	-1699
▁pouvons	-1700
vement	-1701
▁solid	-1702
▁décision	-1703
▁alors	-1704
ésion	-1705
▁areas	-1706
▁gra	-1707
▁opp	-1708
▁santé	-1709
▁recomm	-1710
▁mesure	-1711
ude	-1712
▁fondament	-1713
irm	-1714
▁nécessaire	-1715
▁presidency	-1716
▁culture	-1717
▁establish	-1718
ty	-1719
gment	-1720
▁besoin	-1721
pendant	-1722
issement	-1723
▁claire	-1724
irc	-1725
▁frame	-1726
▁decision	-1727
▁comment	-1728
▁loc	-1729
▁bi	-1730
ck	-1731
▁constru	-1732
▁soient	-1733
▁meet	-1734
ression	-1735
▁whether	-1736
leurs	-1737
▁jurid	-1738
▁wel	-1739
▁sm	-1740
aly	-1741
osition	-1742
▁sch	-1743
▁prév	-1744
▁refer	-1745
aî	-1746
tie	-1747
raient	-1748
▁fam	-1749
ft	-1750
▁femmes	-1751
▁fer	-1752
▁serait	-1753
▁appropri	-1754
▁consum	-1755
çon	-1756
▁atte	-1757
▁aim	-1758
▁specific	-1759
▁esp	-1760
▁require	-1761
200	-1762
▁further	-1763
opp	-1764
▁pay	-1765
da	-1766
▁appli	-1767
▁années	-1768
▁nouvelle	-1769
ird	-1770
▁increas	-1771
▁framework	-1772
nel	-1773
tin	-1774
▁amendements	-1775
▁ici	-1776
▁reconn	-1777
▁selon	-1778
▁face	-1779
▁recher	-1780
cing	-1781
▁fonction	-1782
▁reform	-1783
▁pow	-1784
▁objectifs	-1785
▁publi	-1786
uvre	-1787
cup	-1788
ss	-1789
▁6	-1790
▁next	-1791
▁provid	-1792
▁résultat	-1793
ières	-1794
ry	-1795
▁proposals	-1796
▁role	-1797
▁nouveau	-1798
▁unique	-1799
▁represent	-1800
▁criti	-1801
old	-1802
nent	-1803
▁circ	-1804
unis	-1805
▁fé	-1806
heure	-1807
▁soulign	-1808
▁serious	-1809
▁était	-1810
▁opinion	-1811
ties	-1812
avant	-1813
▁nations	-1814
ward	-1815
▁amendment	-1816
ôt	-1817
▁population	-1818
▁peuvent	-1819
état	-1820
cell	-1821
▁lui	-1822
ultural	-1823
▁basis	-1824
▁regulation	-1825
▁terms	-1826
▁promo	-1827
ning	-1828
iz	-1829
▁modi	-1830
▁wr	-1831
▁hom	-1832
mment	-1833
ationale	-1834
▁inf	-1835
▁défin	-1836
▁consommate	-1837
dic	-1838
environ	-1839
▁pris	-1840
isis	-1841
lément	-1842
ok	-1843
cipe	-1844
aill	-1845
▁ty	-1846
▁prac	-1847
été	-1848
▁rece	-1849
ducation	-1850
eff	-1851
▁vér	-1852
êche	-1853
▁utilis	-1854
▁millions	-1855
▁third	-1856
▁cependant	-1857
▁done	-1858
▁députés	-1859
ole	-1860
▁vic	-1861
▁grow	-1862
▁produits	-1863
▁better	-1864
soci	-1865
wards	-1866
▁sal	-1867
▁deuxième	-1868
▁tal	-1869
esse	-1870
side	-1871
ager	-1872
▁come	-1873
▁subject	-1874
▁liv	-1875
per	-1876
▁admin	-1877
oint	-1878
▁contrôle	-1879
istes	-1880
usement	-1881
▁présidente	-1882
▁crisis	-1883
▁équ	-1884
▁behalf	-1885
▁result	-1886
bles	-1887
ible	-1888
▁vra	-1889
erst	-1890
▁positive	-1891
▁accep	-1892
▁adopted	-1893
▁legislation	-1894
▁proch	-1895
▁meille	-1896
▁impos	-1897
▁different	-1898
▁happ	-1899
▁responsibil	-1900
▁parties	-1901
▁bus	-1902
▁solidar	-1903
▁subst	-1904
▁redu	-1905
gration	-1906
érieur	-1907
▁puis	-1908
▁open	-1909
▁quelques	-1910
▁enfin	-1911
▁permett	-1912
▁messieurs	-1913
▁word	-1914
▁crois	-1915
▁approach	-1916
▁crise	-1917
▁moyen	-1918
▁autor	-1919
other	-1920
▁coordin	-1921
▁dès	-1922
▁:	-1923
▁find	-1924
▁chang	-1925
▁façon	-1926
▁needs	-1927
▁elles	-1928
▁offic	-1929
vers	-1930
▁là	-1931
su	-1932
quel	-1933
▁stratégie	-1934
environnement	-1935
▁regul	-1936
▁force	-1937
amin	-1938
antes	-1939
étaire	-1940
▁strategy	-1941
▁few	-1942
▁7	-1943
▁félic	-1944
▁principe	-1945
▁ni	-1946
ieux	-1947
▁vers	-1948
imer	-1949
ateurs	-1950
ension	-1951
▁premier	-1952
▁actions	-1953
▁première	-1954
ergie	-1955
▁control	-1956
igration	-1957
acité	-1958
crit	-1959
ouve	-1960
▁signific	-1961
▁finance	-1962
▁8	-1963
▁real	-1964
▁sociale	-1965
itor	-1966
la	-1967
▁whole	-1968
dames	-1969
▁mesdames	-1970
▁tour	-1971
airs	-1972
▁absol	-1973
▁communication	-1974
▁freed	-1975
▁exper	-1976
earch	-1977
▁express	-1978
▁règles	-1979
▁satis	-1980
▁201	-1981
▁civil	-1982
▁fundament	-1983
elves	-1984
▁research	-1985
▁satisf	-1986
▁régions	-1987
▁réfor	-1988
▁terroris	-1989
▁constitu	-1990
▁reason	-1991
▁obs	-1992
▁génér	-1993
ctives	-1994
▁saf	-1995
▁sens	-1996
▁freedom	-1997
▁working	-1998
inter	-1999
ath	-2000
▁moi	-2001
▁individ	-2002
▁general	-2003
▁pêche	-2004
▁dés	-2005
imes	-2006
▁job	-2007
▁anim	-2008
▁project	-2009
▁amb	-2010
vious	-2011
▁réalis	-2012
▁guar	-2013
▁sus	-2014
▁employment	-2015
itable	-2016
▁initiative	-2017
atique	-2018
emploi	-2019
▁bonne	-2020
ep	-2021
▁three	-2022
êts	-2023
▁concerned	-2024
▁institution	-2025
▁liber	-2026
œuvre	-2027
ared	-2028
orth	-2029
▁sû	-2030
espère	-2031
érer	-2032
▁inst	-2033
▁aspects	-2034
▁forward	-2035
ule	-2036
gg	-2037
▁get	-2038
usion	-2039
ather	-2040
▁vari	-2041
▁another	-2042
aff	-2043
▁recherche	-2044
▁jou	-2045
avenir	-2046
oins	-2047
exp	-2048
▁améli	-2049
▁inves	-2050
istr	-2051
kes	-2052
att	-2053
▁underst	-2054
▁welcome	-2055
ctr	-2056
▁going	-2057
nements	-2058
▁européennes	-2059
▁spéci	-2060
▁nouveaux	-2061
000	-2062
ething	-2063
20	-2064
▁child	-2065
▁back	-2066
▁répons	-2067
▁croiss	-2068
▁during	-2069
▁9	-2070
▁something	-2071
▁milit	-2072
▁urg	-2073
▁?	-2074
▁sci	-2075
ordre	-2076
▁bene	-2077
▁million	-2078
▁towards	-2079
anis	-2080
nov	-2081
aide	-2082
▁account	-2083
▁hon	-2084
▁small	-2085
▁plu	-2086
▁fore	-2087
▁cal	-2088
▁remar	-2089
man	-2090
▁bo	-2091
▁excell	-2092
▁législation	-2093
leg	-2094
▁step	-2095
▁voted	-2096
▁affe	-2097
▁chaque	-2098
▁va	-2099
éné	-2100
endu	-2101
▁guarante	-2102
ement	-2103
▁parten	-2104
▁communautaire	-2105
▁qualité	-2106
▁terme	-2107
▁négociations	-2108
▁garantir	-2109
▁centr	-2110
gu	-2111
▁industry	-2112
▁adopt	-2113
▁celui	-2114
▁assemblée	-2115
▁celle	-2116
▁él	-2117
▁clairement	-2118
rions	-2119
▁lutte	-2120
ode	-2121
▁court	-2122
▁def	-2123
ength	-2124
▁pourrait	-2125
anc	-2126
▁bu	-2127
ours	-2128
iness	-2129
▁dél	-2130
▁safety	-2131
▁ide	-2132
ying	-2133
▁remercier	-2134
▁série	-2135
qué	-2136
▁maintenant	-2137
▁10	-2138
istance	-2139
▁current	-2140
▁nouvelles	-2141
▁clearly	-2142
▁jud	-2143
casion	-2144
▁structure	-2145
armon	-2146
▁plusieurs	-2147
ways	-2148
agne	-2149
▁fundamental	-2150
▁nombreux	-2151
lev	-2152
▁procedure	-2153
▁service	-2154
▁lorsque	-2155
▁principle	-2156
termin	-2157
▁peace	-2158
▁resources	-2159
▁dispos	-2160
▁compan	-2161
▁comple	-2162
inform	-2163
als	-2164
▁invest	-2165
▁procédure	-2166
entre	-2167
-0	-2168
▁trop	-2169
▁finally	-2170
▁consommateurs	-2171
▁toget	-2172
▁together	-2173
▁minister	-2174
ocr	-2175
cially	-2176
dam	-2177
▁mois	-2178
ends	-2179
jou	-2180
▁did	-2181
▁seront	-2182
▁down	-2183
▁sen	-2184
▁discuss	-2185
ession	-2186
rons	-2187
▁perspe	-2188
▁reach	-2189
▁dr	-2190
▁including	-2191
▁opportunity	-2192
▁proposed	-2193
▁really	-2194
eld	-2195
▁her	-2196
▁pal	-2197
▁shall	-2198
▁chose	-2199
▁once	-2200
▁donner	-2201
énergie	-2202
ira	-2203
▁hist	-2204
▁discussion	-2205
▁success	-2206
▁mul	-2207
▁pot	-2208
az	-2209
estion	-2210
▁funds	-2211
▁concurr	-2212
import	-2213
▁combat	-2214
oses	-2215
▁while	-2216
enda	-2217
▁œuvre	-2218
▁rou	-2219
▁exig	-2220
▁authorities	-2221
ater	-2222
▁read	-2223
▁voir	-2224
▁cru	-2225
▁béné	-2226
▁yet	-2227
▁certaines	-2228
▁aucun	-2229
▁strong	-2230
▁espe	-2231
▁used	-2232
▁quite	-2233
▁policies	-2234
▁less	-2235
off	-2236
▁provide	-2237
▁fourn	-2238
▁efficace	-2239
▁especially	-2240
▁victi	-2241
▁food	-2242
▁ap	-2243
indre	-2244
▁increase	-2245
▁voté	-2246
▁nécessité	-2247
tisse	-2248
▁affairs	-2249
▁juridique	-2250
fication	-2251
gn	-2252
ze	-2253
▁democratic	-2254
▁précis	-2255
▁«	-2256
▁législ	-2257
▁play	-2258
▁mor	-2259
▁poursu	-2260
util	-2261
▁understand	-2262
igne	-2263
/200	-2264
▁global	-2265
autre	-2266
ogn	-2267
▁rather	-2268
▁jusqu	-2269
ussions	-2270
▁negotiations	-2271
▁environmental	-2272
▁lang	-2273
tout	-2274
ationaux	-2275
▁addition	-2276
▁internal	-2277
▁adv	-2278
▁communauté	-2279
▁contribution	-2280
▁membre	-2281
▁vale	-2282
abord	-2283
▁recogn	-2284
cture	-2285
éc	-2286
▁rapide	-2287
▁rus	-2288
mbre	-2289
▁greater	-2290
▁000	-2291
▁char	-2292
▁cause	-2293
▁sing	-2294
ised	-2295
▁free	-2296
ger	-2297
▁business	-2298
ners	-2299
▁société	-2300
▁autorités	-2301
▁responsibility	-2302
cès	-2303
▁democracy	-2304
▁travaill	-2305
▁corre	-2306
atif	-2307
▁itself	-2308
▁become	-2309
▁cand	-2310
iting	-2311
▁bro	-2312
▁prix	-2313
▁discr	-2314
▁organisations	-2315
▁violence	-2316
▁éc	-2317
▁least	-2318
▁candid	-2319
ave	-2320
▁products	-2321
▁access	-2322
uge	-2323
▁bring	-2324
▁strength	-2325
▁reste	-2326
▁crimin	-2327
▁fl	-2328
▁visant	-2329
▁surtout	-2330
entr	-2331
▁constit	-2332
▁coû	-2333
▁regret	-2334
avantage	-2335
ness	-2336
agraph	-2337
▁sugg	-2338
itation	-2339
▁démocratie	-2340
▁enf	-2341
ey	-2342
▁effect	-2343
▁russi	-2344
▁show	-2345
▁indeed	-2346
▁ressources	-2347
ren	-2348
▁san	-2349
▁though	-2350
▁unf	-2351
▁facil	-2352
▁regions	-2353
▁extre	-2354
▁continu	-2355
▁liberté	-2356
▁étant	-2357
atis	-2358
erre	-2359
▁article	-2360
▁budg	-2361
amende	-2362
issent	-2363
▁speak	-2364
▁avez	-2365
▁discrimin	-2366
▁bénéfic	-2367
▁voulons	-2368
▁congr	-2369
ium	-2370
iser	-2371
▁condu	-2372
▁benef	-2373
▁obje	-2374
▁partners	-2375
▁war	-2376
▁eur	-2377
ily	-2378
▁ill	-2379
▁paragraph	-2380
▁divers	-2381
▁direct	-2382
▁répond	-2383
teurs	-2384
▁actuellement	-2385
▁15	-2386
▁train	-2387
▁excl	-2388
▁tiens	-2389
▁always	-2390
▁never	-2391
anger	-2392
agn	-2393
▁sem	-2394
▁making	-2395
ception	-2396
fi	-2397
▁having	-2398
▁gre	-2399
▁oper	-2400
▁économiques	-2401
aking	-2402
▁outre	-2403
▁table	-2404
▁apport	-2405
▁exerc	-2406
ablement	-2407
▁net	-2408
▁importante	-2409
▁tit	-2410
▁power	-2411
▁fron	-2412
▁growth	-2413
▁réponse	-2414
▁look	-2415
▁things	-2416
▁impact	-2417
▁society	-2418
▁summ	-2419
▁enl	-2420
▁potenti	-2421
▁taking	-2422
▁prot	-2423
article	-2424
économ	-2425
tres	-2426
▁responsabilité	-2427
▁instruments	-2428
▁essential	-2429
▁12	-2430
▁écrit	-2431
gin	-2432
▁associ	-2433
▁based	-2434
▁fis	-2435
ock	-2436
▁enti	-2437
be	-2438
▁croissance	-2439
▁conséquent	-2440
▁fais	-2441
▁each	-2442
▁interests	-2443
occup	-2444
▁isra	-2445
▁semble	-2446
ran	-2447
▁davantage	-2448
▁text	-2449
ensemble	-2450
▁implementation	-2451
▁accom	-2452
▁soutenir	-2453
▁énerg	-2454
time	-2455
ites	-2456
▁single	-2457
▁constat	-2458
▁pens	-2459
cteurs	-2460
▁réglement	-2461
▁sw	-2462
▁improve	-2463
▁economy	-2464
▁minor	-2465
▁2000	-2466
utes	-2467
▁travailleurs	-2468
titude	-2469
▁dernier	-2470
hésion	-2471
iation	-2472
▁aucune	-2473
▁justif	-2474
ète	-2475
orm	-2476
▁rien	-2477
though	-2478
▁document	-2479
▁various	-2480
▁concurrence	-2481
▁money	-2482
▁excellent	-2483
▁affaires	-2484
▁péri	-2485
▁press	-2486
▁although	-2487
uel	-2488
▁initiatives	-2489
ilib	-2490
ained	-2491
▁fight	-2492
co	-2493
▁déb	-2494
▁donné	-2495
aps	-2496
▁demander	-2497
▁pen	-2498
pt	-2499
ête	-2500
uve	-2501
▁relative	-2502
▁vig	-2503
▁prevent	-2504
▁appr	-2505
missions	-2506
▁bre	-2507
▁11	-2508
▁telle	-2509
▁environnement	-2510
▁instrument	-2511
tières	-2512
▁sûr	-2513
▁short	-2514
ased	-2515
▁anti	-2516
▁objective	-2517
▁internationale	-2518
▁fix	-2519
▁colleag	-2520
▁minim	-2521
trib	-2522
uss	-2523
▁wee	-2524
▁address	-2525
▁étr	-2526
em	-2527
▁souligner	-2528
endant	-2529
▁words	-2530
▁lit	-2531
▁volont	-2532
▁flex	-2533
▁création	-2534
over	-2535
▁month	-2536
▁constitue	-2537
▁among	-2538
▁foreign	-2539
ably	-2540
rès	-2541
▁domaines	-2542
▁progrès	-2543
▁orig	-2544
▁air	-2545
▁consult	-2546
iend	-2547
▁éch	-2548
▁following	-2549
▁mand	-2550
▁direction	-2551
ches	-2552
▁sorte	-2553
▁souvent	-2554
▁ear	-2555
▁type	-2556
▁competition	-2557
▁différents	-2558
▁palest	-2559
▁analy	-2560
▁conclusion	-2561
▁coordination	-2562
▁sec	-2563
aix	-2564
aluation	-2565
▁creat	-2566
▁sust	-2567
▁extr	-2568
▁six	-2569
▁paix	-2570
▁propose	-2571
ets	-2572
▁augment	-2573
rely	-2574
▁dernière	-2575
▁final	-2576
▁workers	-2577
▁children	-2578
▁pau	-2579
▁mobil	-2580
▁gestion	-2581
quie	-2582
▁det	-2583
▁participation	-2584
▁qual	-2585
▁bure	-2586
éch	-2587
▁harmon	-2588
▁chin	-2589
iod	-2590
▁mess	-2591
fer	-2592
▁aura	-2593
▁period	-2594
▁termes	-2595
▁concl	-2596
▁avis	-2597
▁emph	-2598
▁renforcer	-2599
▁full	-2600
ove	-2601
▁scientif	-2602
▁avait	-2603
thing	-2604
▁spécif	-2605
▁texte	-2606
▁dispo	-2607
ortun	-2608
▁involved	-2609
▁consequ	-2610
▁mieux	-2611
▁seul	-2612
▁lesqu	-2613
▁objectives	-2614
▁field	-2615
▁concerns	-2616
▁chall	-2617
▁déc	-2618
▁popul	-2619
▁joint	-2620
▁commerce	-2621
▁happen	-2622
▁quant	-2623
▁souhaite	-2624
amendement	-2625
▁clim	-2626
▁destin	-2627
▁trouver	-2628
▁congrat	-2629
▁cla	-2630
▁rural	-2631
▁examin	-2632
▁strengthen	-2633
▁décisions	-2634
▁agreements	-2635
▁restric	-2636
▁congratul	-2637
ienne	-2638
ick	-2639
▁certainly	-2640
adop	-2641
▁cat	-2642
▁dét	-2643
ateur	-2644
▁tom	-2645
▁discussions	-2646
▁égard	-2647
▁regional	-2648
velopp	-2649
▁fran	-2650
▁mean	-2651
▁décid	-2652
▁peup	-2653
accept	-2654
▁permette	-2655
▁rom	-2656
▁fig	-2657
▁données	-2658
▁companies	-2659
êmes	-2660
▁compris	-2661
argissement	-2662
étique	-2663
ade	-2664
▁profession	-2665
eux	-2666
appro	-2667
▁aliment	-2668
▁ait	-2669
▁care	-2670
▁life	-2671
isme	-2672
▁individual	-2673
enc	-2674
intér	-2675
organ	-2676
▁résultats	-2677
▁standards	-2678
▁defin	-2679
▁agenda	-2680
▁existe	-2681
▁dim	-2682
▁appe	-2683
▁traite	-2684
▁recent	-2685
atic	-2686
▁best	-2687
▁libre	-2688
▁balance	-2689
▁lequel	-2690
▁lisbonne	-2691
nelle	-2692
▁resul	-2693
ister	-2694
▁pros	-2695
▁quality	-2696
▁afric	-2697
▁enfants	-2698
erve	-2699
▁développ	-2700
▁event	-2701
▁commercial	-2702
▁increasing	-2703
▁possibilité	-2704
iterran	-2705
▁moyens	-2706
même	-2707
▁camp	-2708
▁france	-2709
▁nécessaires	-2710
édi	-2711
▁quand	-2712
▁infr	-2713
▁active	-2714
▁choses	-2715
▁sustain	-2716
▁central	-2717
▁fully	-2718
▁often	-2719
▁impli	-2720
▁prés	-2721
▁créer	-2722
▁decisions	-2723
▁agricultural	-2724
▁publique	-2725
▁solutions	-2726
▁objectif	-2727
unes	-2728
▁adopté	-2729
▁étrang	-2730
▁acces	-2731
▁resol	-2732
▁inté	-2733
▁appar	-2734
tivité	-2735
▁majority	-2736
▁extrem	-2737
aise	-2738
aboration	-2739
▁avail	-2740
▁simply	-2741
▁permettre	-2742
ub	-2743
key	-2744
▁voie	-2745
▁oppos	-2746
▁rappel	-2747
▁année	-2748
▁quelque	-2749
▁enlarge	-2750
▁farm	-2751
▁nombreuses	-2752
▁considér	-2753
novation	-2754
▁financement	-2755
▁période	-2756
mit	-2757
aur	-2758
▁accords	-2759
objec	-2760
▁groupes	-2761
▁portug	-2762
▁feel	-2763
▁devraient	-2764
▁origin	-2765
▁consci	-2766
ibil	-2767
▁groups	-2768
▁suffis	-2769
▁dat	-2770
▁confer	-2771
ventions	-2772
inté	-2773
rent	-2774
▁kind	-2775
▁pat	-2776
▁actuelle	-2777
▁normes	-2778
ceed	-2779
▁education	-2780
▁tel	-2781
▁général	-2782
▁méd	-2783
▁majorité	-2784
▁extremely	-2785
istan	-2786
▁sim	-2787
ires	-2788
moi	-2789
ls	-2790
▁ratif	-2791
▁turkey	-2792
application	-2793
▁aware	-2794
mage	-2795
▁legisl	-2796
onn	-2797
istra	-2798
▁significant	-2799
industr	-2800
▁special	-2801
▁humanit	-2802
▁relation	-2803
erman	-2804
fs	-2805
▁remercie	-2806
uelle	-2807
▁projets	-2808
astru	-2809
..	-2810
▁application	-2811
▁sommet	-2812
année	-2813
▁context	-2814
importance	-2815
haps	-2816
▁perhaps	-2817
▁administra	-2818
▁climate	-2819
▁found	-2820
▁proté	-2821
améli	-2822
▁explo	-2823
adhésion	-2824
▁devrions	-2825
information	-2826
▁conclusions	-2827
▁local	-2828
▁party	-2829
▁enlargement	-2830
élé	-2831
▁simplement	-2832
).	-2833
▁comb	-2834
▁compromis	-2835
reg	-2836
▁juste	-2837
ones	-2838
iller	-2839
▁risk	-2840
▁create	-2841
xim	-2842
▁concerning	-2843
▁souten	-2844
aît	-2845
▁extrême	-2846
▁diffici	-2847
▁actually	-2848
▁might	-2849
ica	-2850
▁foc	-2851
▁réforme	-2852
▁ago	-2853
term	-2854
▁préoccup	-2855
ueur	-2856
▁developing	-2857
cident	-2858
▁day	-2859
▁pur	-2860
▁turquie	-2861
▁marchés	-2862
▁assess	-2863
semble	-2864
▁malheure	-2865
ograph	-2866
▁begin	-2867
▁unfortun	-2868
▁complete	-2869
▁continuer	-2870
gré	-2871
ither	-2872
▁démocratique	-2873
▁propre	-2874
▁practic	-2875
qui	-2876
mi	-2877
▁permettez	-2878
oles	-2879
▁cos	-2880
▁receive	-2881
▁nationaux	-2882
thers	-2883
gence	-2884
▁subsi	-2885
▁essentiel	-2886
enne	-2887
▁aille	-2888
▁currently	-2889
▁territ	-2890
▁del	-2891
▁russie	-2892
▁titre	-2893
▁orient	-2894
▁25	-2895
▁eux	-2896
urd	-2897
érale	-2898
tir	-2899
orted	-2900
▁jobs	-2901
▁connaiss	-2902
ote	-2903
▁mentioned	-2904
▁tent	-2905
▁uk	-2906
ling	-2907
économie	-2908
▁mot	-2909
▁jam	-2910
udes	-2911
▁maint	-2912
▁forces	-2913
tant	-2914
▁available	-2915
▁font	-2916
industrie	-2917
▁start	-2918
▁protect	-2919
▁ensemble	-2920
▁guarantee	-2921
▁danger	-2922
▁meeting	-2923
▁petit	-2924
▁total	-2925
▁others	-2926
eless	-2927
▁seule	-2928
▁cy	-2929
▁naturel	-2930
▁consumers	-2931
▁apply	-2932
▁crucial	-2933
▁key	-2934
▁consumer	-2935
▁stric	-2936
▁dépens	-2937
▁compl	-2938
▁intérêts	-2939
▁den	-2940
▁obten	-2941
▁plut	-2942
▁results	-2943
▁expl	-2944
less	-2945
▁financière	-2946
wh	-2947
▁14	-2948
▁tiers	-2949
▁stabilité	-2950
▁discrimination	-2951
▁palestin	-2952
▁emphas	-2953
role	-2954
gar	-2955
aces	-2956
▁proper	-2957
▁russia	-2958
▁recommend	-2959
▁red	-2960
ism	-2961
▁contexte	-2962
▁ailleurs	-2963
▁élev	-2964
▁stability	-2965
▁vraiment	-2966
▁conférence	-2967
▁answ	-2968
▁enter	-2969
▁appropriate	-2970
âce	-2971
▁raisons	-2972
▁dispositions	-2973
yp	-2974
▁due	-2975
▁grâce	-2976
▁signal	-2977
▁remain	-2978
uring	-2979
imm	-2980
▁jamais	-2981
▁entendu	-2982
nous	-2983
▁signif	-2984
▁malheureusement	-2985
▁conference	-2986
asse	-2987
▁kos	-2988
enci	-2989
▁capital	-2990
▁message	-2991
▁inten	-2992
".	-2993
aged	-2994
▁lorsqu	-2995
▁réalité	-2996
tle	-2997
▁celles	-2998
used	-2999
objectif	-3000
▁quat	-3001
▁chers	-3002
▁secondly	-3003
▁draw	-3004
▁agriculture	-3005
▁suite	-3006
utilisation	-3007
vi	-3008
▁intérieur	-3009
▁management	-3010
▁data	-3011
▁principes	-3012
ps	-3013
▁sud	-3014
▁em	-3015
▁tas	-3016
▁fall	-3017
▁kosov	-3018
▁contraire	-3019
▁difficile	-3020
▁plutôt	-3021
tile	-3022
▁labour	-3023
▁clair	-3024
▁export	-3025
▁déch	-3026
▁fort	-3027
▁responsible	-3028
clear	-3029
▁pratique	-3030
▁crit	-3031
▁convient	-3032
▁rule	-3033
▁observ	-3034
ument	-3035
▁conflic	-3036
▁changement	-3037
▁lat	-3038
acceptable	-3039
▁simpli	-3040
issant	-3041
▁confirm	-3042
▁parler	-3043
▁cô	-3044
▁cases	-3045
▁compéti	-3046
resp	-3047
▁carr	-3048
▁doing	-3049
▁favor	-3050
mselves	-3051
▁themselves	-3052
▁summit	-3053
▁doute	-3054
euros	-3055
▁confl	-3056
élargissement	-3057
ture	-3058
▁indic	-3059
▁monitor	-3060
▁confi	-3061
▁months	-3062
▁ira	-3063
▁firstly	-3064
uite	-3065
▁2007	-3066
aître	-3067
▁30	-3068
abit	-3069
▁contrô	-3070
avoir	-3071
onstr	-3072
▁approche	-3073
▁matters	-3074
▁systems	-3075
▁jan	-3076
▁poursuiv	-3077
▁pendant	-3078
▁extrêmement	-3079
▁déclaration	-3080
cs	-3081
▁activités	-3082
▁writing	-3083
▁needed	-3084
to	-3085
atory	-3086
▁him	-3087
cement	-3088
▁détermin	-3089
▁évid	-3090
▁german	-3091
▁conten	-3092
clé	-3093
▁rendre	-3094
▁rejet	-3095
▁formul	-3096
ban	-3097
▁sais	-3098
arian	-3099
▁thing	-3100
▁informations	-3101
▁compromise	-3102
istration	-3103
▁regarding	-3104
rain	-3105
▁independ	-3106
▁solidarity	-3107
épend	-3108
▁dernières	-3109
▁troisième	-3110
▁cin	-3111
▁request	-3112
▁relig	-3113
▁personne	-3114
▁brit	-3115
ibles	-3116
▁principles	-3117
▁simple	-3118
▁transparence	-3119
▁enough	-3120
▁expect	-3121
▁rapidement	-3122
▁vu	-3123
égalité	-3124
▁pap	-3125
▁répondre	-3126
▁attend	-3127
▁conform	-3128
arr	-3129
▁mondiale	-3130
▁trouv	-3131
▁reasons	-3132
uv	-3133
▁build	-3134
inst	-3135
▁tels	-3136
▁aide	-3137
ène	-3138
hic	-3139
most	-3140
▁envis	-3141
▁risque	-3142
▁above	-3143
anm	-3144
▁ouver	-3145
▁complex	-3146
▁keep	-3147
▁prob	-3148
▁mer	-3149
▁voter	-3150
▁durable	-3151
▁conséquences	-3152
▁super	-3153
▁ev	-3154
mpl	-3155
▁volonté	-3156
▁budgétaire	-3157
▁13	-3158
▁reports	-3159
▁ministre	-3160
▁kosovo	-3161
▁recommand	-3162
▁according	-3163
▁oct	-3164
▁assistance	-3165
▁établ	-3166
ilat	-3167
▁promotion	-3168
office	-3169
▁regards	-3170
▁réduire	-3171
▁date	-3172
▁governments	-3173
dire	-3174
▁ay	-3175
▁ital	-3176
▁projects	-3177
▁unfortunately	-3178
▁puisse	-3179
▁nationales	-3180
),	-3181
▁supplément	-3182
ué	-3183
▁costs	-3184
▁amer	-3185
▁broad	-3186
▁zone	-3187
sh	-3188
▁rapports	-3189
eau	-3190
dem	-3191
▁youn	-3192
effic	-3193
▁note	-3194
ody	-3195
▁ju	-3196
▁nothing	-3197
▁div	-3198
▁longer	-3199
intérêt	-3200
atifs	-3201
quent	-3202
visions	-3203
▁différentes	-3204
mission	-3205
cle	-3206
▁mut	-3207
▁guid	-3208
▁vois	-3209
eries	-3210
ortion	-3211
ffic	-3212
agric	-3213
ross	-3214
▁achieved	-3215
iew	-3216
veness	-3217
▁sever	-3218
▁threat	-3219
▁encourage	-3220
▁considéra	-3221
▁devant	-3222
quet	-3223
▁basi	-3224
▁influ	-3225
ering	-3226
▁contribuer	-3227
anim	-3228
▁funding	-3229
▁chance	-3230
▁réjou	-3231
▁preuve	-3232
ists	-3233
rup	-3234
▁draft	-3235
▁systèmes	-3236
▁formation	-3237
▁structural	-3238
▁infrastru	-3239
▁activities	-3240
▁adap	-3241
▁lack	-3242
▁perspective	-3243
▁prep	-3244
▁priority	-3245
fier	-3246
▁gaz	-3247
▁collègue	-3248
▁dimension	-3249
▁discut	-3250
▁médi	-3251
▁heure	-3252
▁she	-3253
▁liberal	-3254
▁demonstr	-3255
▁caract	-3256
▁nuclear	-3257
▁solidarité	-3258
avons	-3259
▁stress	-3260
▁sure	-3261
▁commitment	-3262
▁documents	-3263
ience	-3264
▁appel	-3265
ides	-3266
▁peux	-3267
▁bul	-3268
▁const	-3269
▁doub	-3270
▁sep	-3271
▁gouvernements	-3272
▁pack	-3273
▁move	-3274
uations	-3275
orrow	-3276
▁idea	-3277
▁intervention	-3278
▁investment	-3279
▁basic	-3280
▁cohes	-3281
ariat	-3282
▁little	-3283
▁legislative	-3284
▁judici	-3285
encer	-3286
initi	-3287
▁amér	-3288
▁true	-3289
▁sustainable	-3290
▁organisation	-3291
pens	-3292
▁ambiti	-3293
né	-3294
▁charg	-3295
▁fondamentaux	-3296
▁budgets	-3297
▁altern	-3298
▁convain	-3299
▁entra	-3300
▁ceci	-3301
ossi	-3302
▁condition	-3303
▁obvious	-3304
▁applic	-3305
tiveness	-3306
▁er	-3307
▁past	-3308
▁head	-3309
truction	-3310
▁promote	-3311
▁young	-3312
▁sex	-3313
▁demain	-3314
▁meilleure	-3315
lle	-3316
▁nuclé	-3317
ark	-3318
▁manif	-3319
▁savons	-3320
▁gener	-3321
▁slo	-3322
▁line	-3323
▁jeunes	-3324
▁criter	-3325
▁low	-3326
▁thus	-3327
emb	-3328
▁argu	-3329
aud	-3330
▁congratulate	-3331
temps	-3332
▁frontières	-3333
▁défense	-3334
▁several	-3335
af	-3336
▁modern	-3337
anmoins	-3338
▁néanmoins	-3339
▁provided	-3340
▁simil	-3341
▁libér	-3342
▁road	-3343
▁extern	-3344
▁appelle	-3345
▁sanctions	-3346
▁féliciter	-3347
▁cohésion	-3348
▁méc	-3349
▁histor	-3350
▁telles	-3351
▁unies	-3352
▁mind	-3353
ris	-3354
▁consens	-3355
▁markets	-3356
▁norm	-3357
▁-,	-3358
▁cher	-3359
▁surve	-3360
ton	-3361
▁confiance	-3362
▁précéd	-3363
▁régime	-3364
▁desp	-3365
▁cohesion	-3366
▁cost	-3367
hen	-3368
▁directives	-3369
▁fair	-3370
▁transparency	-3371
ctement	-3372
▁pleine	-3373
▁aurait	-3374
▁relev	-3375
agriculture	-3376
▁forme	-3377
cé	-3378
▁tar	-3379
▁prim	-3380
▁peti	-3381
ended	-3382
▁previous	-3383
oires	-3384
▁début	-3385
▁critères	-3386
▁représente	-3387
▁estim	-3388
prit	-3389
▁fail	-3390
▁clari	-3391
▁indis	-3392
èle	-3393
▁taux	-3394
▁ensuite	-3395
▁confid	-3396
accès	-3397
▁technologies	-3398
▁agricole	-3399
coming	-3400
oid	-3401
tent	-3402
uit	-3403
gra	-3404
▁include	-3405
▁cho	-3406
▁eas	-3407
▁extra	-3408
▁respe	-3409
▁trouve	-3410
ancer	-3411
▁nav	-3412
▁vigueur	-3413
▁affect	-3414
▁tomorrow	-3415
▁external	-3416
▁ours	-3417
venus	-3418
ars	-3419
▁share	-3420
the	-3421
▁makes	-3422
▁plans	-3423
▁assurer	-3424
▁crime	-3425
▁budgetary	-3426
▁log	-3427
▁agreed	-3428
objet	-3429
▁tradition	-3430
▁fisheries	-3431
▁reconnaiss	-3432
▁procédures	-3433
ontre	-3434
▁réduction	-3435
▁post	-3436
▁week	-3437
▁coup	-3438
itime	-3439
▁conne	-3440
liquer	-3441
▁parmi	-3442
/9	-3443
▁2004	-3444
hod	-3445
▁nam	-3446
▁cop	-3447
▁importants	-3448
▁integration	-3449
▁everyone	-3450
illes	-3451
liance	-3452
fully	-3453
▁bill	-3454
▁guerre	-3455
▁véritable	-3456
▁seen	-3457
▁safe	-3458
▁occasion	-3459
▁promouv	-3460
▁passé	-3461
▁perman	-3462
▁énergétique	-3463
lande	-3464
▁univers	-3465
ledge	-3466
▁identif	-3467
part	-3468
▁soon	-3469
▁absolute	-3470
▁consensus	-3471
▁minutes	-3472
ève	-3473
intégration	-3474
▁tran	-3475
▁signifie	-3476
▁valeurs	-3477
▁until	-3478
ief	-3479
▁rend	-3480
anted	-3481
▁experience	-3482
▁distrib	-3483
▁comes	-3484
▁mort	-3485
▁rapporteurs	-3486
▁prises	-3487
idemment	-3488
ix	-3489
edi	-3490
oph	-3491
hn	-3492
▁terrorisme	-3493
ake	-3494
▁relatives	-3495
▁analys	-3496
▁exprim	-3497
by	-3498
▁2009	-3499
roph	-3500
▁south	-3501
ench	-3502
▁poll	-3503
▁travers	-3504
▁évidemment	-3505
▁ge	-3506
▁construction	-3507
▁sociaux	-3508
▁technical	-3509
▁méth	-3510
▁financières	-3511
▁propres	-3512
▁voting	-3513
va	-3514
▁temp	-3515
▁exercice	-3516
▁response	-3517
▁équilib	-3518
▁améric	-3519
▁decid	-3520
▁method	-3521
▁protoc	-3522
▁upon	-3523
▁accession	-3524
stac	-3525
▁quot	-3526
ester	-3527
▁motion	-3528
▁colleagues	-3529
ster	-3530
▁police	-3531
▁benefit	-3532
▁accomp	-3533
▁certainement	-3534
▁terrorism	-3535
ha	-3536
▁dist	-3537
▁50	-3538
▁refus	-3539
▁prochaine	-3540
▁turn	-3541
▁capac	-3542
▁réellement	-3543
ising	-3544
line	-3545
tien	-3546
ource	-3547
▁confront	-3548
ature	-3549
▁terror	-3550
▁nord	-3551
arer	-3552
▁uniquement	-3553
venu	-3554
ators	-3555
▁élections	-3556
▁pauvre	-3557
▁prépar	-3558
▁investisse	-3559
cent	-3560
▁faud	-3561
▁times	-3562
▁im	-3563
lin	-3564
▁rappeler	-3565
▁victimes	-3566
▁review	-3567
▁bank	-3568
▁partage	-3569
▁journ	-3570
▁quoi	-3571
▁changes	-3572
▁1999	-3573
occasion	-3574
▁autant	-3575
adoption	-3576
▁présente	-3577
initiative	-3578
▁septe	-3579
▁bord	-3580
argent	-3581
ri	-3582
▁prise	-3583
raine	-3584
aster	-3585
▁values	-3586
▁promouvoir	-3587
iture	-3588
▁centra	-3589
▁partnership	-3590
▁depend	-3591
ume	-3592
▁veut	-3593
diction	-3594
▁regulations	-3595
▁seems	-3596
▁mission	-3597
▁close	-3598
▁;	-3599
▁mécanis	-3600
▁refle	-3601
▁practice	-3602
udi	-3603
▁elections	-3604
▁answer	-3605
▁reç	-3606
▁criteria	-3607
▁manque	-3608
▁provisions	-3609
▁pover	-3610
▁poverty	-3611
érieure	-3612
▁flexibil	-3613
▁existing	-3614
▁pleased	-3615
▁obligations	-3616
▁vital	-3617
ered	-3618
▁sources	-3619
était	-3620
▁emb	-3621
nelles	-3622
érieures	-3623
▁debat	-3624
▁hold	-3625
▁mech	-3626
▁despite	-3627
▁2006	-3628
▁présenter	-3629
▁tenir	-3630
self	-3631
▁famil	-3632
olid	-3633
ications	-3634
▁18	-3635
▁grandes	-3636
▁procedures	-3637
ctors	-3638
ailleurs	-3639
▁améliorer	-3640
▁code	-3641
▁avoid	-3642
▁north	-3643
▁repe	-3644
▁equal	-3645
▁integr	-3646
rog	-3647
▁maxim	-3648
▁concept	-3649
▁tell	-3650
▁financiers	-3651
▁contact	-3652
▁hard	-3653
▁‘	-3654
▁israel	-3655
▁parvenir	-3656
▁arm	-3657
▁dan	-3658
léments	-3659
▁obstac	-3660
▁purp	-3661
▁2008	-3662
▁dossi	-3663
▁dési	-3664
▁protéger	-3665
▁trag	-3666
▁ourselves	-3667
enh	-3668
▁minimum	-3669
▁souhaiter	-3670
▁dut	-3671
rir	-3672
▁porte	-3673
▁subsidi	-3674
astroph	-3675
▁veiller	-3676
▁dois	-3677
▁nove	-3678
▁évo	-3679
▁transports	-3680
uels	-3681
▁along	-3682
limin	-3683
erver	-3684
▁honour	-3685
mpt	-3686
mploy	-3687
tig	-3688
▁quelle	-3689
▁respecter	-3690
▁gree	-3691
▁star	-3692
▁2010	-3693
▁coûts	-3694
▁test	-3695
▁mechanis	-3696
▁statement	-3697
▁concr	-3698
▁assur	-3699
iés	-3700
▁catastroph	-3701
▁incom	-3702
etary	-3703
▁everything	-3704
iennent	-3705
▁unemploy	-3706
▁china	-3707
urn	-3708
▁water	-3709
▁farmers	-3710
▁chac	-3711
▁quick	-3712
▁centrale	-3713
▁focus	-3714
▁compens	-3715
yn	-3716
▁illeg	-3717
▁rempl	-3718
▁2005	-3719
éré	-3720
▁priorité	-3721
yl	-3722
▁cultural	-3723
▁compét	-3724
▁increased	-3725
▁engage	-3726
▁statis	-3727
▁statut	-3728
▁left	-3729
▁talk	-3730
▁saying	-3731
vous	-3732
iner	-3733
▁military	-3734
▁deuxièmement	-3735
▁résol	-3736
▁pauvreté	-3737
ought	-3738
orient	-3739
éducation	-3740
▁priorités	-3741
▁mér	-3742
▁creation	-3743
efficacité	-3744
▁tend	-3745
▁éléments	-3746
▁opportunities	-3747
▁capit	-3748
prises	-3749
▁carried	-3750
▁absolument	-3751
▁chô	-3752
▁element	-3753
▁petites	-3754
▁résoud	-3755
▁concentr	-3756
cide	-3757
tead	-3758
▁monetary	-3759
orig	-3760
▁asked	-3761
▁training	-3762
▁save	-3763
cul	-3764
▁instead	-3765
uf	-3766
▁publics	-3767
▁mid	-3768
▁dépos	-3769
▁content	-3770
▁sensi	-3771
▁chine	-3772
▁montr	-3773
▁hear	-3774
▁zones	-3775
▁loin	-3776
▁inqui	-3777
▁malgré	-3778
▁pén	-3779
▁communautaires	-3780
▁commencer	-3781
▁impossible	-3782
▁consequences	-3783
▁collaboration	-3784
▁tâ	-3785
▁langu	-3786
▁financier	-3787
▁17	-3788
▁tabled	-3789
▁acqu	-3790
▁item	-3791
▁milli	-3792
▁référence	-3793
▁laiss	-3794
▁accepter	-3795
▁étaient	-3796
▁précisément	-3797
estime	-3798
▁ign	-3799
▁pac	-3800
tient	-3801
uly	-3802
▁relating	-3803
▁held	-3804
5-0	-3805
▁challeng	-3806
na	-3807
▁réunion	-3808
▁personnel	-3809
▁indispens	-3810
▁centre	-3811
tip	-3812
▁compet	-3813
▁cut	-3814
▁amendement	-3815
introdu	-3816
▁concil	-3817
▁ground	-3818
lier	-3819
▁namely	-3820
▁requirements	-3821
▁fishing	-3822
▁reduce	-3823
ght	-3824
▁2003	-3825
▁target	-3826
▁parliamentary	-3827
▁throughout	-3828
▁hommes	-3829
▁sense	-3830
▁sort	-3831
▁difficul	-3832
▁enable	-3833
▁sociales	-3834
▁fun	-3835
▁exception	-3836
▁pert	-3837
▁permis	-3838
jus	-3839
▁consultation	-3840
▁totalement	-3841
▁required	-3842
▁votes	-3843
▁travailler	-3844
▁substanti	-3845
▁secteurs	-3846
uary	-3847
▁either	-3848
▁dépenses	-3849
iver	-3850
▁carry	-3851
▁pati	-3852
▁undert	-3853
▁presented	-3854
▁dû	-3855
avis	-3856
▁vrai	-3857
▁correct	-3858
▁immigration	-3859
aging	-3860
▁réformes	-3861
▁rich	-3862
▁britann	-3863
▁parole	-3864
uni	-3865
▁grands	-3866
▁16	-3867
▁substances	-3868
▁spee	-3869
▁conver	-3870
▁quatre	-3871
▁générale	-3872
▁session	-3873
origine	-3874
▁demandé	-3875
▁compar	-3876
▁gas	-3877
▁dam	-3878
▁tre	-3879
▁tim	-3880
endum	-3881
▁dir	-3882
▁viv	-3883
sterdam	-3884
▁closed	-3885
▁highl	-3886
▁urgent	-3887
▁monitoring	-3888
voy	-3889
▁value	-3890
▁fell	-3891
▁déce	-3892
▁stage	-3893
▁paragraphe	-3894
▁gens	-3895
▁2002	-3896
▁immedi	-3897
▁subsidiar	-3898
▁administrative	-3899
▁conserv	-3900
▁partenaires	-3901
▁condam	-3902
umer	-3903
▁développer	-3904
▁join	-3905
aucra	-3906
igrants	-3907
▁autom	-3908
▁task	-3909
oss	-3910
▁pourra	-3911
▁movement	-3912
▁tenu	-3913
▁qualif	-3914
▁dér	-3915
▁industri	-3916
▁around	-3917
▁pil	-3918
▁importantes	-3919
▁ec	-3920
▁pratiques	-3921
▁sport	-3922
▁purs	-3923
▁prepar	-3924
▁thanks	-3925
▁trib	-3926
▁cross	-3927
▁proposé	-3928
▁relevant	-3929
sez	-3930
▁maje	-3931
▁touch	-3932
▁priorities	-3933
▁furth	-3934
▁traitement	-3935
▁remind	-3936
êtes	-3937
fait	-3938
organisation	-3939
▁poor	-3940
▁haut	-3941
aining	-3942
▁produc	-3943
ighbour	-3944
▁conflict	-3945
▁résoudre	-3946
omb	-3947
▁lab	-3948
▁considération	-3949
▁doubt	-3950
▁called	-3951
▁produit	-3952
▁traffic	-3953
▁situations	-3954
▁peuple	-3955
▁barro	-3956
▁neighbour	-3957
ontal	-3958
égard	-3959
▁intéress	-3960
▁bureaucra	-3961
▁adoption	-3962
▁five	-3963
",	-3964
érien	-3965
▁difficultés	-3966
▁old	-3967
immigration	-3968
▁ven	-3969
▁vos	-3970
▁democr	-3971
▁iran	-3972
▁dipl	-3973
▁furtherm	-3974
▁furthermore	-3975
▁live	-3976
▁pleinement	-3977
▁approuv	-3978
▁créd	-3979
▁vice	-3980
engen	-3981
▁perspectives	-3982
▁dépend	-3983
étaires	-3984
▁prepared	-3985
▁decided	-3986
▁consolid	-3987
'.	-3988
▁capacité	-3989
ié	-3990
bal	-3991
▁présenté	-3992
▁positions	-3993
▁valeur	-3994
▁potential	-3995
▁voil	-3996
▁semaine	-3997
▁pren	-3998
org	-3999
▁using	-4000
▁across	-4001
oit	-4002
▁dise	-4003
▁partenariat	-4004
▁syn	-4005
▁schengen	-4006
▁octob	-4007
▁transition	-4008
▁leaders	-4009
▁lecture	-4010
ania	-4011
▁ppe	-4012
rich	-4013
▁climatique	-4014
▁courage	-4015
▁van	-4016
oking	-4017
▁succès	-4018
▁stud	-4019
▁pressure	-4020
▁influence	-4021
ber	-4022
▁acceptable	-4023
▁package	-4024
▁lesquels	-4025
ean	-4026
iger	-4027
▁recently	-4028
enn	-4029
▁rene	-4030
▁offer	-4031
rier	-4032
▁lear	-4033
▁procès	-4034
inves	-4035
▁chacun	-4036
oque	-4037
▁east	-4038
▁entraî	-4039
établ	-4040
▁2020	-4041
▁côté	-4042
▁franç	-4043
nels	-4044
▁reached	-4045
▁continent	-4046
▁attitude	-4047
▁allem	-4048
▁pourtant	-4049
▁rig	-4050
ige	-4051
ublic	-4052
▁home	-4053
▁puissent	-4054
▁2001	-4055
▁profit	-4056
▁mondial	-4057
▁talking	-4058
▁exch	-4059
▁suffic	-4060
▁raised	-4061
▁consist	-4062
▁limit	-4063
▁monétaire	-4064
▁permettant	-4065
▁expressed	-4066
ruption	-4067
▁fre	-4068
ination	-4069
ending	-4070
▁waste	-4071
▁félicite	-4072
▁powers	-4073
▁voilà	-4074
▁defence	-4075
▁balk	-4076
assemblée	-4077
▁venir	-4078
▁vient	-4079
▁consac	-4080
▁considère	-4081
▁voy	-4082
▁death	-4083
▁sufficient	-4084
idée	-4085
atiques	-4086
▁merci	-4087
▁fiscal	-4088
cise	-4089
▁parlementaire	-4090
▁occup	-4091
▁cinq	-4092
▁risques	-4093
▁levels	-4094
▁besoins	-4095
▁link	-4096
▁challenges	-4097
▁rele	-4098
theless	-4099
▁nevertheless	-4100
atoire	-4101
assurer	-4102
▁circulation	-4103
▁deli	-4104
▁jouer	-4105
▁transp	-4106
tences	-4107
attention	-4108
▁partis	-4109
▁top	-4110
▁puisque	-4111
▁exigences	-4112
▁borders	-4113
▁genu	-4114
▁illegal	-4115
▁indépend	-4116
▁ire	-4117
▁larg	-4118
▁contribu	-4119
▁portugal	-4120
▁auxqu	-4121
▁délég	-4122
ification	-4123
▁fellow	-4124
encies	-4125
▁implemented	-4126
▁reading	-4127
▁structures	-4128
lan	-4129
▁submit	-4130
ghan	-4131
▁poursuivre	-4132
▁conformément	-4133
dé	-4134
▁ireland	-4135
▁devoir	-4136
▁pourraient	-4137
▁abord	-4138
▁try	-4139
érons	-4140
dit	-4141
▁habit	-4142
ished	-4143
▁surveill	-4144
▁compétences	-4145
▁list	-4146
▁respond	-4147
▁apporter	-4148
▁deleg	-4149
▁absolutely	-4150
▁aider	-4151
▁comité	-4152
▁medium	-4153
▁renforcement	-4154
▁travaux	-4155
▁ii	-4156
oting	-4157
▁private	-4158
▁west	-4159
▁adopter	-4160
▁billion	-4161
▁comprendre	-4162
ubli	-4163
▁premièrement	-4164
ands	-4165
▁included	-4166
▁coming	-4167
▁passer	-4168
▁compétitivité	-4169
▁cra	-4170
actions	-4171
abs	-4172
▁dece	-4173
▁ministres	-4174
▁réglementation	-4175
▁ber	-4176
▁passe	-4177
ols	-4178
▁bulgar	-4179
mettre	-4180
▁maritime	-4181
▁27	-4182
▁whose	-4183
▁corresp	-4184
▁swed	-4185
▁vert	-4186
▁diver	-4187
▁adéqu	-4188
▁jours	-4189
▁quickly	-4190
▁alimentaire	-4191
br	-4192
▁internet	-4193
▁criminal	-4194
tiss	-4195
▁possibilités	-4196
roy	-4197
▁ministers	-4198
▁chômage	-4199
▁permettra	-4200
▁victims	-4201
▁french	-4202
▁bilat	-4203
▁renew	-4204
▁dic	-4205
ressive	-4206
bur	-4207
▁dispar	-4208
mation	-4209
▁rail	-4210
▁avanc	-4211
▁run	-4212
▁éviter	-4213
emp	-4214
▁spécifiques	-4215
▁reality	-4216
▁established	-4217
▁return	-4218
▁sent	-4219
▁reduction	-4220
▁télé	-4221
elines	-4222
ède	-4223
▁heures	-4224
▁longtemps	-4225
anges	-4226
▁iraq	-4227
val	-4228
▁roy	-4229
pol	-4230
▁évé	-4231
ung	-4232
▁paper	-4233
▁effects	-4234
▁près	-4235
▁supported	-4236
▁poss	-4237
▁dépl	-4238
▁hor	-4239
▁concre	-4240
ulent	-4241
oix	-4242
▁candidats	-4243
usive	-4244
▁rév	-4245
▁sea	-4246
iency	-4247
▁outside	-4248
▁big	-4249
▁engagement	-4250
▁40	-4251
▁gé	-4252
appr	-4253
▁sectors	-4254
▁assez	-4255
▁séance	-4256
ague	-4257
▁republic	-4258
▁correspond	-4259
orp	-4260
▁choix	-4261
▁constructive	-4262
▁donne	-4263
▁convin	-4264
▁declar	-4265
exist	-4266
▁almost	-4267
▁constituent	-4268
▁grave	-4269
▁light	-4270
▁completely	-4271
▁effets	-4272
▁loi	-4273
▁civile	-4274
▁similar	-4275
▁serb	-4276
▁derniers	-4277
▁emissions	-4278
êcher	-4279
▁representatives	-4280
▁aides	-4281
▁price	-4282
▁ayant	-4283
▁lutter	-4284
▁reforms	-4285
ec	-4286
▁entière	-4287
▁républi	-4288
oser	-4289
▁peine	-4290
quée	-4291
ulteurs	-4292
▁moreover	-4293
▁haute	-4294
▁immédi	-4295
▁charge	-4296
▁parl	-4297
▁mas	-4298
▁ton	-4299
▁unemployment	-4300
▁lot	-4301
▁dix	-4302
▁innovation	-4303
ails	-4304
▁official	-4305
99	-4306
▁déclarations	-4307
▁modèle	-4308
▁giving	-4309
ron	-4310
▁élément	-4311
▁réc	-4312
▁disaster	-4313
▁préf	-4314
amen	-4315
▁souff	-4316
▁brought	-4317
itaire	-4318
esprit	-4319
▁pression	-4320
dio	-4321
▁green	-4322
▁efficient	-4323
tirer	-4324
▁banque	-4325
institution	-4326
▁prices	-4327
▁21	-4328
▁défis	-4329
▁responsables	-4330
▁mauv	-4331
▁source	-4332
▁diplom	-4333
▁alloc	-4334
▁révision	-4335
▁stock	-4336
aimer	-4337
venue	-4338
▁additional	-4339
autor	-4340
▁liste	-4341
▁businesses	-4342
abor	-4343
▁spécifique	-4344
fied	-4345
ested	-4346
▁pron	-4347
▁représentants	-4348
▁authority	-4349
cidents	-4350
ctron	-4351
▁territor	-4352
étés	-4353
▁libert	-4354
ouvel	-4355
▁amélior	-4356
▁pollution	-4357
aimerais	-4358
augment	-4359
▁prend	-4360
▁fonctionnement	-4361
▁refuge	-4362
▁competitiveness	-4363
erves	-4364
▁commerci	-4365
▁lux	-4366
uff	-4367
teur	-4368
▁conciliation	-4369
dom	-4370
▁montre	-4371
▁vont	-4372
▁étro	-4373
tics	-4374
▁intégr	-4375
▁extent	-4376
▁milliards	-4377
▁tire	-4378
▁barroso	-4379
iterranean	-4380
▁phase	-4381
▁received	-4382
▁chi	-4383
ously	-4384
prise	-4385
▁else	-4386
▁exces	-4387
▁took	-4388
▁mandat	-4389
▁emerg	-4390
▁model	-4391
▁circum	-4392
▁recons	-4393
▁media	-4394
▁république	-4395
▁amount	-4396
▁december	-4397
▁ensuring	-4398
▁applied	-4399
▁ép	-4400
▁agency	-4401
▁heard	-4402
▁vision	-4403
itish	-4404
▁responsabil	-4405
issements	-4406
▁surveillance	-4407
gen	-4408
dibil	-4409
▁democrats	-4410
▁living	-4411
▁natural	-4412
▁africa	-4413
▁décembre	-4414
upart	-4415
▁plupart	-4416
▁mêmes	-4417
hold	-4418
éro	-4419
▁possibility	-4420
▁tack	-4421
▁opposition	-4422
▁behind	-4423
▁acp	-4424
▁réun	-4425
▁approved	-4426
cemment	-4427
▁récemment	-4428
arily	-4429
▁exact	-4430
▁british	-4431
▁creating	-4432
▁confidence	-4433
▁sitting	-4434
▁discussed	-4435
▁away	-4436
▁réjouis	-4437
▁wid	-4438
▁guidelines	-4439
▁neg	-4440
▁euros	-4441
▁lesquelles	-4442
▁assessment	-4443
▁décidé	-4444
▁dimin	-4445
▁indispensable	-4446
▁affirm	-4447
acer	-4448
▁events	-4449
▁quotas	-4450
▁renouvel	-4451
èce	-4452
bourg	-4453
▁investissements	-4454
▁treatment	-4455
▁takes	-4456
▁balkans	-4457
mêmes	-4458
▁belg	-4459
▁practical	-4460
▁proportion	-4461
▁déclaré	-4462
▁stop	-4463
▁nationale	-4464
▁pes	-4465
▁rester	-4466
▁engag	-4467
iez	-4468
rehen	-4469
▁obviously	-4470
zed	-4471
▁yeux	-4472
▁dossier	-4473
▁conclure	-4474
sidered	-4475
agir	-4476
landais	-4477
▁contribute	-4478
▁drug	-4479
▁allons	-4480
laud	-4481
▁sor	-4482
acy	-4483
▁1998	-4484
▁remains	-4485
inking	-4486
▁dign	-4487
▁typ	-4488
▁constater	-4489
▁multil	-4490
ik	-4491
▁provision	-4492
▁changements	-4493
rez	-4494
▁100	-4495
▁knowledge	-4496
▁décl	-4497
aign	-4498
▁soutiens	-4499
▁techniques	-4500
▁unacceptable	-4501
▁emplois	-4502
▁effectivement	-4503
▁perd	-4504
aume	-4505
▁responsabilités	-4506
tra	-4507
ylum	-4508
▁bear	-4509
▁pensons	-4510
▁tex	-4511
ormais	-4512
▁émissions	-4513
▁hong	-4514
▁days	-4515
▁désormais	-4516
ép	-4517
▁senti	-4518
▁technology	-4519
▁conflit	-4520
▁paie	-4521
qués	-4522
▁asylum	-4523
▁nucléaire	-4524
▁tch	-4525
▁concrè	-4526
érience	-4527
ël	-4528
demn	-4529
▁actuel	-4530
▁measure	-4531
▁honourable	-4532
▁fournir	-4533
▁der	-4534
▁inquiét	-4535
▁belar	-4536
▁agriculteurs	-4537
▁scientific	-4538
▁x	-4539
▁gl	-4540
▁exten	-4541
▁intention	-4542
jouter	-4543
▁former	-4544
▁comptes	-4545
▁capacity	-4546
▁devra	-4547
▁humanitarian	-4548
▁transform	-4549
cisely	-4550
arder	-4551
▁royaume	-4552
▁precisely	-4553
▁naturellement	-4554
▁vise	-4555
ocrates	-4556
▁abst	-4557
▁violations	-4558
▁goods	-4559
▁proceed	-4560
▁etc	-4561
▁internationales	-4562
alised	-4563
▁scope	-4564
▁territoire	-4565
▁dec	-4566
▁certaine	-4567
quées	-4568
▁sup	-4569
▁parfois	-4570
ynam	-4571
mption	-4572
▁tempor	-4573
▁design	-4574
▁secret	-4575
▁weak	-4576
ually	-4577
know	-4578
▁plann	-4579
▁family	-4580
▁pose	-4581
loy	-4582
▁regrett	-4583
▁dictat	-4584
▁americ	-4585
▁parfait	-4586
sk	-4587
▁animaux	-4588
▁considered	-4589
▁mener	-4590
améliorer	-4591
▁function	-4592
▁rapid	-4593
erial	-4594
▁affected	-4595
▁favorable	-4596
▁introduction	-4597
▁effectively	-4598
▁alternative	-4599
▁bio	-4600
▁traités	-4601
quate	-4602
▁convainc	-4603
▁structurels	-4604
èrent	-4605
inte	-4606
▁efficiency	-4607
▁chiff	-4608
▁circumst	-4609
▁savez	-4610
▁chois	-4611
ape	-4612
▁dispon	-4613
▁aimed	-4614
ator	-4615
cteur	-4616
▁opér	-4617
▁trying	-4618
cadre	-4619
ox	-4620
anci	-4621
▁reference	-4622
▁supplémentaires	-4623
fy	-4624
▁réfug	-4625
▁producteurs	-4626
▁firm	-4627
▁veux	-4628
▁capable	-4629
▁semb	-4630
asbourg	-4631
▁copenh	-4632
▁rate	-4633
▁forte	-4634
▁conj	-4635
odes	-4636
▁obt	-4637
▁transf	-4638
oncer	-4639
▁explic	-4640
▁difficulties	-4641
▁supply	-4642
▁determin	-4643
▁responsable	-4644
▁souhaiterais	-4645
▁evid	-4646
▁dynam	-4647
▁investig	-4648
▁independent	-4649
▁self	-4650
▁half	-4651
▁favoris	-4652
▁industrial	-4653
▁technique	-4654
▁positif	-4655
▁austr	-4656
ye	-4657
▁sérieux	-4658
▁luxemb	-4659
▁animal	-4660
▁populations	-4661
éraux	-4662
▁causes	-4663
unch	-4664
▁safegu	-4665
tissement	-4666
▁circons	-4667
▁strasbourg	-4668
▁shown	-4669
▁equality	-4670
▁side	-4671
évaluation	-4672
▁criticis	-4673
▁improving	-4674
wise	-4675
intention	-4676
▁luxembour	-4677
▁publiques	-4678
▁prime	-4679
▁developed	-4680
way	-4681
▁obstacles	-4682
▁spir	-4683
roî	-4684
ocks	-4685
ctures	-4686
▁illég	-4687
▁vul	-4688
▁administration	-4689
▁huge	-4690
▁personal	-4691
▁juridiques	-4692
▁suivre	-4693
▁yester	-4694
▁overall	-4695
expr	-4696
▁june	-4697
urgence	-4698
▁circumstances	-4699
▁yesterday	-4700
▁déchets	-4701
▁évent	-4702
▁connection	-4703
itaires	-4704
▁via	-4705
▁corruption	-4706
▁libertés	-4707
▁caractère	-4708
▁juin	-4709
▁atteindre	-4710
iving	-4711
▁afghan	-4712
▁sociétés	-4713
▁tele	-4714
cale	-4715
eté	-4716
▁vit	-4717
▁accordance	-4718
▁adoptée	-4719
▁conséquence	-4720
▁natur	-4721
angere	-4722
▁maintenir	-4723
mples	-4724
▁dangere	-4725
▁regime	-4726
▁proven	-4727
▁adapt	-4728
▁institutional	-4729
lies	-4730
▁ferme	-4731
▁enterprises	-4732
▁providing	-4733
alités	-4734
▁ligne	-4735
▁oubli	-4736
▁wrong	-4737
▁crimes	-4738
▁engagements	-4739
innovation	-4740
▁perform	-4741
▁transfer	-4742
▁strategic	-4743
govern	-4744
▁débats	-4745
ouverture	-4746
crib	-4747
▁innov	-4748
▁comments	-4749
▁advant	-4750
▁lign	-4751
▁régul	-4752
▁prévention	-4753
enge	-4754
▁bey	-4755
▁status	-4756
▁suffisamment	-4757
▁committed	-4758
ma	-4759
▁vé	-4760
▁adress	-4761
ana	-4762
ges	-4763
▁restrictions	-4764
▁reme	-4765
▁oil	-4766
▁speech	-4767
del	-4768
▁specifically	-4769
▁germany	-4770
▁goes	-4771
▁allowed	-4772
▁biais	-4773
sibles	-4774
▁considerable	-4775
vere	-4776
échange	-4777
▁challenge	-4778
▁espérons	-4779
réci	-4780
▁duty	-4781
▁consiste	-4782
▁beginning	-4783
▁ang	-4784
asile	-4785
▁provides	-4786
▁offici	-4787
▁souligné	-4788
▁ferm	-4789
▁flo	-4790
▁consideration	-4791
▁implementing	-4792
▁1997	-4793
▁rightly	-4794
▁niveaux	-4795
vres	-4796
▁benefits	-4797
▁présence	-4798
▁suivi	-4799
▁created	-4800
▁libéralisation	-4801
urance	-4802
▁parle	-4803
▁maximum	-4804
ège	-4805
▁voix	-4806
▁étrangères	-4807
▁subs	-4808
rée	-4809
▁partir	-4810
▁disposition	-4811
ussels	-4812
▁fil	-4813
▁office	-4814
▁cover	-4815
▁history	-4816
▁accepted	-4817
▁fo	-4818
▁distin	-4819
vier	-4820
▁successful	-4821
opin	-4822
▁route	-4823
▁réaliser	-4824
government	-4825
▁pact	-4826
aujourd	-4827
▁hier	-4828
▁ethn	-4829
▁modifi	-4830
aid	-4831
▁événements	-4832
0,	-4833
▁purpose	-4834
▁calls	-4835
▁conscience	-4836
inf	-4837
usse	-4838
▁ky	-4839
▁promoting	-4840
nex	-4841
éti	-4842
▁manifest	-4843
▁obtenir	-4844
▁étrangère	-4845
ender	-4846
pré	-4847
▁brussels	-4848
just	-4849
▁agir	-4850
▁vérit	-4851
▁wto	-4852
▁claim	-4853
▁beyond	-4854
▁lives	-4855
▁relatif	-4856
▁har	-4857
▁prévoit	-4858
▁brux	-4859
▁views	-4860
▁cust	-4861
▁intérêt	-4862
▁forms	-4863
▁tard	-4864
impact	-4865
▁lic	-4866
▁belarus	-4867
▁stated	-4868
▁autoris	-4869
ighted	-4870
ruct	-4871
ival	-4872
▁stim	-4873
▁seriously	-4874
▁closely	-4875
▁experts	-4876
▁dealing	-4877
▁genre	-4878
▁meilleur	-4879
▁colleague	-4880
ologique	-4881
▁garan	-4882
dis	-4883
▁worth	-4884
▁liés	-4885
▁referred	-4886
▁achie	-4887
».	-4888
dle	-4889
▁land	-4890
▁cub	-4891
▁veulent	-4892
▁chair	-4893
▁agricoles	-4894
▁restruct	-4895
▁participer	-4896
▁directement	-4897
▁importe	-4898
▁réd	-4899
▁pourrons	-4900
▁interp	-4901
▁,	-4902
▁dég	-4903
ctric	-4904
▁strict	-4905
▁pension	-4906
▁contenu	-4907
▁paquet	-4908
ounts	-4909
érique	-4910
▁suppr	-4911
▁graves	-4912
▁assure	-4913
amélioration	-4914
delà	-4915
▁utile	-4916
aborer	-4917
▁ul	-4918
▁bruxelles	-4919
▁ade	-4920
▁clause	-4921
▁fear	-4922
▁steps	-4923
▁double	-4924
▁lignes	-4925
▁speaking	-4926
▁accès	-4927
ological	-4928
▁infrastructure	-4929
▁poser	-4930
▁bonnes	-4931
quant	-4932
équilib	-4933
▁essay	-4934
▁financing	-4935
▁ara	-4936
agers	-4937
▁offr	-4938
▁ratification	-4939
▁decide	-4940
uk	-4941
▁prison	-4942
▁unanim	-4943
oule	-4944
▁travel	-4945
▁faisant	-4946
▁border	-4947
▁sk	-4948
▁expend	-4949
ématique	-4950
▁peuples	-4951
lands	-4952
▁thous	-4953
▁réfugiés	-4954
der	-4955
▁bureau	-4956
▁wanted	-4957
çons	-4958
▁fondamental	-4959
▁blo	-4960
▁exchange	-4961
▁comprehen	-4962
risti	-4963
▁livre	-4964
▁penal	-4965
▁ukraine	-4966
pro	-4967
▁mai	-4968
lation	-4969
▁ways	-4970
▁counter	-4971
▁jo	-4972
▁prefer	-4973
▁surv	-4974
▁legiti	-4975
onom	-4976
commun	-4977
▁annual	-4978
itent	-4979
▁spo	-4980
lam	-4981
▁évident	-4982
▁croati	-4983
▁auquel	-4984
ases	-4985
▁uni	-4986
▁198	-4987
▁sche	-4988
times	-4989
▁relationship	-4990
▁seek	-4991
▁élevé	-4992
▁directly	-4993
tenir	-4994
verbal	-4995
après	-4996
▁tort	-4997
forme	-4998
▁pacte	-4999
governmental	-5000
▁irish	-5001
▁condemn	-5002
▁requires	-5003
▁harmonisation	-5004
▁principal	-5005
▁opinions	-5006
afr	-5007
▁constitutional	-5008
entrer	-5009
io	-5010
▁brief	-5011
▁employe	-5012
head	-5013
▁constant	-5014
eaux	-5015
▁spécial	-5016
associ	-5017
▁material	-5018
▁commitments	-5019
european	-5020
▁spirit	-5021
▁préoccupations	-5022
▁exer	-5023
▁expenditure	-5024
▁définition	-5025
omc	-5026
▁setting	-5027
opinion	-5028
▁tourism	-5029
body	-5030
▁député	-5031
▁incorp	-5032
▁fed	-5033
▁tâche	-5034
▁campaign	-5035
pir	-5036
▁faci	-5037
▁mediterranean	-5038
jected	-5039
▁accr	-5040
éle	-5041
▁sait	-5042
itions	-5043
▁anything	-5044
▁permanent	-5045
▁recev	-5046
▁separ	-5047
jout	-5048
▁demands	-5049
▁produce	-5050
▁communes	-5051
▁comporte	-5052
▁leave	-5053
▁reconnaissance	-5054
▁devenir	-5055
▁méditerran	-5056
▁particulière	-5057
3,	-5058
▁easi	-5059
▁envers	-5060
▁prochain	-5061
anie	-5062
▁cle	-5063
▁reçu	-5064
▁scand	-5065
▁utiliser	-5066
▁quo	-5067
▁maintain	-5068
▁expos	-5069
▁arrange	-5070
▁transparent	-5071
▁age	-5072
▁myself	-5073
▁sometimes	-5074
crip	-5075
ane	-5076
tons	-5077
lique	-5078
▁entend	-5079
▁défendre	-5080
alism	-5081
▁pure	-5082
▁étroite	-5083
▁exclusive	-5084
▁custom	-5085
works	-5086
absence	-5087
▁divis	-5088
▁britannique	-5089
▁quelles	-5090
▁chap	-5091
▁looking	-5092
▁activity	-5093
▁shar	-5094
▁fulf	-5095
▁atteint	-5096
▁intended	-5097
▁decl	-5098
▁tradu	-5099
▁january	-5100
▁aband	-5101
▁personn	-5102
▁patients	-5103
▁representative	-5104
▁entire	-5105
encontre	-5106
sized	-5107
▁vir	-5108
gos	-5109
ization	-5110
▁oral	-5111
▁facilit	-5112
▁réseaux	-5113
▁reconnaître	-5114
▁1,	-5115
▁sad	-5116
▁burd	-5117
▁useful	-5118
▁verts	-5119
▁supporting	-5120
▁durant	-5121
▁budgétaires	-5122
rai	-5123
▁deep	-5124
unt	-5125
▁europeans	-5126
amb	-5127
▁contributions	-5128
▁eastern	-5129
▁crédits	-5130
▁traiter	-5131
▁immédiate	-5132
▁atta	-5133
▁trafic	-5134
▁consommation	-5135
▁janvier	-5136
iles	-5137
▁semaines	-5138
2,	-5139
emplois	-5140
▁middle	-5141
▁obligation	-5142
▁démocratiques	-5143
tical	-5144
▁spend	-5145
▁bur	-5146
introduction	-5147
▁paid	-5148
▁visa	-5149
▁principaux	-5150
▁1996	-5151
▁garantie	-5152
where	-5153
▁product	-5154
cée	-5155
▁cer	-5156
▁éval	-5157
fications	-5158
▁highly	-5159
▁alone	-5160
▁imag	-5161
▁mass	-5162
▁augmentation	-5163
▁prodi	-5164
▁menace	-5165
▁aérien	-5166
▁standard	-5167
issons	-5168
▁distribution	-5169
euvre	-5170
▁convergence	-5171
▁higher	-5172
ades	-5173
▁developments	-5174
▁dén	-5175
▁repl	-5176
▁modification	-5177
▁competitive	-5178
▁contrôles	-5179
▁délégation	-5180
▁connaissance	-5181
▁bodies	-5182
▁properly	-5183
▁led	-5184
▁humains	-5185
▁abol	-5186
▁shows	-5187
▁remember	-5188
▁exprimer	-5189
▁soi	-5190
▁parts	-5191
▁ship	-5192
▁listen	-5193
▁pauvres	-5194
▁weeks	-5195
▁greece	-5196
▁certes	-5197
▁jap	-5198
▁mars	-5199
▁référ	-5200
▁erre	-5201
ducing	-5202
▁montrer	-5203
▁24	-5204
▁conclude	-5205
▁sil	-5206
▁assist	-5207
▁combating	-5208
▁excessive	-5209
▁discussing	-5210
▁transfr	-5211
▁pouvoirs	-5212
▁staff	-5213
▁statements	-5214
iction	-5215
▁early	-5216
201	-5217
▁accompl	-5218
▁luxembourg	-5219
▁increasingly	-5220
écution	-5221
▁figure	-5222
explo	-5223
▁limited	-5224
▁soumis	-5225
▁caus	-5226
▁aller	-5227
▁forget	-5228
▁militaire	-5229
▁ambitious	-5230
▁défi	-5231
yer	-5232
▁reconstruction	-5233
acks	-5234
▁risks	-5235
▁known	-5236
jud	-5237
▁symb	-5238
▁stocks	-5239
existence	-5240
▁calling	-5241
▁improved	-5242
▁delegation	-5243
▁establishing	-5244
▁pan	-5245
▁achieving	-5246
hol	-5247
onde	-5248
▁wait	-5249
isent	-5250
▁bénéficier	-5251
▁seem	-5252
▁soulev	-5253
▁comprehensive	-5254
▁vehic	-5255
▁sensible	-5256
▁reducing	-5257
▁gives	-5258
▁genuine	-5259
▁réseau	-5260
▁économie	-5261
▁caused	-5262
▁record	-5263
▁whom	-5264
▁retr	-5265
▁cred	-5266
▁strengthening	-5267
▁gro	-5268
making	-5269
▁laisser	-5270
▁represents	-5271
▁urge	-5272
▁candidate	-5273
▁parlementaires	-5274
▁study	-5275
▁taxes	-5276
▁arguments	-5277
▁prevention	-5278
▁types	-5279
naires	-5280
▁forum	-5281
▁bad	-5282
▁champ	-5283
▁ai	-5284
▁desire	-5285
▁bos	-5286
▁tourisme	-5287
▁sl	-5288
▁médias	-5289
▁proposer	-5290
▁learn	-5291
▁stimul	-5292
▁monna	-5293
5,	-5294
ined	-5295
▁globalisation	-5296
▁stabil	-5297
▁later	-5298
oll	-5299
rement	-5300
▁happened	-5301
-00	-5302
▁span	-5303
▁parlé	-5304
ians	-5305
▁audit	-5306
iée	-5307
ding	-5308
roc	-5309
▁aims	-5310
▁insist	-5311
▁contrary	-5312
▁faisons	-5313
▁collective	-5314
▁emphasise	-5315
▁animals	-5316
border	-5317
elling	-5318
▁progressive	-5319
léch	-5320
▁dispose	-5321
comp	-5322
▁wat	-5323
▁économies	-5324
▁produced	-5325
▁arrive	-5326
▁producers	-5327
▁discuter	-5328
▁association	-5329
▁alimentaires	-5330
hon	-5331
▁acknow	-5332
▁procéder	-5333
▁salue	-5334
uded	-5335
▁earlier	-5336
▁thought	-5337
▁conflits	-5338
onner	-5339
▁compétence	-5340
▁longue	-5341
reci	-5342
▁multilat	-5343
▁charter	-5344
▁inacceptable	-5345
▁industries	-5346
▁aient	-5347
▁efficaces	-5348
▁convinced	-5349
▁reject	-5350
▁name	-5351
▁affaire	-5352
engagement	-5353
vered	-5354
▁actes	-5355
▁tirer	-5356
▁moyennes	-5357
▁répar	-5358
▁chez	-5359
▁safeguard	-5360
▁anci	-5361
▁enorm	-5362
▁outcome	-5363
▁fraud	-5364
astr	-5365
▁réussi	-5366
▁humanitaire	-5367
▁manner	-5368
▁currency	-5369
aries	-5370
▁largement	-5371
▁infrastructures	-5372
▁language	-5373
▁heureux	-5374
▁pourront	-5375
▁violation	-5376
llig	-5377
▁véhic	-5378
▁asi	-5379
nl	-5380
clusion	-5381
▁espagn	-5382
▁encourager	-5383
▁lac	-5384
▁building	-5385
tiles	-5386
called	-5387
▁paci	-5388
▁turk	-5389
èlement	-5390
arch	-5391
▁compensation	-5392
▁exige	-5393
▁pak	-5394
▁compagn	-5395
▁phy	-5396
▁draf	-5397
▁amsterdam	-5398
▁transfrontal	-5399
ina	-5400
atégor	-5401
ufact	-5402
▁wants	-5403
▁attach	-5404
▁balanced	-5405
▁passeng	-5406
dra	-5407
umption	-5408
▁répé	-5409
▁parfaitement	-5410
▁dirige	-5411
▁scho	-5412
cel	-5413
hist	-5414
▁tab	-5415
▁enh	-5416
▁appreci	-5417
▁network	-5418
rant	-5419
▁instance	-5420
▁surpr	-5421
▁60	-5422
ueill	-5423
▁catégor	-5424
▁expression	-5425
▁analysis	-5426
▁otherwise	-5427
atte	-5428
▁humaine	-5429
▁rise	-5430
▁pakistan	-5431
▁taxation	-5432
▁finalement	-5433
▁declaration	-5434
▁faits	-5435
▁concrete	-5436
▁recognition	-5437
afrique	-5438
▁cooper	-5439
▁says	-5440
▁envoy	-5441
investissement	-5442
▁pme	-5443
lines	-5444
▁hung	-5445
▁thinking	-5446
▁italy	-5447
ficit	-5448
▁avenir	-5449
▁charte	-5450
▁français	-5451
▁succeed	-5452
▁disposer	-5453
▁manufact	-5454
▁recognise	-5455
▁aver	-5456
▁king	-5457
▁soins	-5458
▁transit	-5459
orde	-5460
▁damage	-5461
▁lik	-5462
outes	-5463
▁grèce	-5464
▁régionale	-5465
ged	-5466
▁nice	-5467
bas	-5468
tedly	-5469
▁soir	-5470
▁définiti	-5471
ued	-5472
▁prép	-5473
▁23	-5474
ular	-5475
▁elements	-5476
atlan	-5477
▁trust	-5478
▁entirely	-5479
▁launch	-5480
▁mondialisation	-5481
▁crises	-5482
▁maintien	-5483
▁entit	-5484
▁tribun	-5485
▁réalisation	-5486
▁avaient	-5487
▁delay	-5488
▁substance	-5489
▁suggest	-5490
▁differences	-5491
▁â	-5492
amer	-5493
oure	-5494
▁becoming	-5495
▁willing	-5496
ening	-5497
',	-5498
▁cohér	-5499
oto	-5500
hu	-5501
aments	-5502
0.	-5503
▁dead	-5504
▁round	-5505
▁mécanisme	-5506
▁flexibility	-5507
▁pointed	-5508
▁romania	-5509
▁introduced	-5510
▁spanish	-5511
▁sembl	-5512
▁facing	-5513
▁plén	-5514
ters	-5515
▁recours	-5516
gue	-5517
▁internationaux	-5518
▁enqu	-5519
▁introduce	-5520
▁company	-5521
ignement	-5522
▁ajout	-5523
lause	-5524
of	-5525
assi	-5526
▁reduced	-5527
▁politici	-5528
▁added	-5529
▁dot	-5530
▁thirdly	-5531
▁recommandations	-5532
▁probably	-5533
ports	-5534
▁faudrait	-5535
▁refugees	-5536
uelles	-5537
▁negative	-5538
▁naturally	-5539
hum	-5540
▁weap	-5541
▁raisonn	-5542
men	-5543
laudissements	-5544
▁american	-5545
▁dangerous	-5546
▁réflex	-5547
▁recommendations	-5548
...	-5549
itations	-5550
▁couv	-5551
▁enfor	-5552
yons	-5553
▁speed	-5554
▁2,	-5555
▁gal	-5556
erait	-5557
alisme	-5558
▁closer	-5559
▁opening	-5560
▁option	-5561
ipe	-5562
▁prévu	-5563
▁souhaitons	-5564
▁liberalisation	-5565
▁démar	-5566
mon	-5567
hér	-5568
ogne	-5569
▁sac	-5570
4-0	-5571
▁lanc	-5572
▁asking	-5573
▁septembre	-5574
gm	-5575
▁chances	-5576
▁uvre	-5577
aties	-5578
▁laws	-5579
▁sound	-5580
▁définir	-5581
casions	-5582
cisive	-5583
▁networks	-5584
▁immigrants	-5585
▁liées	-5586
▁monnaie	-5587
▁faudra	-5588
ored	-5589
▁forest	-5590
▁réuss	-5591
▁pét	-5592
outh	-5593
▁aborder	-5594
▁fab	-5595
européen	-5596
▁presque	-5597
▁monop	-5598
▁devront	-5599
▁incorpor	-5600
▁september	-5601
atoires	-5602
espace	-5603
▁multip	-5604
▁mus	-5605
▁tém	-5606
▁raise	-5607
▁parlons	-5608
▁jug	-5609
▁destruction	-5610
pected	-5611
▁mechanism	-5612
▁matin	-5613
▁exactly	-5614
▁évaluation	-5615
▁body	-5616
▁fif	-5617
▁islam	-5618
▁spain	-5619
▁retour	-5620
▁critique	-5621
▁treaties	-5622
▁bosn	-5623
▁armes	-5624
▁souligne	-5625
▁réfléch	-5626
▁ém	-5627
▁retard	-5628
▁morning	-5629
▁announ	-5630
ring	-5631
acter	-5632
manie	-5633
▁analyse	-5634
▁méthode	-5635
▁gouvern	-5636
▁rein	-5637
▁afghanistan	-5638
▁regrettable	-5639
▁finances	-5640
▁mérite	-5641
comes	-5642
▁avantages	-5643
évolution	-5644
▁discours	-5645
▁establishment	-5646
▁roumanie	-5647
iled	-5648
▁disch	-5649
▁methods	-5650
▁occasions	-5651
▁practices	-5652
▁quan	-5653
affirm	-5654
elt	-5655
▁négociation	-5656
▁slov	-5657
rie	-5658
▁migration	-5659
▁faciliter	-5660
▁avions	-5661
▁impose	-5662
itten	-5663
▁failure	-5664
lles	-5665
▁strongly	-5666
illet	-5667
▁1.	-5668
roître	-5669
▁législatif	-5670
▁supplémentaire	-5671
▁reprises	-5672
▁seraient	-5673
▁recover	-5674
▁applies	-5675
▁conduct	-5676
▁hop	-5677
oblig	-5678
orable	-5679
▁décider	-5680
▁limiter	-5681
iendra	-5682
▁normal	-5683
appliquer	-5684
uellement	-5685
▁pill	-5686
▁cur	-5687
adopter	-5688
▁coût	-5689
inc	-5690
lav	-5691
amine	-5692
▁mac	-5693
contr	-5694
▁concernés	-5695
élaboration	-5696
▁bâ	-5697
▁deg	-5698
▁america	-5699
▁demandons	-5700
▁medic	-5701
▁modifier	-5702
▁rej	-5703
▁protocole	-5704
▁lu	-5705
▁secure	-5706
▁appear	-5707
▁version	-5708
▁mc	-5709
chement	-5710
▁estime	-5711
▁représentent	-5712
ift	-5713
oise	-5714
gouver	-5715
umière	-5716
éviter	-5717
▁!	-5718
▁plur	-5719
ize	-5720
orn	-5721
▁parliaments	-5722
▁racis	-5723
▁ideas	-5724
▁governance	-5725
▁simplification	-5726
▁limité	-5727
▁considérable	-5728
▁soutenu	-5729
▁loss	-5730
▁drawn	-5731
histoire	-5732
▁intellig	-5733
▁populaire	-5734
▁essentielle	-5735
▁november	-5736
▁integrated	-5737
▁happy	-5738
harmon	-5739
/0	-5740
▁caractér	-5741
▁mécanismes	-5742
▁globale	-5743
▁chem	-5744
▁chamber	-5745
▁agencies	-5746
▁reply	-5747
èvement	-5748
▁plénière	-5749
fect	-5750
▁milliers	-5751
▁étab	-5752
▁80	-5753
▁alban	-5754
▁highlight	-5755
▁novembre	-5756
▁meps	-5757
▁futur	-5758
▁uns	-5759
▁attempt	-5760
▁targets	-5761
ilst	-5762
aï	-5763
▁voit	-5764
▁flexible	-5765
▁énor	-5766
sif	-5767
ailed	-5768
imb	-5769
▁laid	-5770
icaments	-5771
▁dealt	-5772
▁whilst	-5773
llect	-5774
▁putting	-5775
▁extraordin	-5776
aste	-5777
▁gender	-5778
▁improvement	-5779
▁gene	-5780
▁withdra	-5781
▁submitted	-5782
ditions	-5783
▁enormous	-5784
▁stratégique	-5785
▁auxquels	-5786
▁occident	-5787
▁mutual	-5788
▁médicaments	-5789
▁palestinian	-5790
▁ports	-5791
1,	-5792
▁enj	-5793
uffis	-5794
▁vais	-5795
gouvernement	-5796
▁récl	-5797
▁radio	-5798
▁fera	-5799
▁near	-5800
▁idée	-5801
ancement	-5802
ristian	-5803
ically	-5804
▁original	-5805
▁implique	-5806
▁thème	-5807
▁critical	-5808
aci	-5809
▁domes	-5810
itoyens	-5811
▁compos	-5812
mos	-5813
▁accidents	-5814
▁pertin	-5815
▁informed	-5816
▁circonst	-5817
▁auprès	-5818
▁character	-5819
▁principalement	-5820
▁addressed	-5821
ash	-5822
▁coord	-5823
agence	-5824
▁susp	-5825
ticles	-5826
blement	-5827
▁clar	-5828
▁minorités	-5829
▁written	-5830
▁condamn	-5831
▁immediately	-5832
ués	-5833
adap	-5834
▁500	-5835
▁initial	-5836
▁communities	-5837
êter	-5838
enf	-5839
▁ult	-5840
▁interventions	-5841
▁intellect	-5842
▁entièrement	-5843
aliser	-5844
▁resolutions	-5845
informations	-5846
hr	-5847
▁décharge	-5848
▁ones	-5849
▁consommateur	-5850
▁kingdom	-5851
cepti	-5852
▁pied	-5853
▁mandate	-5854
▁defend	-5855
▁compati	-5856
▁communautés	-5857
▁étudi	-5858
▁install	-5859
▁confrontés	-5860
▁mala	-5861
▁concrètes	-5862
bly	-5863
▁remarques	-5864
ology	-5865
▁operation	-5866
▁impression	-5867
▁parall	-5868
▁kyoto	-5869
▁organised	-5870
▁potentiel	-5871
ettre	-5872
▁emploi	-5873
ya	-5874
▁interven	-5875
bit	-5876
▁rappro	-5877
▁parlements	-5878
▁provo	-5879
▁mots	-5880
1)	-5881
eth	-5882
▁debates	-5883
augmentation	-5884
▁describ	-5885
▁choice	-5886
▁growing	-5887
▁physi	-5888
fond	-5889
approche	-5890
▁understanding	-5891
▁independence	-5892
▁anyone	-5893
▁profiter	-5894
▁famille	-5895
▁managed	-5896
▁probablement	-5897
▁italian	-5898
▁intentions	-5899
▁ahead	-5900
▁22	-5901
▁board	-5902
▁occur	-5903
▁fondamentales	-5904
▁départ	-5905
▁western	-5906
▁arriv	-5907
▁sensitive	-5908
2)	-5909
▁contract	-5910
▁opération	-5911
▁contains	-5912
▁send	-5913
▁citoyen	-5914
▁thousands	-5915
anced	-5916
▁calend	-5917
rées	-5918
▁maladies	-5919
▁flexibilité	-5920
▁reti	-5921
▁assemb	-5922
▁unable	-5923
pér	-5924
anding	-5925
▁evidence	-5926
▁cens	-5927
▁grant	-5928
▁prêts	-5929
▁prospect	-5930
intern	-5931
▁réelle	-5932
▁demandes	-5933
▁troisièmement	-5934
irlande	-5935
▁acteurs	-5936
▁contient	-5937
accent	-5938
▁october	-5939
exprimer	-5940
▁montant	-5941
▁stu	-5942
▁presse	-5943
▁mainly	-5944
▁persons	-5945
▁ine	-5946
▁effec	-5947
▁faites	-5948
▁représentant	-5949
▁burden	-5950
▁neither	-5951
▁locales	-5952
▁pun	-5953
▁recommendation	-5954
▁mechanisms	-5955
▁profond	-5956
cont	-5957
▁rejected	-5958
irme	-5959
▁definition	-5960
▁wond	-5961
quis	-5962
▁concitoyens	-5963
▁conventions	-5964
▁prochaines	-5965
▁montré	-5966
▁comply	-5967
▁examiner	-5968
ys	-5969
▁appliquer	-5970
ury	-5971
▁massive	-5972
▁souver	-5973
inv	-5974
▁tari	-5975
▁délai	-5976
▁bat	-5977
▁barr	-5978
▁merely	-5979
examen	-5980
▁easy	-5981
▁gouvernance	-5982
ids	-5983
▁russian	-5984
▁cult	-5985
▁dest	-5986
▁centres	-5987
▁orientations	-5988
▁continuing	-5989
▁féd	-5990
▁protocol	-5991
adress	-5992
▁compli	-5993
▁réalisé	-5994
▁faced	-5995
pres	-5996
▁elimin	-5997
▁figures	-5998
▁leading	-5999
intervention	-6000
entrée	-6001
▁satisfait	-6002
▁appeal	-6003
▁renewable	-6004
▁limites	-6005
ots	-6006
▁goals	-6007
▁lumière	-6008
▁persu	-6009
▁petits	-6010
▁plain	-6011
▁modifications	-6012
▁freedoms	-6013
▁isol	-6014
▁autonom	-6015
▁scientifiques	-6016
vereign	-6017
admin	-6018
▁implic	-6019
▁atten	-6020
▁diversité	-6021
▁commerciales	-6022
▁climat	-6023
▁propri	-6024
▁signed	-6025
▁suspend	-6026
▁satisfaction	-6027
▁parv	-6028
▁marchand	-6029
▁abou	-6030
▁quar	-6031
▁sovereign	-6032
▁catastrophe	-6033
▁acquis	-6034
fique	-6035
tiens	-6036
▁discharge	-6037
▁explan	-6038
▁mist	-6039
▁guarantees	-6040
▁susc	-6041
▁critiques	-6042
▁ue	-6043
▁équilibre	-6044
▁lour	-6045
ores	-6046
intes	-6047
▁enjoy	-6048
▁membership	-6049
▁famili	-6050
aisse	-6051
▁annon	-6052
▁turkish	-6053
▁remarque	-6054
bation	-6055
▁pi	-6056
des	-6057
▁servir	-6058
▁payments	-6059
▁recommandation	-6060
▁brut	-6061
▁consul	-6062
▁proc	-6063
▁élarg	-6064
▁barcel	-6065
▁logique	-6066
anche	-6067
▁faible	-6068
▁convaincu	-6069
ologie	-6070
dém	-6071
eness	-6072
▁considérer	-6073
▁suivante	-6074
▁substantial	-6075
▁elected	-6076
▁oublier	-6077
▁efficacement	-6078
▁judiciaire	-6079
▁dram	-6080
▁worked	-6081
▁phil	-6082
rique	-6083
▁méthodes	-6084
étiques	-6085
▁seuls	-6086
▁sinc	-6087
▁protest	-6088
▁adequate	-6089
▁categ	-6090
▁accepté	-6091
▁exac	-6092
▁speakers	-6093
verse	-6094
▁told	-6095
▁drugs	-6096
▁exprimé	-6097
hood	-6098
iments	-6099
▁resolve	-6100
eter	-6101
▁lev	-6102
▁came	-6103
▁exercise	-6104
▁heart	-6105
▁sujets	-6106
▁publ	-6107
▁fle	-6108
▁stable	-6109
▁26	-6110
▁accompli	-6111
▁lost	-6112
▁concentrer	-6113
▁please	-6114
▁includes	-6115
▁peoples	-6116
este	-6117
eront	-6118
gent	-6119
▁disposons	-6120
▁lois	-6121
▁référendum	-6122
▁subsidiarity	-6123
▁femme	-6124
▁ought	-6125
▁criminalité	-6126
▁front	-6127
▁soutient	-6128
ez	-6129
autorité	-6130
ére	-6131
▁totally	-6132
▁subsidiarité	-6133
▁advantage	-6134
▁news	-6135
▁voisins	-6136
ibl	-6137
ized	-6138
▁coher	-6139
▁trafficking	-6140
▁formes	-6141
▁28	-6142
istre	-6143
▁warm	-6144
essions	-6145
dict	-6146
▁véhicules	-6147
▁deme	-6148
▁approval	-6149
▁contraign	-6150
ateful	-6151
▁socialist	-6152
triment	-6153
▁replace	-6154
▁garanties	-6155
▁cess	-6156
▁serve	-6157
▁supports	-6158
oct	-6159
▁foot	-6160
▁alliance	-6161
utr	-6162
obs	-6163
examin	-6164
▁examine	-6165
alistic	-6166
▁cul	-6167
atric	-6168
▁revêt	-6169
ta	-6170
▁wishes	-6171
▁déli	-6172
énom	-6173
▁équitable	-6174
▁stade	-6175
▁repeat	-6176
▁related	-6177
▁families	-6178
▁tient	-6179
aurer	-6180
▁bringing	-6181
▁reinfor	-6182
enary	-6183
▁accorder	-6184
èrement	-6185
▁weapons	-6186
▁degree	-6187
▁articles	-6188
▁légiti	-6189
▁merc	-6190
▁phénom	-6191
▁regular	-6192
▁revenir	-6193
▁failed	-6194
▁economies	-6195
▁complément	-6196
▁règlements	-6197
▁penser	-6198
▁bra	-6199
▁argument	-6200
▁extérieure	-6201
▁nucléaires	-6202
inding	-6203
▁siè	-6204
▁rates	-6205
▁empêcher	-6206
▁attirer	-6207
ologiques	-6208
▁suscepti	-6209
▁controls	-6210
▁grateful	-6211
▁scientifique	-6212
▁forth	-6213
▁income	-6214
▁idées	-6215
▁intérieures	-6216
administration	-6217
▁puiss	-6218
allem	-6219
▁extend	-6220
▁combien	-6221
eur	-6222
▁établir	-6223
tisation	-6224
▁getting	-6225
▁rencontr	-6226
▁passagers	-6227
ility	-6228
▁territory	-6229
▁smes	-6230
▁voire	-6231
▁nation	-6232
habit	-6233
visionnement	-6234
▁acts	-6235
▁talks	-6236
▁attemp	-6237
▁cultures	-6238
▁disease	-6239
-201	-6240
▁actual	-6241
▁credit	-6242
▁lies	-6243
▁faite	-6244
▁pse	-6245
▁linked	-6246
▁election	-6247
▁plenary	-6248
▁réserve	-6249
▁mises	-6250
▁invite	-6251
wide	-6252
▁charges	-6253
▁committees	-6254
▁scr	-6255
▁prud	-6256
▁navires	-6257
▁protecting	-6258
▁juge	-6259
▁mobilité	-6260
▁sentiment	-6261
▁tib	-6262
▁harm	-6263
▁involvement	-6264
expression	-6265
▁referendum	-6266
▁oeuvre	-6267
▁opposed	-6268
▁approuvé	-6269
▁pensions	-6270
▁goal	-6271
aution	-6272
▁échanges	-6273
▁personnellement	-6274
tification	-6275
▁involving	-6276
▁retra	-6277
illed	-6278
▁consistent	-6279
▁sépar	-6280
pérer	-6281
▁prét	-6282
igu	-6283
prus	-6284
▁hyp	-6285
▁terroristes	-6286
▁lines	-6287
icht	-6288
▁inspe	-6289
▁terminer	-6290
▁ordin	-6291
▁starting	-6292
▁supervision	-6293
▁mi	-6294
▁ajouter	-6295
exécution	-6296
équilibre	-6297
ervation	-6298
▁tob	-6299
présid	-6300
▁cyprus	-6301
▁accus	-6302
▁chefs	-6303
▁fins	-6304
avez	-6305
▁changer	-6306
oine	-6307
landaise	-6308
▁oui	-6309
▁plac	-6310
▁diversity	-6311
▁path	-6312
ada	-6313
▁cuba	-6314
▁justement	-6315
▁totale	-6316
activité	-6317
mping	-6318
▁cesse	-6319
▁deliver	-6320
▁attrib	-6321
▁ready	-6322
▁étape	-6323
▁agences	-6324
association	-6325
▁immediate	-6326
tiers	-6327
▁truly	-6328
▁fraude	-6329
grer	-6330
▁adopting	-6331
▁renouvelables	-6332
agen	-6333
ka	-6334
▁happening	-6335
▁resid	-6336
▁complic	-6337
▁exc	-6338
▁extérieures	-6339
▁circonstances	-6340
▁sides	-6341
▁consequently	-6342
▁réponses	-6343
▁underm	-6344
▁interesting	-6345
▁préparation	-6346
▁annex	-6347
▁électron	-6348
▁limite	-6349
▁personally	-6350
▁relever	-6351
▁factor	-6352
▁forced	-6353
▁relatifs	-6354
▁rét	-6355
▁chiffres	-6356
▁arms	-6357
▁stip	-6358
instru	-6359
▁offre	-6360
▁indire	-6361
▁suéd	-6362
▁arrangements	-6363
échelle	-6364
▁auditors	-6365
▁essentiels	-6366
▁quantit	-6367
▁inu	-6368
▁préc	-6369
▁conduite	-6370
▁mobility	-6371
▁northern	-6372
▁range	-6373
exerc	-6374
▁greatest	-6375
▁contrôler	-6376
obtenir	-6377
▁évidence	-6378
▁commerciaux	-6379
ophob	-6380
▁campagne	-6381
▁irlandais	-6382
dible	-6383
▁préal	-6384
▁poland	-6385
▁moindre	-6386
▁29	-6387
▁continues	-6388
▁concernées	-6389
▁véritablement	-6390
▁élabor	-6391
▁recognised	-6392
▁disponibles	-6393
andis	-6394
▁obtenu	-6395
▁évol	-6396
▁détaill	-6397
▁précédent	-6398
▁perfect	-6399
▁wall	-6400
▁pourrions	-6401
▁indé	-6402
▁fruit	-6403
▁estimons	-6404
xic	-6405
▁hy	-6406
▁visas	-6407
agner	-6408
▁insister	-6409
▁followed	-6410
▁autrement	-6411
unité	-6412
▁intend	-6413
▁mauvais	-6414
▁bases	-6415
▁customs	-6416
▁produire	-6417
applaudissements	-6418
▁existence	-6419
▁historique	-6420
▁minorities	-6421
▁ouv	-6422
▁immédiatement	-6423
▁gradu	-6424
cription	-6425
▁secr	-6426
▁puisqu	-6427
▁rappelle	-6428
▁adh	-6429
▁2000,	-6430
▁granted	-6431
▁communications	-6432
▁os	-6433
▁terrain	-6434
rage	-6435
▁multi	-6436
rid	-6437
▁tunis	-6438
atta	-6439
▁ferro	-6440
▁contacts	-6441
▁meetings	-6442
lig	-6443
▁attendre	-6444
»,	-6445
▁insuffis	-6446
▁undertaking	-6447
▁militaires	-6448
agenda	-6449
▁dirigeants	-6450
▁législative	-6451
établir	-6452
▁tackle	-6453
▁devait	-6454
▁31	-6455
ultin	-6456
▁sûre	-6457
astricht	-6458
▁technologie	-6459
▁ferrovi	-6460
▁tonnes	-6461
tition	-6462
▁durée	-6463
uls	-6464
▁multin	-6465
▁religion	-6466
entreprise	-6467
▁white	-6468
▁seeking	-6469
uth	-6470
▁quels	-6471
▁assembly	-6472
▁volunt	-6473
▁domin	-6474
isté	-6475
exploitation	-6476
êtres	-6477
▁envisage	-6478
▁tandis	-6479
encour	-6480
▁evaluation	-6481
▁african	-6482
▁dépass	-6483
agissant	-6484
▁reprodu	-6485
▁maastricht	-6486
▁breve	-6487
▁july	-6488
excell	-6489
▁shared	-6490
▁premières	-6491
esses	-6492
▁lob	-6493
éral	-6494
▁extension	-6495
itié	-6496
▁voisin	-6497
▁régional	-6498
▁sweden	-6499
▁vehicles	-6500
▁exploitation	-6501
50	-6502
▁langues	-6503
▁covered	-6504
▁journal	-6505
▁diverses	-6506
▁bloc	-6507
▁vite	-6508
utiliser	-6509
▁wonder	-6510
▁auront	-6511
▁avancer	-6512
▁regrette	-6513
urent	-6514
▁juillet	-6515
▁carefully	-6516
aken	-6517
cession	-6518
▁equally	-6519
▁judicial	-6520
▁différences	-6521
orse	-6522
▁indiqué	-6523
▁ability	-6524
▁commissaires	-6525
ush	-6526
applause	-6527
▁puissions	-6528
▁usa	-6529
èces	-6530
▁absence	-6531
▁aurons	-6532
▁options	-6533
▁attra	-6534
▁commissioners	-6535
ah	-6536
▁soutenons	-6537
▁mic	-6538
▁subsidies	-6539
çant	-6540
autant	-6541
▁progresser	-6542
établissement	-6543
communications	-6544
▁recovery	-6545
▁délais	-6546
▁malad	-6547
▁amongst	-6548
▁refl	-6549
exercice	-6550
▁proposing	-6551
▁statistiques	-6552
▁heads	-6553
▁explain	-6554
apport	-6555
▁adjust	-6556
▁devrons	-6557
ouss	-6558
▁utilisés	-6559
▁changed	-6560
▁applicable	-6561
▁advoc	-6562
▁criticism	-6563
tier	-6564
itant	-6565
▁competence	-6566
▁complè	-6567
épendance	-6568
▁compagnies	-6569
opposition	-6570
▁mentionné	-6571
▁subventions	-6572
▁appréci	-6573
▁involve	-6574
▁minority	-6575
▁pologne	-6576
ifications	-6577
199	-6578
▁réaction	-6579
▁ordre	-6580
▁designed	-6581
osed	-6582
▁detailed	-6583
▁planning	-6584
▁generally	-6585
onu	-6586
gouvernementale	-6587
▁ambitieux	-6588
▁suffering	-6589
▁jeu	-6590
▁octobre	-6591
▁bilateral	-6592
▁presence	-6593
▁stre	-6594
▁laisse	-6595
▁swedish	-6596
accep	-6597
auche	-6598
▁improvements	-6599
▁reflect	-6600
existe	-6601
▁voice	-6602
▁europol	-6603
▁minute	-6604
▁terre	-6605
▁pér	-6606
▁bulgaria	-6607
ril	-6608
èque	-6609
▁berlin	-6610
▁israël	-6611
divers	-6612
▁tests	-6613
▁compré	-6614
▁arriver	-6615
▁fiscale	-6616
▁eaux	-6617
▁lancer	-6618
▁floor	-6619
allemagne	-6620
inguis	-6621
▁macro	-6622
▁thereby	-6623
uant	-6624
vant	-6625
▁êtes	-6626
▁spent	-6627
ceptions	-6628
▁irak	-6629
▁parents	-6630
▁objet	-6631
▁marchandises	-6632
ché	-6633
▁late	-6634
▁mains	-6635
▁ouverte	-6636
ipp	-6637
▁élector	-6638
ttes	-6639
internet	-6640
▁rad	-6641
imbab	-6642
▁sole	-6643
atically	-6644
▁binding	-6645
▁endorse	-6646
▁banques	-6647
▁revenus	-6648
▁correctement	-6649
uter	-6650
nés	-6651
▁exactement	-6652
▁commenc	-6653
▁pronon	-6654
vo	-6655
▁detail	-6656
▁familles	-6657
▁suède	-6658
expérience	-6659
▁réflexion	-6660
▁zimbab	-6661
▁calcul	-6662
▁chemin	-6663
▁emphasis	-6664
▁fondamentale	-6665
▁supplement	-6666
undred	-6667
inks	-6668
▁suffit	-6669
ercussions	-6670
▁outil	-6671
hors	-6672
▁hours	-6673
▁attack	-6674
▁professionnelle	-6675
▁consumption	-6676
▁écr	-6677
ukraine	-6678
cupe	-6679
▁essentiellement	-6680
▁sauve	-6681
ino	-6682
▁témo	-6683
▁calendrier	-6684
▁socialiste	-6685
▁poids	-6686
▁biodivers	-6687
isé	-6688
▁maladie	-6689
▁satisfais	-6690
▁résid	-6691
▁hundred	-6692
ertain	-6693
▁expected	-6694
▁prol	-6695
▁matéri	-6696
▁series	-6697
mid	-6698
dibility	-6699
▁réalisés	-6700
▁favoriser	-6701
▁portant	-6702
hib	-6703
▁credibility	-6704
▁fasse	-6705
ènes	-6706
ocation	-6707
erved	-6708
▁vertu	-6709
▁accident	-6710
ini	-6711
tidi	-6712
intérieur	-6713
▁nul	-6714
▁enreg	-6715
▁utilisé	-6716
▁moving	-6717
▁proche	-6718
▁employees	-6719
▁frais	-6720
▁adoptées	-6721
▁distinction	-6722
agé	-6723
nant	-6724
sv	-6725
▁sett	-6726
harmonisation	-6727
mun	-6728
ights	-6729
▁financer	-6730
▁inclusion	-6731
▁cancer	-6732
pril	-6733
▁transatlan	-6734
▁politicians	-6735
▁sat	-6736
▁ultim	-6737
▁reasonable	-6738
▁commissions	-6739
▁limits	-6740
▁languages	-6741
▁ressor	-6742
▁admit	-6743
▁withdraw	-6744
▁meilleures	-6745
endra	-6746
▁médiateur	-6747
▁suppression	-6748
▁lower	-6749
cally	-6750
▁vacc	-6751
▁cycle	-6752
▁réussite	-6753
▁utilisation	-6754
▁pie	-6755
▁facile	-6756
▁transactions	-6757
▁yes	-6758
▁porter	-6759
▁implications	-6760
▁tac	-6761
▁april	-6762
▁domestic	-6763
▁trouvent	-6764
▁banks	-6765
▁injus	-6766
▁iden	-6767
▁repeated	-6768
▁langue	-6769
▁déterminer	-6770
▁religious	-6771
▁regulatory	-6772
mark	-6773
rop	-6774
▁parvenus	-6775
▁ut	-6776
▁quotidi	-6777
pay	-6778
crimin	-6779
▁bulgarie	-6780
uds	-6781
▁classi	-6782
▁matières	-6783
énie	-6784
▁omb	-6785
▁recour	-6786
obligation	-6787
▁batt	-6788
▁prosper	-6789
ographique	-6790
▁préserver	-6791
▁américains	-6792
▁debt	-6793
▁70	-6794
ential	-6795
œur	-6796
▁stake	-6797
amérique	-6798
animité	-6799
▁belie	-6800
▁entier	-6801
zech	-6802
inn	-6803
▁unless	-6804
alu	-6805
prét	-6806
▁lastly	-6807
ij	-6808
▁reprise	-6809
▁catastrophes	-6810
▁discip	-6811
▁idé	-6812
▁fermement	-6813
▁citizen	-6814
▁glad	-6815
▁fortement	-6816
▁complain	-6817
▁crédibil	-6818
▁reli	-6819
▁restent	-6820
▁viande	-6821
▁démocrates	-6822
export	-6823
presid	-6824
▁entreprise	-6825
▁greek	-6826
écu	-6827
unanimité	-6828
▁politics	-6829
▁entry	-6830
▁disapp	-6831
▁gave	-6832
entiel	-6833
▁rendu	-6834
▁incon	-6835
▁identi	-6836
▁started	-6837
ctif	-6838
ugg	-6839
▁czech	-6840
itons	-6841
enseignement	-6842
▁crédibilité	-6843
▁numer	-6844
▁speaker	-6845
▁positifs	-6846
▁comprends	-6847
▁ultimately	-6848
▁difficiles	-6849
▁terrorist	-6850
▁participate	-6851
atever	-6852
▁accrue	-6853
▁permit	-6854
▁soum	-6855
oub	-6856
▁works	-6857
▁90	-6858
▁fonde	-6859
chec	-6860
▁bou	-6861
▁citer	-6862
▁visit	-6863
▁whatever	-6864
▁obtain	-6865
▁destinés	-6866
▁factors	-6867
▁profonde	-6868
▁encouraging	-6869
▁torture	-6870
elfare	-6871
amsterdam	-6872
époque	-6873
enez	-6874
▁ombuds	-6875
▁actuelles	-6876
acco	-6877
▁attacks	-6878
▁easier	-6879
▁migr	-6880
▁welfare	-6881
▁tabac	-6882
▁étude	-6883
là	-6884
▁viens	-6885
▁combattre	-6886
▁sév	-6887
▁ash	-6888
étr	-6889
▁conviction	-6890
3.	-6891
▁%.	-6892
▁georg	-6893
▁adéquate	-6894
▁incomp	-6895
▁symbol	-6896
▁tobacco	-6897
▁missions	-6898
▁préparer	-6899
ened	-6900
▁unilat	-6901
▁grounds	-6902
▁mauvaise	-6903
ara	-6904
▁roma	-6905
assistance	-6906
▁multinational	-6907
▁heav	-6908
▁belong	-6909
atures	-6910
▁apart	-6911
examiner	-6912
▁functioning	-6913
chent	-6914
▁menac	-6915
▁règle	-6916
▁bomb	-6917
▁attendons	-6918
▁gros	-6919
▁mold	-6920
▁voluntary	-6921
▁feed	-6922
▁ving	-6923
▁associations	-6924
▁annuel	-6925
▁sept	-6926
▁autrich	-6927
▁professional	-6928
▁signaler	-6929
indépendance	-6930
▁démon	-6931
▁commentaires	-6932
▁termin	-6933
▁complète	-6934
▁compliance	-6935
▁appears	-6936
quently	-6937
▁plais	-6938
▁century	-6939
▁considérables	-6940
ley	-6941
ouvez	-6942
cés	-6943
aliste	-6944
▁trading	-6945
4,	-6946
▁gaza	-6947
estions	-6948
▁siècle	-6949
▁privil	-6950
▁lif	-6951
▁zimbabwe	-6952
rég	-6953
▁cœur	-6954
▁delighted	-6955
▁payer	-6956
▁decisive	-6957
▁flag	-6958
▁complexe	-6959
exe	-6960
▁mine	-6961
▁défend	-6962
▁coal	-6963
▁197	-6964
▁respected	-6965
▁alternatives	-6966
▁codé	-6967
tise	-6968
▁temporary	-6969
née	-6970
▁augmenter	-6971
▁conflicts	-6972
▁conservation	-6973
▁possibles	-6974
▁3,	-6975
▁doll	-6976
asm	-6977
▁dehors	-6978
▁tôt	-6979
▁réserves	-6980
based	-6981
▁cohérence	-6982
▁investments	-6983
agent	-6984
▁proposée	-6985
▁réfléchir	-6986
▁interpret	-6987
▁principales	-6988
▁souverain	-6989
▁raisonnable	-6990
▁résolutions	-6991
crire	-6992
▁constituer	-6993
ypre	-6994
▁topic	-6995
areness	-6996
▁chairman	-6997
▁numerous	-6998
▁facilitate	-6999
▁modernisation	-7000
30	-7001
actory	-7002
2.	-7003
ifier	-7004
▁arab	-7005
▁rome	-7006
ensive	-7007
▁socio	-7008
▁compren	-7009
▁souhaitent	-7010
▁suggestions	-7011
▁démontr	-7012
▁stri	-7013
cides	-7014
▁lettre	-7015
▁ouvert	-7016
active	-7017
▁scale	-7018
▁évoqué	-7019
▁chypre	-7020
▁revient	-7021
▁proposes	-7022
▁leadership	-7023
etheless	-7024
▁frag	-7025
▁symp	-7026
▁israéli	-7027
▁portée	-7028
▁imposed	-7029
▁contribué	-7030
▁labelling	-7031
▁nonetheless	-7032
▁2.	-7033
otan	-7034
▁vaste	-7035
▁evening	-7036
▁fighting	-7037
▁awareness	-7038
▁observations	-7039
▁spending	-7040
aison	-7041
▁partner	-7042
ares	-7043
▁helping	-7044
▁sensibil	-7045
▁blanc	-7046
▁motiv	-7047
▁worse	-7048
mas	-7049
▁souci	-7050
▁appropriations	-7051
▁hos	-7052
▁proposés	-7053
▁pouvez	-7054
▁actuels	-7055
▁fonctionnaires	-7056
5%	-7057
▁établi	-7058
▁préoccupation	-7059
urde	-7060
▁entendre	-7061
▁vaut	-7062
yes	-7063
▁inn	-7064
▁nato	-7065
▁thor	-7066
▁scheme	-7067
▁forthcoming	-7068
▁negotiating	-7069
▁vingt	-7070
▁connu	-7071
▁interested	-7072
▁quanti	-7073
érée	-7074
exemple	-7075
▁ombudsman	-7076
tering	-7077
▁copenhagen	-7078
isant	-7079
▁payment	-7080
▁permettent	-7081
▁élevés	-7082
etherlands	-7083
president	-7084
▁operations	-7085
▁diseases	-7086
▁copenhague	-7087
▁acte	-7088
▁solve	-7089
rétiens	-7090
▁valid	-7091
▁guaranteed	-7092
▁profits	-7093
▁vouloir	-7094
▁évolution	-7095
▁présidents	-7096
9,	-7097
onia	-7098
▁nour	-7099
▁hence	-7100
interdiction	-7101
mar	-7102
▁lien	-7103
▁requirement	-7104
▁paraît	-7105
▁netherlands	-7106
edy	-7107
▁ecu	-7108
▁num	-7109
▁tasks	-7110
▁placed	-7111
▁auxquelles	-7112
▁allowing	-7113
▁technological	-7114
▁commerciale	-7115
▁législatives	-7116
▁leader	-7117
▁paiement	-7118
▁truth	-7119
▁tribunal	-7120
inde	-7121
▁espace	-7122
▁likely	-7123
▁entraîner	-7124
▁vulner	-7125
▁régionales	-7126
▁exclusion	-7127
▁garder	-7128
atteindre	-7129
▁claires	-7130
▁partout	-7131
▁fourth	-7132
▁biens	-7133
▁interne	-7134
▁culturelle	-7135
▁colon	-7136
▁conven	-7137
▁notion	-7138
▁joue	-7139
rés	-7140
▁plant	-7141
▁fabric	-7142
▁margin	-7143
aucun	-7144
▁déposé	-7145
▁manage	-7146
▁précise	-7147
▁examples	-7148
▁continued	-7149
ctrices	-7150
▁visite	-7151
▁resolved	-7152
▁abandon	-7153
▁moitié	-7154
▁opérations	-7155
▁seconde	-7156
▁uniform	-7157
▁âg	-7158
▁erreur	-7159
▁ax	-7160
lif	-7161
▁traditional	-7162
ott	-7163
▁cong	-7164
▁fulfil	-7165
▁supprimer	-7166
▁slow	-7167
▁verh	-7168
▁poursuite	-7169
▁qualifications	-7170
▁vive	-7171
analy	-7172
▁douan	-7173
▁canada	-7174
▁chim	-7175
uting	-7176
certain	-7177
going	-7178
▁virt	-7179
▁science	-7180
▁pharm	-7181
án	-7182
▁sovi	-7183
▁incap	-7184
▁micro	-7185
▁purposes	-7186
▁études	-7187
▁linguis	-7188
▁tendance	-7189
▁separate	-7190
▁entreprene	-7191
▁relève	-7192
ancing	-7193
quetage	-7194
▁fal	-7195
▁peaceful	-7196
▁arrest	-7197
▁codécision	-7198
▁sérieusement	-7199
▁déploy	-7200
rième	-7201
let	-7202
mann	-7203
▁2000.	-7204
centage	-7205
5.	-7206
set	-7207
what	-7208
▁vivent	-7209
▁letter	-7210
▁disasters	-7211
▁débattre	-7212
▁pacifique	-7213
▁aspir	-7214
▁defined	-7215
econom	-7216
▁remarks	-7217
▁tibet	-7218
▁pêcheurs	-7219
-200	-7220
▁baltic	-7221
▁exists	-7222
▁quatrième	-7223
sibly	-7224
tront	-7225
▁electron	-7226
▁effectiveness	-7227
érance	-7228
▁thorough	-7229
aider	-7230
▁fixer	-7231
▁vivre	-7232
▁hausse	-7233
▁connaît	-7234
▁demonstrate	-7235
▁tir	-7236
▁demonstrated	-7237
▁gain	-7238
▁communi	-7239
▁break	-7240
▁garde	-7241
▁communs	-7242
éralement	-7243
▁péti	-7244
▁expérience	-7245
▁quin	-7246
uration	-7247
mbers	-7248
▁refuse	-7249
▁recevoir	-7250
▁radic	-7251
▁cab	-7252
▁mou	-7253
▁sexual	-7254
▁compter	-7255
▁officials	-7256
itage	-7257
▁trial	-7258
▁electric	-7259
7,	-7260
▁places	-7261
▁statistics	-7262
▁capacités	-7263
▁associated	-7264
dp	-7265
lated	-7266
▁moral	-7267
▁class	-7268
▁individuals	-7269
ior	-7270
ennes	-7271
▁grec	-7272
▁tenter	-7273
▁lond	-7274
▁vess	-7275
▁rid	-7276
▁protected	-7277
espoir	-7278
▁connaître	-7279
▁intensi	-7280
▁operators	-7281
mer	-7282
▁recy	-7283
impression	-7284
issait	-7285
▁black	-7286
▁concernent	-7287
▁voulu	-7288
▁pétrole	-7289
▁offrir	-7290
lez	-7291
▁wide	-7292
▁concré	-7293
▁amélioration	-7294
iant	-7295
▁réunions	-7296
▁space	-7297
▁déroul	-7298
sign	-7299
▁imposer	-7300
▁salari	-7301
▁activité	-7302
▁tried	-7303
▁facteurs	-7304
▁énorme	-7305
abling	-7306
appe	-7307
▁aliments	-7308
▁différence	-7309
otes	-7310
▁benefic	-7311
▁chemical	-7312
▁centrales	-7313
▁destinées	-7314
▁primarily	-7315
▁behav	-7316
▁flow	-7317
▁knows	-7318
▁parallèlement	-7319
▁constate	-7320
▁division	-7321
▁ignor	-7322
ût	-7323
▁avril	-7324
rim	-7325
▁favorables	-7326
▁obligatoire	-7327
▁serons	-7328
standing	-7329
▁cherche	-7330
▁horiz	-7331
▁friend	-7332
▁préciser	-7333
▁got	-7334
inqui	-7335
produ	-7336
▁alarm	-7337
assurance	-7338
▁undoub	-7339
chant	-7340
▁equip	-7341
▁méditerranée	-7342
▁austria	-7343
▁average	-7344
▁mentionner	-7345
ishing	-7346
▁trouvé	-7347
▁soyons	-7348
uese	-7349
▁india	-7350
▁chapit	-7351
▁operate	-7352
▁paiements	-7353
ect	-7354
▁phénomène	-7355
▁conce	-7356
▁gross	-7357
▁esprit	-7358
▁contained	-7359
▁majeure	-7360
▁legitimate	-7361
▁revision	-7362
démocrates	-7363
▁justified	-7364
▁reb	-7365
▁wit	-7366
▁portuguese	-7367
▁conscients	-7368
▁entitled	-7369
▁concluded	-7370
▁dangereux	-7371
roi	-7372
uent	-7373
iennes	-7374
▁hands	-7375
economic	-7376
angers	-7377
▁terrible	-7378
▁cig	-7379
cin	-7380
ames	-7381
néra	-7382
▁frapp	-7383
▁ment	-7384
▁présentée	-7385
▁spread	-7386
▁amounts	-7387
éder	-7388
▁rétabl	-7389
▁paro	-7390
effort	-7391
▁section	-7392
▁subse	-7393
▁realise	-7394
▁naturelles	-7395
▁electronic	-7396
tically	-7397
lying	-7398
▁caractéris	-7399
▁considering	-7400
▁toler	-7401
▁eg	-7402
▁fondée	-7403
▁passengers	-7404
ived	-7405
▁textes	-7406
▁capables	-7407
▁transfert	-7408
▁approve	-7409
▁vulnéra	-7410
▁relativement	-7411
▁administratives	-7412
▁complètement	-7413
▁ethnic	-7414
▁overcome	-7415
▁confusion	-7416
▁dig	-7417
▁meaning	-7418
▁difference	-7419
▁optim	-7420
▁...	-7421
▁appu	-7422
▁allou	-7423
▁surely	-7424
▁traditions	-7425
▁2004,	-7426
osent	-7427
▁conjoin	-7428
▁britanniques	-7429
▁hors	-7430
▁appropriée	-7431
▁2009.	-7432
▁dépit	-7433
▁navig	-7434
▁imports	-7435
▁contamin	-7436
▁emergency	-7437
▁assume	-7438
▁dignity	-7439
▁execu	-7440
▁noted	-7441
▁infring	-7442
▁penalty	-7443
▁dignité	-7444
▁réglementations	-7445
▁passed	-7446
▁irlande	-7447
▁involves	-7448
uits	-7449
▁prolong	-7450
▁proposées	-7451
ns	-7452
gement	-7453
▁chinese	-7454
▁petite	-7455
cho	-7456
▁played	-7457
▁inquiétudes	-7458
▁permettrait	-7459
sy	-7460
▁réel	-7461
▁parad	-7462
med	-7463
▁prévue	-7464
▁cooperate	-7465
ired	-7466
▁dutch	-7467
▁tun	-7468
▁intervenir	-7469
ibilité	-7470
▁extended	-7471
▁check	-7472
▁compared	-7473
▁allocated	-7474
vité	-7475
indi	-7476
▁firmly	-7477
▁fonctionne	-7478
▁néer	-7479
▁plein	-7480
▁prohib	-7481
▁pilier	-7482
▁obstacle	-7483
▁2011	-7484
▁sacr	-7485
▁pouvait	-7486
▁générales	-7487
▁cinqu	-7488
▁apporté	-7489
▁undoubtedly	-7490
▁concert	-7491
iran	-7492
▁cot	-7493
bruary	-7494
8,	-7495
cipé	-7496
▁farming	-7497
igé	-7498
▁composition	-7499
▁reiter	-7500
▁dumping	-7501
▁insurance	-7502
▁concentration	-7503
tées	-7504
▁organes	-7505
▁ressortiss	-7506
oon	-7507
▁approfond	-7508
évrier	-7509
▁urban	-7510
▁futures	-7511
▁privé	-7512
▁orateurs	-7513
▁slova	-7514
▁southern	-7515
▁détermination	-7516
adow	-7517
ints	-7518
▁treated	-7519
iends	-7520
▁abuse	-7521
▁migrants	-7522
▁operational	-7523
mpleur	-7524
tation	-7525
▁kar	-7526
▁garantiss	-7527
ining	-7528
▁flot	-7529
▁autour	-7530
anda	-7531
▁patent	-7532
▁formuler	-7533
▁february	-7534
▁trou	-7535
try	-7536
ointed	-7537
▁lose	-7538
erty	-7539
▁régimes	-7540
den	-7541
▁passage	-7542
exclusion	-7543
▁principale	-7544
▁stra	-7545
▁prévenir	-7546
▁ong	-7547
▁offers	-7548
▁ambitions	-7549
▁orientale	-7550
▁universal	-7551
▁consolidation	-7552
▁coast	-7553
▁sites	-7554
espagne	-7555
▁préjud	-7556
▁février	-7557
▁cars	-7558
▁perdre	-7559
▁miss	-7560
▁rational	-7561
aceu	-7562
▁planned	-7563
▁fonctionner	-7564
▁industrielle	-7565
6,	-7566
▁realistic	-7567
▁vulnerable	-7568
▁hongro	-7569
▁disting	-7570
▁tam	-7571
▁répéter	-7572
▁sympath	-7573
▁tchèque	-7574
▁auraient	-7575
▁experien	-7576
cas	-7577
▁param	-7578
▁studies	-7579
gl	-7580
▁villes	-7581
▁plaisir	-7582
obile	-7583
▁happens	-7584
▁envisager	-7585
▁premiers	-7586
ilt	-7587
▁ambition	-7588
▁cohérente	-7589
italie	-7590
ciliation	-7591
uler	-7592
▁friends	-7593
▁somewhat	-7594
ba	-7595
élimin	-7596
▁croire	-7597
▁palestine	-7598
▁4,	-7599
quested	-7600
▁systématique	-7601
▁seven	-7602
general	-7603
▁geograph	-7604
▁requested	-7605
▁gone	-7606
▁taxe	-7607
▁accueill	-7608
▁identit	-7609
▁adhésion	-7610
▁unfair	-7611
9)	-7612
ermen	-7613
otechn	-7614
▁détails	-7615
▁elector	-7616
aller	-7617
iale	-7618
ives	-7619
institutional	-7620
▁installations	-7621
étude	-7622
▁homme	-7623
▁honest	-7624
▁afford	-7625
▁property	-7626
▁amen	-7627
▁latter	-7628
▁pillar	-7629
▁présents	-7630
▁preventing	-7631
▁fine	-7632
érés	-7633
▁perdu	-7634
▁radical	-7635
▁clé	-7636
▁stabilisation	-7637
iour	-7638
▁roms	-7639
▁viable	-7640
▁preparing	-7641
enqu	-7642
apporter	-7643
▁illustr	-7644
▁youth	-7645
européens	-7646
▁soumettre	-7647
▁organisée	-7648
▁lou	-7649
îne	-7650
uées	-7651
▁worry	-7652
▁allows	-7653
▁prove	-7654
▁2009,	-7655
médi	-7656
▁fuel	-7657
advant	-7658
no	-7659
▁feu	-7660
▁comprend	-7661
▁suivant	-7662
▁school	-7663
accepter	-7664
▁az	-7665
▁2006,	-7666
▁prepare	-7667
▁fishermen	-7668
▁[	-7669
▁destroy	-7670
▁acknowledge	-7671
▁applying	-7672
care	-7673
▁vict	-7674
tivity	-7675
▁textile	-7676
▁mouvement	-7677
▁directrices	-7678
illing	-7679
▁couver	-7680
▁disadvant	-7681
▁behaviour	-7682
▁highest	-7683
▁statute	-7684
▁territorial	-7685
dez	-7686
rière	-7687
▁ajoutée	-7688
▁diversi	-7689
ordi	-7690
▁bil	-7691
▁inade	-7692
▁américain	-7693
▁remarquer	-7694
▁existantes	-7695
▁ep	-7696
▁1999,	-7697
human	-7698
▁transn	-7699
▁silence	-7700
▁respecte	-7701
▁administr	-7702
▁procure	-7703
▁bound	-7704
▁constantly	-7705
▁tool	-7706
▁spoken	-7707
▁drawing	-7708
▁keeping	-7709
ouvrir	-7710
▁voyage	-7711
phere	-7712
▁details	-7713
▁react	-7714
ony	-7715
bler	-7716
▁postp	-7717
▁slovak	-7718
▁facteur	-7719
▁appreciate	-7720
▁voisinage	-7721
▁accounts	-7722
▁spect	-7723
▁privatis	-7724
▁humain	-7725
▁montrent	-7726
▁supervis	-7727
▁introducing	-7728
arme	-7729
▁répartition	-7730
cées	-7731
▁mode	-7732
▁adver	-7733
▁existent	-7734
▁taxpay	-7735
▁hal	-7736
▁capitaux	-7737
▁tang	-7738
▁uncertain	-7739
▁tentative	-7740
▁2007,	-7741
▁géorg	-7742
▁améliorations	-7743
▁israeli	-7744
▁socialistes	-7745
estim	-7746
▁créé	-7747
▁philos	-7748
▁urgently	-7749
▁expectations	-7750
▁2010.	-7751
▁tâches	-7752
▁meilleurs	-7753
▁spoke	-7754
tiennent	-7755
▁handic	-7756
▁vast	-7757
lection	-7758
▁importations	-7759
ientôt	-7760
▁revanche	-7761
ueil	-7762
▁bientôt	-7763
blin	-7764
▁codecision	-7765
▁bit	-7766
engager	-7767
▁aviation	-7768
▁ngos	-7769
▁block	-7770
▁duties	-7771
▁latest	-7772
▁monopol	-7773
▁phen	-7774
▁vérité	-7775
▁doha	-7776
▁relates	-7777
▁retrait	-7778
▁witness	-7779
/98	-7780
▁construire	-7781
▁majeur	-7782
▁pursue	-7783
▁phenomen	-7784
exportation	-7785
▁err	-7786
▁lancé	-7787
affaire	-7788
▁exemples	-7789
ills	-7790
▁recycl	-7791
▁culturel	-7792
▁détru	-7793
▁facts	-7794
▁organisé	-7795
▁processes	-7796
ses	-7797
▁dangers	-7798
▁incident	-7799
▁stronger	-7800
▁performance	-7801
▁attentive	-7802
estation	-7803
▁réagir	-7804
▁kore	-7805
▁protég	-7806
▁viennent	-7807
▁announced	-7808
▁prosperity	-7809
%.	-7810
▁annivers	-7811
5-00	-7812
▁persuad	-7813
▁proceedings	-7814
périté	-7815
▁2005,	-7816
▁prennent	-7817
▁contribue	-7818
euse	-7819
onais	-7820
▁commencé	-7821
▁française	-7822
▁propriété	-7823
▁determined	-7824
▁300	-7825
▁described	-7826
icy	-7827
comed	-7828
▁prospérité	-7829
▁pouss	-7830
▁écl	-7831
▁quinze	-7832
▁welcomed	-7833
▁rob	-7834
▁argent	-7835
irak	-7836
▁différente	-7837
▁politically	-7838
▁volume	-7839
▁ressort	-7840
▁travaillé	-7841
▁valu	-7842
▁défaut	-7843
▁palestiniens	-7844
▁constitutionnel	-7845
▁precise	-7846
▁reconnu	-7847
▁expliquer	-7848
▁japan	-7849
▁historic	-7850
▁sold	-7851
▁ayons	-7852
▁vat	-7853
▁signature	-7854
▁croatia	-7855
appel	-7856
▁clean	-7857
sec	-7858
▁2003,	-7859
▁briefly	-7860
▁absten	-7861
▁dublin	-7862
▁routes	-7863
cks	-7864
▁abus	-7865
▁bann	-7866
▁prêt	-7867
▁consultations	-7868
enty	-7869
itely	-7870
▁formal	-7871
▁élimin	-7872
auration	-7873
▁ferroviaire	-7874
érieurs	-7875
▁operating	-7876
▁strategies	-7877
▁maintaining	-7878
▁arbit	-7879
▁disag	-7880
▁barriers	-7881
▁existants	-7882
▁continuent	-7883
▁coordinated	-7884
osé	-7885
▁chef	-7886
▁timet	-7887
▁êtres	-7888
▁sincèrement	-7889
▁gérer	-7890
uée	-7891
▁strengthened	-7892
▁privée	-7893
▁accompan	-7894
▁asia	-7895
▁préoc	-7896
▁essentielles	-7897
▁confirmed	-7898
▁revis	-7899
▁bout	-7900
▁bâti	-7901
▁2008,	-7902
▁entrer	-7903
▁cofin	-7904
▁beings	-7905
▁brok	-7906
▁contain	-7907
▁bol	-7908
▁diox	-7909
▁régler	-7910
ctricité	-7911
▁clarify	-7912
▁approprié	-7913
arrêt	-7914
▁joué	-7915
prétation	-7916
▁débatt	-7917
▁organismes	-7918
▁aurions	-7919
▁suggestion	-7920
▁persist	-7921
▁contradiction	-7922
car	-7923
▁kept	-7924
▁espoir	-7925
▁croatie	-7926
▁dette	-7927
▁décenn	-7928
▁paroles	-7929
▁efficacité	-7930
asing	-7931
▁learning	-7932
▁corp	-7933
▁intends	-7934
▁represented	-7935
▁semblent	-7936
appar	-7937
▁saur	-7938
▁menées	-7939
▁capitale	-7940
▁publicité	-7941
▁stratégies	-7942
▁préalable	-7943
▁electricity	-7944
▁rejo	-7945
▁transposition	-7946
▁matern	-7947
▁bor	-7948
▁bush	-7949
▁considérons	-7950
▁octroy	-7951
burg	-7952
iées	-7953
▁educ	-7954
▁signé	-7955
▁détail	-7956
▁largely	-7957
ette	-7958
▁clauses	-7959
alists	-7960
▁pesti	-7961
ko	-7962
▁scrut	-7963
▁touche	-7964
▁largest	-7965
pées	-7966
▁vigil	-7967
hension	-7968
▁fields	-7969
▁debating	-7970
▁mach	-7971
timis	-7972
▁juris	-7973
/97	-7974
▁chale	-7975
▁travaillent	-7976
▁délic	-7977
▁conserver	-7978
▁stands	-7979
▁imagine	-7980
▁mutuelle	-7981
èse	-7982
argo	-7983
ési	-7984
ball	-7985
▁baisse	-7986
▁published	-7987
▁aéro	-7988
ignent	-7989
▁reconnaît	-7990
▁élargissement	-7991
▁wine	-7992
▁finding	-7993
▁equipment	-7994
▁amending	-7995
instrument	-7996
▁considéré	-7997
▁materials	-7998
▁sovereignty	-7999
dess	-8000
ming	-8001
▁legitim	-8002
▁pharmaceu	-8003
▁introduit	-8004
▁advis	-8005
ajouter	-8006
▁afrique	-8007
▁réform	-8008
▁humaines	-8009
year	-8010
▁colomb	-8011
▁activement	-8012
▁innovative	-8013
▁énergétiques	-8014
ison	-8015
teen	-8016
▁brings	-8017
oz	-8018
▁distor	-8019
discrimin	-8020
▁énergies	-8021
▁alde	-8022
▁fruits	-8023
▁sortir	-8024
▁chinois	-8025
▁souveraineté	-8026
▁room	-8027
▁marge	-8028
aliment	-8029
▁alco	-8030
▁méditerrané	-8031
appelle	-8032
▁industrie	-8033
▁enregistr	-8034
▁menée	-8035
▁applications	-8036
/2000	-8037
▁contracts	-8038
▁extensive	-8039
▁bee	-8040
tising	-8041
▁patten	-8042
▁remarqu	-8043
▁ende	-8044
▁rac	-8045
▁intéressant	-8046
oslav	-8047
acquis	-8048
▁gauche	-8049
▁prévoir	-8050
▁ville	-8051
▁écologique	-8052
itée	-8053
▁answers	-8054
▁pragm	-8055
▁suffer	-8056
▁eth	-8057
▁fat	-8058
▁image	-8059
▁suppose	-8060
▁believes	-8061
▁2010,	-8062
culation	-8063
instant	-8064
ugoslav	-8065
▁crédit	-8066
honorable	-8067
▁ense	-8068
▁satell	-8069
▁perfectly	-8070
▁urgency	-8071
▁shadow	-8072
▁anticip	-8073
▁commence	-8074
ato	-8075
▁vivement	-8076
▁ongoing	-8077
▁identity	-8078
▁undertaken	-8079
ories	-8080
▁généralement	-8081
▁core	-8082
▁follows	-8083
▁significantly	-8084
▁yugoslav	-8085
▁solana	-8086
▁careful	-8087
invite	-8088
président	-8089
▁changing	-8090
▁réduit	-8091
inely	-8092
▁ressortissants	-8093
▁avancées	-8094
▁saluer	-8095
wan	-8096
▁quit	-8097
▁liée	-8098
▁medical	-8099
▁ru	-8100
avait	-8101
▁déficit	-8102
▁offered	-8103
▁suit	-8104
▁2007.	-8105
▁indépendant	-8106
▁felt	-8107
▁coordonn	-8108
tex	-8109
▁advance	-8110
▁manufacturer	-8111
▁appoint	-8112
▁legally	-8113
▁bri	-8114
▁serbia	-8115
▁waiting	-8116
▁observation	-8117
holm	-8118
▁supr	-8119
ducted	-8120
▁comportement	-8121
▁%,	-8122
▁mos	-8123
sives	-8124
sement	-8125
▁diminution	-8126
oks	-8127
inal	-8128
uves	-8129
octroi	-8130
▁démarche	-8131
▁compatible	-8132
▁denrées	-8133
ieuse	-8134
tein	-8135
▁minist	-8136
▁someone	-8137
neur	-8138
▁fixé	-8139
undi	-8140
états	-8141
▁dependent	-8142
▁beg	-8143
▁eco	-8144
▁medicines	-8145
▁impar	-8146
▁locaux	-8147
▁incombe	-8148
▁automobile	-8149
▁determination	-8150
accorder	-8151
ett	-8152
▁fas	-8153
▁endeav	-8154
▁scrutin	-8155
▁exportations	-8156
avais	-8157
ualité	-8158
▁kurd	-8159
▁swift	-8160
▁moyenne	-8161
▁abordé	-8162
iable	-8163
ovine	-8164
▁define	-8165
▁renforcée	-8166
▁répète	-8167
▁apporte	-8168
▁propag	-8169
▁syndic	-8170
▁wealth	-8171
isted	-8172
▁bons	-8173
▁exceptions	-8174
▁visent	-8175
▁équipe	-8176
▁exports	-8177
▁récente	-8178
isée	-8179
▁intol	-8180
▁primordi	-8181
▁exha	-8182
▁centaines	-8183
érales	-8184
▁accroître	-8185
▁participants	-8186
▁volontaire	-8187
▁formulation	-8188
▁bref	-8189
▁proved	-8190
▁énergie	-8191
▁flor	-8192
▁fisch	-8193
▁oppose	-8194
▁retraite	-8195
02	-8196
uted	-8197
aving	-8198
aborder	-8199
▁holding	-8200
▁dérog	-8201
▁federal	-8202
▁approxim	-8203
▁qualified	-8204
▁difficulty	-8205
▁postes	-8206
▁rurales	-8207
▁indépendants	-8208
▁technologique	-8209
▁lam	-8210
▁cruci	-8211
▁faute	-8212
▁prête	-8213
▁disagree	-8214
▁intensive	-8215
▁débou	-8216
▁philosoph	-8217
▁understood	-8218
▁pic	-8219
▁choose	-8220
▁prévues	-8221
▁win	-8222
isra	-8223
▁spr	-8224
ficits	-8225
▁evalu	-8226
▁coherent	-8227
▁adopte	-8228
ansion	-8229
▁carte	-8230
▁intégrée	-8231
encourager	-8232
▁television	-8233
où	-8234
öm	-8235
pal	-8236
▁recr	-8237
▁partenaire	-8238
ops	-8239
rence	-8240
▁forg	-8241
▁pain	-8242
▁recall	-8243
▁complement	-8244
▁perte	-8245
▁repose	-8246
▁conduit	-8247
▁supposed	-8248
▁utilisées	-8249
tröm	-8250
ulsory	-8251
▁teach	-8252
▁seeing	-8253
▁solide	-8254
icycle	-8255
agissait	-8256
▁neighbours	-8257
▁restructuring	-8258
▁5,	-8259
▁faibles	-8260
▁découl	-8261
▁referring	-8262
termine	-8263
▁répercussions	-8264
’.	-8265
▁vessels	-8266
▁disposent	-8267
cies	-8268
▁brièvement	-8269
▁settlement	-8270
▁socialists	-8271
nées	-8272
uing	-8273
andest	-8274
▁highlighted	-8275
▁inad	-8276
▁2004.	-8277
▁ashton	-8278
▁amended	-8279
▁provenance	-8280
▁reten	-8281
▁3.	-8282
urb	-8283
unesse	-8284
▁valuable	-8285
▁genuinely	-8286
▁clairs	-8287
▁hypocr	-8288
▁présentation	-8289
ga	-8290
▁prec	-8291
ski	-8292
lined	-8293
▁assumer	-8294
▁sanction	-8295
appréci	-8296
çu	-8297
▁driving	-8298
cting	-8299
oubli	-8300
rol	-8301
▁adoptés	-8302
▁gue	-8303
▁deter	-8304
▁disposal	-8305
▁innoc	-8306
/2001	-8307
élérer	-8308
irait	-8309
▁tellement	-8310
▁accessible	-8311
▁concrets	-8312
▁derrière	-8313
▁transformation	-8314
itz	-8315
▁satisfactory	-8316
▁georgia	-8317
▁concrète	-8318
▁bénéfices	-8319
▁frontière	-8320
▁significance	-8321
▁honn	-8322
▁somme	-8323
▁latin	-8324
▁neighbourhood	-8325
paravant	-8326
augmenter	-8327
▁entrepreneurs	-8328
))	-8329
▁approuver	-8330
▁pratiquement	-8331
aily	-8332
▁timor	-8333
▁hungarian	-8334
jan	-8335
èvent	-8336
entendre	-8337
▁connaissons	-8338
ova	-8339
istic	-8340
▁milk	-8341
▁agence	-8342
▁directe	-8343
introduire	-8344
▁preparation	-8345
▁sustainability	-8346
5-01	-8347
▁daily	-8348
▁habitants	-8349
approbation	-8350
▁hol	-8351
▁prononcer	-8352
ds	-8353
romp	-8354
▁primary	-8355
▁clandest	-8356
vote	-8357
▁médic	-8358
▁dossiers	-8359
▁respective	-8360
léter	-8361
▁exercer	-8362
▁director	-8363
▁fischler	-8364
avec	-8365
▁2008.	-8366
▁électeurs	-8367
▁tol	-8368
▁précon	-8369
▁conforme	-8370
▁ras	-8371
▁coûte	-8372
▁thurs	-8373
▁breach	-8374
▁remark	-8375
▁deficit	-8376
▁collabor	-8377
agée	-8378
qual	-8379
▁mag	-8380
▁lie	-8381
▁basée	-8382
▁électronique	-8383
ground	-8384
▁degré	-8385
▁désign	-8386
▁contradict	-8387
cidence	-8388
▁flu	-8389
▁défav	-8390
▁leads	-8391
▁génétique	-8392
▁presidents	-8393
▁urb	-8394
▁introduire	-8395
titudes	-8396
▁provenant	-8397
▁reprendre	-8398
amendements	-8399
eugen	-8400
étiquetage	-8401
necess	-8402
▁arrêt	-8403
▁resulting	-8404
▁tva	-8405
▁serbie	-8406
▁illégale	-8407
ulz	-8408
alisé	-8409
▁greens	-8410
▁allemand	-8411
▁contrairement	-8412
▁finland	-8413
bone	-8414
▁displ	-8415
▁préci	-8416
▁souha	-8417
▁preced	-8418
▁turning	-8419
▁chann	-8420
▁football	-8421
▁verheugen	-8422
▁significative	-8423
▁devient	-8424
▁dynamique	-8425
▁negotiation	-8426
pere	-8427
▁tête	-8428
▁divid	-8429
▁schulz	-8430
▁becomes	-8431
▁essayer	-8432
▁étroitement	-8433
▁insu	-8434
▁team	-8435
▁irresp	-8436
onie	-8437
▁kil	-8438
▁slight	-8439
▁stipul	-8440
▁thursday	-8441
round	-8442
obil	-8443
▁attentes	-8444
▁waters	-8445
▁investigation	-8446
▁pollu	-8447
▁éché	-8448
quality	-8449
▁playing	-8450
ileo	-8451
▁users	-8452
▁diverg	-8453
infr	-8454
alisée	-8455
▁civiles	-8456
▁connaissances	-8457
▁unp	-8458
oquer	-8459
▁wider	-8460
▁donnée	-8461
▁plants	-8462
▁unnecess	-8463
voir	-8464
▁acknowled	-8465
▁conception	-8466
infrastru	-8467
▁vendre	-8468
▁inflation	-8469
applique	-8470
▁jeudi	-8471
▁rectif	-8472
▁remettre	-8473
lim	-8474
dr	-8475
ona	-8476
▁enquête	-8477
▁transitional	-8478
▁prisonn	-8479
▁previously	-8480
▁déposés	-8481
▁governing	-8482
▁stockholm	-8483
▁saw	-8484
▁levée	-8485
▁quota	-8486
▁amis	-8487
▁accordée	-8488
▁suggested	-8489
▁neighbouring	-8490
▁choisir	-8491
▁problématique	-8492
▁multilateral	-8493
▁bosnia	-8494
▁drogue	-8495
▁mobilisation	-8496
ano	-8497
parli	-8498
▁disappe	-8499
▁meat	-8500
▁attempts	-8501
▁elsewhere	-8502
ondu	-8503
▁fic	-8504
▁légitime	-8505
parliament	-8506
▁galileo	-8507
▁built	-8508
▁birm	-8509
diovis	-8510
▁expli	-8511
▁scandale	-8512
▁35	-8513
dessus	-8514
▁actively	-8515
▁eight	-8516
▁prati	-8517
▁requests	-8518
▁inclure	-8519
▁évaluer	-8520
▁rémun	-8521
adresse	-8522
▁considers	-8523
▁chercher	-8524
▁speeches	-8525
burants	-8526
hne	-8527
▁modes	-8528
▁bénéfici	-8529
▁arch	-8530
ulsion	-8531
▁libéraux	-8532
ighten	-8533
▁travaille	-8534
▁britain	-8535
▁numbers	-8536
▁camps	-8537
▁pesticides	-8538
▁strugg	-8539
▁strictes	-8540
électricité	-8541
irable	-8542
▁î	-8543
▁élo	-8544
effor	-8545
▁usage	-8546
▁quantité	-8547
enquête	-8548
▁avancée	-8549
▁rh	-8550
▁hit	-8551
attitude	-8552
▁constitute	-8553
▁clarification	-8554
▁duquel	-8555
gues	-8556
▁agit	-8557
▁liens	-8558
vez	-8559
▁possibly	-8560
mod	-8561
▁tenue	-8562
ériences	-8563
▁définitive	-8564
▁sets	-8565
▁2002,	-8566
▁distance	-8567
▁greatly	-8568
aurais	-8569
umed	-8570
▁satisfied	-8571
▁phr	-8572
▁avantage	-8573
ngl	-8574
▁congo	-8575
▁comit	-8576
▁gagner	-8577
▁partly	-8578
▁thanking	-8579
▁reaction	-8580
▁thèmes	-8581
▁précédente	-8582
▁dism	-8583
▁indicated	-8584
▁pire	-8585
▁taille	-8586
▁enforcement	-8587
▁release	-8588
éval	-8589
demment	-8590
▁certif	-8591
▁publication	-8592
influ	-8593
▁identify	-8594
▁opérateurs	-8595
▁choisi	-8596
▁reflète	-8597
▁sufficiently	-8598
▁loy	-8599
▁sid	-8600
▁meant	-8601
▁maintained	-8602
▁santer	-8603
▁deliber	-8604
▁tampere	-8605
6-0	-8606
▁alli	-8607
▁cheap	-8608
▁ignore	-8609
▁internes	-8610
▁allemagne	-8611
▁gdp	-8612
osing	-8613
▁quasi	-8614
▁privés	-8615
▁concentrate	-8616
aucune	-8617
▁géorgie	-8618
▁contrats	-8619
▁participé	-8620
aves	-8621
▁inadequate	-8622
21	-8623
identif	-8624
▁coopérer	-8625
rees	-8626
▁excellente	-8627
▁télévision	-8628
▁links	-8629
▁aériennes	-8630
▁réside	-8631
▁obliged	-8632
▁opposite	-8633
▁déclare	-8634
▁timetable	-8635
▁anciens	-8636
▁lan	-8637
▁compt	-8638
ivalent	-8639
▁permettront	-8640
isés	-8641
ventive	-8642
▁tragic	-8643
▁biotechn	-8644
▁indirect	-8645
▁maî	-8646
▁tri	-8647
▁civils	-8648
appropri	-8649
▁catégorie	-8650
▁mun	-8651
▁prenons	-8652
▁satisfaire	-8653
christian	-8654
▁chaleure	-8655
▁lié	-8656
▁informer	-8657
▁flux	-8658
▁pleas	-8659
▁judic	-8660
▁secretary	-8661
▁profondément	-8662
▁austrian	-8663
osen	-8664
armes	-8665
▁quelqu	-8666
▁species	-8667
▁salaires	-8668
▁compulsory	-8669
▁perp	-8670
▁push	-8671
▁running	-8672
▁russe	-8673
▁régionaux	-8674
ika	-8675
vic	-8676
▁effor	-8677
▁voitures	-8678
▁susceptibles	-8679
auff	-8680
▁clarté	-8681
▁background	-8682
▁essentially	-8683
bret	-8684
▁rapporteure	-8685
▁remp	-8686
▁biom	-8687
▁demi	-8688
▁équilibré	-8689
inki	-8690
ured	-8691
contre	-8692
▁2006.	-8693
▁disant	-8694
bretagne	-8695
▁finlande	-8696
▁observe	-8697
bo	-8698
▁psy	-8699
▁mené	-8700
▁venez	-8701
elsinki	-8702
▁remove	-8703
instar	-8704
▁revenu	-8705
▁prisoners	-8706
▁trouvons	-8707
▁concrètement	-8708
pa	-8709
analyse	-8710
▁fixés	-8711
▁affects	-8712
▁hundreds	-8713
▁justification	-8714
hor	-8715
assin	-8716
▁demeure	-8717
▁handica	-8718
▁pétitions	-8719
▁cad	-8720
▁frank	-8721
▁aftern	-8722
▁examen	-8723
vit	-8724
▁révis	-8725
▁identified	-8726
▁interpretation	-8727
▁trait	-8728
▁christian	-8729
uré	-8730
vie	-8731
▁texts	-8732
▁nécessite	-8733
▁bö	-8734
▁launched	-8735
èles	-8736
▁banc	-8737
▁suffered	-8738
▁deserves	-8739
▁contribuera	-8740
eties	-8741
▁flood	-8742
related	-8743
▁himself	-8744
▁explicite	-8745
▁territoires	-8746
▁societies	-8747
▁echo	-8748
▁remplacer	-8749
▁élaborer	-8750
▁discipline	-8751
▁temporaire	-8752
▁riches	-8753
▁debated	-8754
entreprises	-8755
▁bse	-8756
▁appare	-8757
▁worldwide	-8758
▁stay	-8759
▁motor	-8760
▁apparaît	-8761
▁carrying	-8762
▁institutionnel	-8763
▁schools	-8764
appu	-8765
▁mob	-8766
sp	-8767
empêcher	-8768
▁hearing	-8769
▁petitions	-8770
▁went	-8771
▁équilibrée	-8772
jection	-8773
▁courts	-8774
ètent	-8775
▁légitim	-8776
▁chapitre	-8777
▁2001,	-8778
▁ambigu	-8779
▁helped	-8780
▁chimiques	-8781
▁guaranteeing	-8782
▁possibilities	-8783
▁openness	-8784
▁difficulté	-8785
▁chosen	-8786
▁destiné	-8787
▁franch	-8788
▁advertising	-8789
fon	-8790
▁oly	-8791
▁thé	-8792
▁1999.	-8793
▁cities	-8794
▁heading	-8795
▁completed	-8796
▁lobby	-8797
▁sugar	-8798
▁ultra	-8799
▁conducted	-8800
▁diss	-8801
orship	-8802
érable	-8803
orientation	-8804
▁ed	-8805
lers	-8806
pire	-8807
redi	-8808
▁city	-8809
anging	-8810
ified	-8811
▁olymp	-8812
▁issued	-8813
accomp	-8814
▁boost	-8815
▁rigoure	-8816
▁schemes	-8817
▁retirer	-8818
▁supprim	-8819
▁courant	-8820
▁vulnérables	-8821
▁contribuables	-8822
▁sorry	-8823
▁nobody	-8824
timate	-8825
yle	-8826
▁none	-8827
▁vérifier	-8828
▁rejeter	-8829
▁heritage	-8830
igner	-8831
▁convenu	-8832
▁complicated	-8833
han	-8834
▁huit	-8835
▁addressing	-8836
▁rub	-8837
▁interv	-8838
▁2007-201	-8839
▁definitely	-8840
iendrait	-8841
▁mettent	-8842
▁privilég	-8843
uild	-8844
▁mich	-8845
▁proof	-8846
▁afternoon	-8847
▁âgées	-8848
aille	-8849
offre	-8850
▁sang	-8851
▁seeks	-8852
▁length	-8853
▁compréhension	-8854
iry	-8855
▁soud	-8856
inclusion	-8857
▁conduire	-8858
▁erreurs	-8859
écus	-8860
▁gap	-8861
▁2005.	-8862
▁prévoy	-8863
▁prétend	-8864
▁ord	-8865
▁racism	-8866
▁exhaus	-8867
iphér	-8868
▁soup	-8869
▁corps	-8870
▁spite	-8871
▁vague	-8872
émicycle	-8873
▁dynamic	-8874
▁cite	-8875
acement	-8876
raction	-8877
▁category	-8878
▁crains	-8879
▁poorest	-8880
accroître	-8881
▁diplomatic	-8882
ón	-8883
▁réserv	-8884
érations	-8885
▁effectué	-8886
▁lith	-8887
▁heavy	-8888
▁cam	-8889
▁danish	-8890
▁détriment	-8891
▁législations	-8892
akes	-8893
▁pib	-8894
▁saisir	-8895
▁fournisse	-8896
▁moroc	-8897
▁psych	-8898
▁whereas	-8899
▁pressions	-8900
quons	-8901
▁désire	-8902
▁bureaucratie	-8903
étaient	-8904
▁competent	-8905
▁signe	-8906
▁successfully	-8907
uc	-8908
avère	-8909
affaires	-8910
▁chiffre	-8911
▁ratified	-8912
▁accomplis	-8913
midi	-8914
▁éth	-8915
▁exclusivement	-8916
▁facilities	-8917
▁confirmer	-8918
▁intellectual	-8919
▁ravi	-8920
▁patrim	-8921
▁hungary	-8922
▁bosnie	-8923
▁positives	-8924
▁déclarer	-8925
▁hous	-8926
▁maroc	-8927
▁impéra	-8928
▁tragedy	-8929
▁1995	-8930
▁exemp	-8931
▁whereby	-8932
mic	-8933
ètres	-8934
▁discuté	-8935
▁interdiction	-8936
discrimination	-8937
▁lithu	-8938
▁complet	-8939
▁inutile	-8940
▁japon	-8941
importe	-8942
▁échange	-8943
▁auparavant	-8944
bc	-8945
grad	-8946
▁dre	-8947
▁empê	-8948
israël	-8949
▁deals	-8950
▁earth	-8951
▁spring	-8952
▁conseils	-8953
▁register	-8954
▁poste	-8955
▁futurs	-8956
▁dispute	-8957
▁structurelles	-8958
fficient	-8959
▁prospects	-8960
free	-8961
▁prev	-8962
▁extending	-8963
▁horr	-8964
▁belgian	-8965
▁frontex	-8966
▁tensions	-8967
▁vente	-8968
▁respectent	-8969
▁size	-8970
▁count	-8971
▁mines	-8972
▁forêts	-8973
▁ukrain	-8974
▁attendent	-8975
▁surmon	-8976
approuve	-8977
umes	-8978
▁atmos	-8979
▁désas	-8980
▁suffisant	-8981
▁liqu	-8982
▁régulièrement	-8983
▁mistake	-8984
▁concessions	-8985
▁watch	-8986
▁intégration	-8987
âge	-8988
ries	-8989
▁worst	-8990
▁répondu	-8991
▁generation	-8992
odi	-8993
enfants	-8994
▁simult	-8995
▁constaté	-8996
▁remov	-8997
▁purely	-8998
▁véritables	-8999
▁corr	-9000
▁dess	-9001
▁inég	-9002
▁venu	-9003
▁acting	-9004
▁healthy	-9005
▁polonais	-9006
▁polish	-9007
▁entam	-9008
▁sinon	-9009
▁concrétis	-9010
▁lacunes	-9011
▁négocier	-9012
▁20%	-9013
▁mén	-9014
essentiel	-9015
▁baltique	-9016
▁administrations	-9017
oman	-9018
▁ant	-9019
▁écout	-9020
▁carbon	-9021
▁appropriées	-9022
▁motifs	-9023
▁soulevé	-9024
▁discutons	-9025
ery	-9026
▁increases	-9027
▁accordingly	-9028
lever	-9029
▁méde	-9030
▁agents	-9031
▁plaf	-9032
▁belgium	-9033
▁players	-9034
▁sentence	-9035
▁prisonniers	-9036
▁consenti	-9037
▁marketing	-9038
berg	-9039
▁époque	-9040
▁jeunesse	-9041
▁demanding	-9042
▁professionnels	-9043
mages	-9044
▁menaces	-9045
▁taxpayers	-9046
▁considerations	-9047
ork	-9048
▁vill	-9049
▁représentation	-9050
▁dirais	-9051
▁harmful	-9052
▁worrying	-9053
eurs	-9054
étais	-9055
▁litu	-9056
iphériques	-9057
▁barcelone	-9058
▁transmission	-9059
exper	-9060
▁relance	-9061
isées	-9062
put	-9063
▁canc	-9064
bilité	-9065
▁imper	-9066
▁marine	-9067
▁milieu	-9068
▁barcelona	-9069
▁surmonter	-9070
▁unanimously	-9071
fying	-9072
sts	-9073
▁1994	-9074
▁dites	-9075
▁dollars	-9076
▁justifier	-9077
▁bénéficient	-9078
abled	-9079
▁hamas	-9080
▁nationals	-9081
▁clon	-9082
▁convaincre	-9083
▁fu	-9084
▁rede	-9085
▁rent	-9086
▁corée	-9087
▁neutr	-9088
▁skills	-9089
▁continuera	-9090
lt	-9091
unity	-9092
isations	-9093
▁suédois	-9094
▁foremost	-9095
▁producing	-9096
▁relatively	-9097
▁formulées	-9098
▁transatlantic	-9099
sifs	-9100
▁vin	-9101
▁bilan	-9102
▁préte	-9103
▁solely	-9104
▁threats	-9105
sias	-9106
▁hui	-9107
▁latine	-9108
▁opened	-9109
▁bearing	-9110
▁destination	-9111
▁lay	-9112
▁revers	-9113
▁rencontre	-9114
▁handicapées	-9115
▁determine	-9116
ça	-9117
scale	-9118
▁remo	-9119
▁depends	-9120
▁savings	-9121
▁stressed	-9122
terr	-9123
▁ing	-9124
▁journée	-9125
▁pencher	-9126
▁débattons	-9127
▁artif	-9128
▁pertes	-9129
▁optimis	-9130
abilities	-9131
▁roth	-9132
▁allemande	-9133
▁web	-9134
iling	-9135
agisse	-9136
▁purch	-9137
▁respects	-9138
▁banan	-9139
▁planète	-9140
▁méritent	-9141
▁appliquées	-9142
▁manufacturers	-9143
sim	-9144
▁hopes	-9145
imposer	-9146
▁chargé	-9147
▁audiovis	-9148
▁phenomenon	-9149
ctifs	-9150
formes	-9151
▁irré	-9152
▁racisme	-9153
▁correctly	-9154
extr	-9155
érées	-9156
▁everybody	-9157
▁suffisante	-9158
▁easily	-9159
▁hauteur	-9160
▁quote	-9161
▁saddam	-9162
▁orientation	-9163
▁host	-9164
atrice	-9165
habitants	-9166
itch	-9167
▁imb	-9168
▁fragment	-9169
ext	-9170
rov	-9171
▁rul	-9172
alliance	-9173
▁tools	-9174
▁passenger	-9175
▁navigation	-9176
▁posé	-9177
▁précé	-9178
▁précédemment	-9179
▁remerciements	-9180
▁ic	-9181
▁rédigé	-9182
▁alcohol	-9183
▁combin	-9184
▁visible	-9185
▁autorité	-9186
▁dommages	-9187
.)	-9188
ieuses	-9189
▁présentés	-9190
▁environnemental	-9191
▁immigr	-9192
▁purement	-9193
incl	-9194
ueux	-9195
▁proud	-9196
▁engagés	-9197
▁familiar	-9198
▁inqu	-9199
▁korea	-9200
▁manifes	-9201
▁faith	-9202
ki	-9203
asie	-9204
holders	-9205
▁revoir	-9206
▁dév	-9207
dictions	-9208
▁rapidly	-9209
agnes	-9210
opportun	-9211
▁cuts	-9212
▁prouv	-9213
▁recip	-9214
▁claims	-9215
▁utilisée	-9216
▁américaine	-9217
cupé	-9218
▁advice	-9219
▁annoncé	-9220
▁decades	-9221
▁considerably	-9222
▁manifestement	-9223
▁island	-9224
▁histoire	-9225
▁geographical	-9226
▁hun	-9227
▁facilement	-9228
▁civilisation	-9229
▁environmentally	-9230
▁town	-9231
▁tenant	-9232
▁hongrie	-9233
érant	-9234
▁manip	-9235
▁pénale	-9236
▁subsid	-9237
▁extreme	-9238
▁restre	-9239
▁preuves	-9240
▁barb	-9241
▁reve	-9242
▁aggra	-9243
▁granting	-9244
▁légitimité	-9245
▁parc	-9246
▁reliable	-9247
▁achievement	-9248
▁explicit	-9249
▁sum	-9250
ocide	-9251
▁exceed	-9252
▁bois	-9253
ounting	-9254
▁refers	-9255
▁site	-9256
▁indépendante	-9257
▁clés	-9258
▁sert	-9259
▁promised	-9260
▁niger	-9261
▁secrétaire	-9262
▁requi	-9263
abe	-9264
▁suspension	-9265
▁clarity	-9266
▁bureaucracy	-9267
):	-9268
oivent	-9269
▁doubts	-9270
▁remplir	-9271
▁adm	-9272
▁airlines	-9273
▁consacré	-9274
elson	-9275
▁feeling	-9276
▁enabling	-9277
roit	-9278
▁pénal	-9279
▁remaining	-9280
▁patrimoine	-9281
▁experienced	-9282
▁élus	-9283
▁urgence	-9284
▁démontré	-9285
▁fonctions	-9286
▁reserv	-9287
garde	-9288
▁comport	-9289
▁rappelé	-9290
excellent	-9291
▁clarifier	-9292
▁2003.	-9293
oted	-9294
▁toxic	-9295
ements	-9296
aissent	-9297
▁rejeté	-9298
(200	-9299
▁scep	-9300
▁massac	-9301
▁sensibles	-9302
▁connaissent	-9303
▁hu	-9304
ek	-9305
▁sain	-9306
▁macéd	-9307
hou	-9308
▁artifici	-9309
▁scène	-9310
▁savent	-9311
▁advantages	-9312
▁belgique	-9313
▁stratégiques	-9314
non	-9315
▁affirmer	-9316
▁minorité	-9317
▁incont	-9318
▁présentent	-9319
▁willingness	-9320
▁depr	-9321
▁paying	-9322
▁focused	-9323
▁intégrer	-9324
▁piece	-9325
▁encouraged	-9326
user	-9327
▁favourable	-9328
autrich	-9329
▁indique	-9330
▁initiale	-9331
▁jun	-9332
session	-9333
▁ecb	-9334
▁await	-9335
▁marque	-9336
▁carbone	-9337
▁fifth	-9338
▁écoles	-9339
▁appartient	-9340
▁emphasised	-9341
institutionnel	-9342
▁nourr	-9343
▁twenty	-9344
▁refuser	-9345
▁simplifier	-9346
▁disprop	-9347
▁génération	-9348
médiaire	-9349
mn	-9350
▁mm	-9351
accueil	-9352
▁suitable	-9353
▁supplementary	-9354
▁repris	-9355
▁licenci	-9356
riez	-9357
▁bate	-9358
▁declared	-9359
étch	-9360
▁contributed	-9361
▁undertakings	-9362
gest	-9363
▁remédi	-9364
alle	-9365
▁demandent	-9366
▁ral	-9367
▁nettement	-9368
aspect	-9369
▁mobile	-9370
▁fiscales	-9371
▁instances	-9372
▁reflected	-9373
▁intérieure	-9374
▁extraordinaire	-9375
▁entered	-9376
rance	-9377
▁exter	-9378
▁owners	-9379
▁imparti	-9380
▁certainty	-9381
▁lire	-9382
▁aside	-9383
▁existant	-9384
▁tenus	-9385
tension	-9386
▁destinée	-9387
issue	-9388
▁label	-9389
▁compon	-9390
▁tchétch	-9391
▁messages	-9392
iann	-9393
▁crée	-9394
▁peur	-9395
▁sloven	-9396
▁sacrific	-9397
▁tangible	-9398
▁succeeded	-9399
▁prenne	-9400
▁assurance	-9401
▁legitimacy	-9402
▁dangereuses	-9403
▁400	-9404
▁modified	-9405
▁dépendance	-9406
▁historical	-9407
▁œ	-9408
aibl	-9409
▁perpé	-9410
▁bce	-9411
▁upd	-9412
▁beef	-9413
▁biggest	-9414
▁enhance	-9415
▁moderne	-9416
▁bienvenue	-9417
▁unnecessary	-9418
▁maced	-9419
▁adresser	-9420
▁franc	-9421
▁frustr	-9422
▁voici	-9423
%,	-9424
▁alleg	-9425
▁disent	-9426
▁retrouver	-9427
effet	-9428
▁russes	-9429
▁powerful	-9430
▁souhaitable	-9431
naire	-9432
ussie	-9433
▁rassemb	-9434
▁unli	-9435
▁finale	-9436
▁bour	-9437
▁recourir	-9438
▁dar	-9439
oured	-9440
▁augmenté	-9441
▁recettes	-9442
▁endors	-9443
▁parven	-9444
▁engagée	-9445
▁disproportion	-9446
▁syr	-9447
▁cinquième	-9448
arc	-9449
▁punish	-9450
▁espagnole	-9451
▁competences	-9452
ulaire	-9453
▁summer	-9454
▁applicables	-9455
▁constitutes	-9456
▁développements	-9457
▁reaching	-9458
▁detriment	-9459
▁sexuelle	-9460
▁denmark	-9461
▁eye	-9462
▁regarded	-9463
▁affecting	-9464
▁foundation	-9465
spe	-9466
raid	-9467
▁desqu	-9468
▁voyons	-9469
▁croissante	-9470
▁da	-9471
▁arise	-9472
▁espérer	-9473
enses	-9474
▁décis	-9475
habil	-9476
missible	-9477
outer	-9478
▁healthcare	-9479
titut	-9480
▁négl	-9481
▁aug	-9482
innock	-9483
évaluer	-9484
▁drogues	-9485
▁prie	-9486
▁serre	-9487
érences	-9488
▁satellite	-9489
▁suivantes	-9490
▁citizenship	-9491
▁scot	-9492
▁negotiated	-9493
instauration	-9494
▁remarquable	-9495
▁côt	-9496
▁handicap	-9497
▁souhaité	-9498
tte	-9499
▁firms	-9500
▁6,	-9501
▁kinnock	-9502
▁insufficient	-9503
▁cauc	-9504
▁ships	-9505
▁frat	-9506
élaborer	-9507
arisation	-9508
extérieur	-9509
▁controvers	-9510
▁possède	-9511
▁prochains	-9512
▁bénéficiaires	-9513
ili	-9514
▁coton	-9515
▁stopp	-9516
▁removed	-9517
▁greenh	-9518
▁abolition	-9519
entiss	-9520
▁désastre	-9521
▁différent	-9522
itive	-9523
enneté	-9524
▁2002.	-9525
▁monti	-9526
▁atteinte	-9527
▁démontre	-9528
exer	-9529
▁aér	-9530
isten	-9531
assent	-9532
▁leaving	-9533
▁basically	-9534
▁deeply	-9535
▁reservations	-9536
▁murd	-9537
▁madrid	-9538
▁incenti	-9539
▁objections	-9540
▁présentées	-9541
argeted	-9542
▁devenu	-9543
▁légale	-9544
autriche	-9545
▁censure	-9546
▁ache	-9547
▁délib	-9548
▁leçons	-9549
▁surround	-9550
▁considérations	-9551
enz	-9552
▁déten	-9553
reshold	-9554
étendre	-9555
▁concep	-9556
▁disposi	-9557
▁adjustment	-9558
▁pet	-9559
emark	-9560
▁fast	-9561
▁gard	-9562
▁utmost	-9563
▁quelcon	-9564
▁considérée	-9565
zen	-9566
▁paris	-9567
extension	-9568
▁disappoint	-9569
▁prosec	-9570
inten	-9571
▁privile	-9572
économique	-9573
▁appliquée	-9574
▁lever	-9575
▁nearly	-9576
▁reiterate	-9577
dent	-9578
▁mosc	-9579
▁danemark	-9580
▁surprise	-9581
▁employers	-9582
▁threshold	-9583
ographic	-9584
▁considérant	-9585
▁cau	-9586
▁combus	-9587
▁excuse	-9588
intégrer	-9589
▁exprimées	-9590
card	-9591
▁élu	-9592
▁honte	-9593
▁suivants	-9594
▁greenhouse	-9595
▁presenting	-9596
▁consequence	-9597
▁mix	-9598
▁afraid	-9599
▁motions	-9600
▁disabled	-9601
ging	-9602
▁affirmé	-9603
▁pensent	-9604
▁electoral	-9605
▁explanation	-9606
▁restructuration	-9607
▁1998,	-9608
▁raising	-9609
▁smaller	-9610
▁indiquer	-9611
▁army	-9612
▁noon	-9613
▁atlan	-9614
▁analyses	-9615
▁inappropri	-9616
wing	-9617
▁néerlandais	-9618
resh	-9619
▁étend	-9620
fa	-9621
uons	-9622
▁fit	-9623
▁inév	-9624
▁armed	-9625
▁ridic	-9626
▁voudrions	-9627
osy	-9628
▁soumise	-9629
▁incorporated	-9630
ala	-9631
▁blair	-9632
▁inquiétude	-9633
once	-9634
entra	-9635
▁chaîne	-9636
▁utiles	-9637
▁expansion	-9638
▁night	-9639
▁italie	-9640
affirmer	-9641
currence	-9642
émission	-9643
▁inspections	-9644
▁remb	-9645
accords	-9646
▁subjects	-9647
ouer	-9648
alising	-9649
▁retire	-9650
▁privatisation	-9651
▁indu	-9652
▁occidentaux	-9653
▁declarations	-9654
oned	-9655
▁voies	-9656
adapter	-9657
▁réclam	-9658
▁sought	-9659
▁observer	-9660
▁intervene	-9661
▁qualifiée	-9662
▁fréqu	-9663
▁postal	-9664
▁élaboré	-9665
▁instamment	-9666
▁fairly	-9667
▁islands	-9668
▁applicant	-9669
mor	-9670
▁unity	-9671
iendrons	-9672
10	-9673
▁5.	-9674
▁choc	-9675
▁mettant	-9676
▁allocation	-9677
▁chaleureusement	-9678
▁camb	-9679
▁libres	-9680
aie	-9681
▁pir	-9682
▁réaliste	-9683
▁37	-9684
▁fos	-9685
▁sake	-9686
▁2020.	-9687
▁restore	-9688
▁ordinary	-9689
cod	-9690
▁martin	-9691
▁communist	-9692
▁convaincue	-9693
▁prétexte	-9694
astat	-9695
▁sûreté	-9696
humanité	-9697
▁étrangers	-9698
▁aspirations	-9699
▁straight	-9700
▁expériences	-9701
▁yougos	-9702
▁évoquer	-9703
▁targeted	-9704
run	-9705
abol	-9706
ayer	-9707
échec	-9708
▁combined	-9709
ami	-9710
▁limitée	-9711
▁obtained	-9712
▁candidates	-9713
▁spl	-9714
▁magn	-9715
▁millenn	-9716
hom	-9717
onne	-9718
oute	-9719
▁absurd	-9720
▁engager	-9721
▁climatiques	-9722
itis	-9723
▁particuliers	-9724
ney	-9725
icate	-9726
▁club	-9727
▁durabilité	-9728
▁catégories	-9729
autorisation	-9730
cles	-9731
▁espèces	-9732
organiser	-9733
▁remédier	-9734
▁restrictive	-9735
▁4.	-9736
▁siège	-9737
while	-9738
▁cast	-9739
▁fermet	-9740
▁deserve	-9741
▁plafond	-9742
face	-9743
▁fortun	-9744
▁entraîne	-9745
▁limitation	-9746
▁garantissant	-9747
▁congratulations	-9748
8/	-9749
asion	-9750
▁exploit	-9751
▁sched	-9752
alimentation	-9753
ogue	-9754
▁côtés	-9755
▁dav	-9756
osex	-9757
▁excluded	-9758
▁accordé	-9759
tered	-9760
▁millén	-9761
▁contribuent	-9762
/2001)	-9763
▁prest	-9764
▁négatif	-9765
▁violent	-9766
▁promise	-9767
nier	-9768
▁impati	-9769
▁interpre	-9770
▁supérieur	-9771
▁citoyenneté	-9772
imag	-9773
▁sah	-9774
▁weight	-9775
▁buildings	-9776
envis	-9777
aurait	-9778
▁von	-9779
▁voulais	-9780
)).	-9781
pped	-9782
▁reass	-9783
▁creates	-9784
▁fallait	-9785
▁minimales	-9786
▁incentives	-9787
atisf	-9788
estre	-9789
▁liberties	-9790
▁importantly	-9791
▁guère	-9792
coun	-9793
▁bless	-9794
▁pouvant	-9795
▁judiciaires	-9796
do	-9797
▁vac	-9798
▁1997,	-9799
▁développés	-9800
25	-9801
▁inj	-9802
▁organise	-9803
▁biodiversity	-9804
▁unre	-9805
ergies	-9806
entissage	-9807
▁preparations	-9808
▁ouvrir	-9809
▁negotiate	-9810
élimination	-9811
▁irlandaise	-9812
▁approfondie	-9813
▁derog	-9814
▁enlarg	-9815
▁jointly	-9816
▁investir	-9817
▁ry	-9818
▁sak	-9819
▁îles	-9820
▁burma	-9821
▁accorde	-9822
▁appliqué	-9823
▁concepts	-9824
▁credible	-9825
uding	-9826
▁rang	-9827
▁criminels	-9828
▁permanente	-9829
▁réductions	-9830
▁candidat	-9831
▁complaints	-9832
▁xx	-9833
owski	-9834
▁railway	-9835
ographiques	-9836
▁millennium	-9837
road	-9838
▁fleet	-9839
▁réels	-9840
▁librement	-9841
▁regardless	-9842
▁hél	-9843
iel	-9844
cons	-9845
▁procl	-9846
▁roman	-9847
▁seuil	-9848
▁exiger	-9849
▁élevées	-9850
▁cruciale	-9851
▁necessarily	-9852
▁venons	-9853
▁welcomes	-9854
ampleur	-9855
▁phrase	-9856
▁portent	-9857
▁outstanding	-9858
▁eyes	-9859
▁absolue	-9860
▁retrouv	-9861
ank	-9862
bate	-9863
▁actif	-9864
▁irre	-9865
▁milose	-9866
▁moldova	-9867
▁récip	-9868
▁politiquement	-9869
▁showing	-9870
akis	-9871
▁unan	-9872
▁brevet	-9873
ôts	-9874
▁revised	-9875
▁surprised	-9876
▁décide	-9877
▁aéroports	-9878
▁seules	-9879
▁wording	-9880
mat	-9881
asser	-9882
▁engl	-9883
▁promesses	-9884
law	-9885
▁sell	-9886
hensible	-9887
▁reserve	-9888
▁drafting	-9889
▁stations	-9890
▁milosevic	-9891
esb	-9892
▁alongside	-9893
▁rapprocher	-9894
▁renforcé	-9895
▁générations	-9896
/96	-9897
▁frontal	-9898
▁reflects	-9899
▁slovakia	-9900
▁extérieur	-9901
▁quelconque	-9902
adaptation	-9903
comings	-9904
▁hardly	-9905
▁digital	-9906
▁washing	-9907
▁récon	-9908
▁explications	-9909
▁heureusement	-9910
entement	-9911
iquement	-9912
▁heureuse	-9913
▁shortcomings	-9914
ube	-9915
▁partant	-9916
▁accur	-9917
▁etats	-9918
▁téléph	-9919
▁pleasure	-9920
▁prendra	-9921
▁tente	-9922
▁apparent	-9923
▁confirmé	-9924
▁examined	-9925
elled	-9926
▁justify	-9927
▁décennies	-9928
▁étions	-9929
▁repeatedly	-9930
▁brevets	-9931
▁bureaucratic	-9932
▁réglementaire	-9933
▁aud	-9934
voyer	-9935
▁diagn	-9936
orateur	-9937
▁changé	-9938
▁espagnol	-9939
▁expressing	-9940
▁economically	-9941
▁exécu	-9942
▁campagnes	-9943
▁incidents	-9944
▁indispensables	-9945
liers	-9946
attaquer	-9947
▁wind	-9948
▁affirme	-9949
▁consacrer	-9950
▁recommande	-9951
▁exceptional	-9952
▁coin	-9953
▁students	-9954
▁foundations	-9955
▁sudan	-9956
▁veill	-9957
▁representation	-9958
édie	-9959
▁hélas	-9960
▁eliminate	-9961
agées	-9962
▁paradox	-9963
▁simples	-9964
▁promises	-9965
▁diminuer	-9966
▁territoriale	-9967
ypt	-9968
rets	-9969
aming	-9970
orous	-9971
▁reconnaissant	-9972
▁fewer	-9973
▁tenté	-9974
▁feront	-9975
▁macédoine	-9976
▁partageons	-9977
▁similaires	-9978
▁educational	-9979
sen	-9980
▁sis	-9981
▁millénaire	-9982
▁constamment	-9983
lant	-9984
▁buy	-9985
▁spor	-9986
▁restriction	-9987
aks	-9988
▁repos	-9989
▁séjour	-9990
▁broader	-9991
▁suédoise	-9992
▁indication	-9993
▁poet	-9994
▁droite	-9995
▁voient	-9996
▁écrites	-9997
▁appris	-9998
▁impliqués	-9999
raft	-10000
▁helsinki	-10001
▁partager	-10002
sch	-10003
/2003	-10004
▁embry	-10005
▁checks	-10006
▁turned	-10007
▁underline	-10008
▁chapter	-10009
▁suspended	-10010
▁dg	-10011
ajus	-10012
▁jeop	-10013
▁delays	-10014
▁informé	-10015
▁printemps	-10016
rist	-10017
▁transparente	-10018
)]	-10019
aw	-10020
▁perpet	-10021
▁suspect	-10022
▁unemployed	-10023
alco	-10024
alisés	-10025
▁phare	-10026
▁trend	-10027
amo	-10028
▁liability	-10029
▁fresh	-10030
▁maîtr	-10031
pap	-10032
▁appelé	-10033
▁commend	-10034
▁tackling	-10035
▁7,	-10036
▁publié	-10037
▁félicitations	-10038
▁connais	-10039
▁coordonner	-10040
▁journalistes	-10041
▁sele	-10042
▁couple	-10043
▁engagé	-10044
▁airports	-10045
▁resulted	-10046
▁tough	-10047
▁doutes	-10048
▁moteur	-10049
▁attentivement	-10050
▁8,	-10051
▁comparable	-10052
▁ig	-10053
stuff	-10054
▁disons	-10055
▁posent	-10056
▁revend	-10057
▁executive	-10058
▁slovaquie	-10059
▁progressivement	-10060
▁sau	-10061
▁atti	-10062
istics	-10063
▁puissance	-10064
▁kinds	-10065
▁falls	-10066
▁0.	-10067
▁plat	-10068
▁posée	-10069
▁sports	-10070
▁file	-10071
▁couvrir	-10072
▁aids	-10073
espread	-10074
▁enhanced	-10075
▁widespread	-10076
place	-10077
ingent	-10078
▁belge	-10079
▁husse	-10080
▁shape	-10081
▁tariff	-10082
▁physical	-10083
▁periods	-10084
▁cultiv	-10085
▁macedonia	-10086
▁penalties	-10087
▁biodiversité	-10088
annual	-10089
ser	-10090
▁below	-10091
▁warmly	-10092
▁journalists	-10093
▁palestinien	-10094
▁incompati	-10095
▁pn	-10096
augh	-10097
▁retain	-10098
▁coalition	-10099
▁susceptible	-10100
otion	-10101
▁lessons	-10102
▁élargie	-10103
▁undermine	-10104
énor	-10105
▁répression	-10106
▁convic	-10107
▁critère	-10108
▁belief	-10109
▁flotte	-10110
▁fourni	-10111
▁nomination	-10112
▁smo	-10113
▁relate	-10114
▁adéquat	-10115
▁picture	-10116
▁deadline	-10117
▁organization	-10118
▁dup	-10119
▁hussein	-10120
son	-10121
exig	-10122
rupt	-10123
▁ecofin	-10124
attle	-10125
▁opposés	-10126
▁adaptation	-10127
▁extraordinary	-10128
mont	-10129
▁leban	-10130
▁électorale	-10131
▁blood	-10132
▁salariés	-10133
▁spécifiquement	-10134
▁0,	-10135
itées	-10136
▁licences	-10137
ensions	-10138
▁stance	-10139
▁preserve	-10140
▁géographique	-10141
15	-10142
èdent	-10143
▁sauvegarde	-10144
▁organiz	-10145
▁attaques	-10146
▁montants	-10147
▁planification	-10148
▁unit	-10149
▁intégré	-10150
▁lasting	-10151
▁fiscalité	-10152
▁constructif	-10153
▁pé	-10154
▁affich	-10155
▁jouent	-10156
▁standing	-10157
▁territories	-10158
▁ça	-10159
▁pilot	-10160
▁dress	-10161
roissement	-10162
ario	-10163
eken	-10164
▁bir	-10165
▁italien	-10166
▁retards	-10167
▁informés	-10168
▁demographic	-10169
alcool	-10170
▁expense	-10171
▁airc	-10172
▁pier	-10173
entité	-10174
▁pétro	-10175
▁libération	-10176
▁terrorists	-10177
▁transmettre	-10178
ned	-10179
▁ola	-10180
acking	-10181
▁losses	-10182
▁provin	-10183
▁unfortunate	-10184
▁palestinians	-10185
▁supran	-10186
▁fassent	-10187
▁tiendra	-10188
▁stimuler	-10189
&#	-10190
▁card	-10191
▁york	-10192
▁qualit	-10193
▁fire	-10194
▁discriminations	-10195
uck	-10196
▁cell	-10197
▁veto	-10198
▁popular	-10199
▁authoris	-10200
▁similarly	-10201
▁restricted	-10202
oda	-10203
▁impliquer	-10204
▁washington	-10205
▁widely	-10206
▁concret	-10207
influence	-10208
occurrence	-10209
▁processing	-10210
▁uncertainty	-10211
écut	-10212
ataires	-10213
attends	-10214
▁prévus	-10215
coni	-10216
▁became	-10217
▁soulever	-10218
▁yugoslavia	-10219
pital	-10220
▁acce	-10221
▁cele	-10222
▁désir	-10223
utation	-10224
▁corpor	-10225
▁modalités	-10226
opol	-10227
▁olaf	-10228
▁laeken	-10229
▁aircraft	-10230
▁civilian	-10231
rad	-10232
▁diz	-10233
▁accepte	-10234
▁plaintes	-10235
pping	-10236
▁celebr	-10237
▁shares	-10238
▁gratitude	-10239
▁représenter	-10240
▁rare	-10241
▁provis	-10242
▁dictatorship	-10243
ama	-10244
ems	-10245
alling	-10246
▁award	-10247
hand	-10248
hier	-10249
▁emu	-10250
ading	-10251
▁honor	-10252
itables	-10253
▁emphasi	-10254
▁islamic	-10255
ouvements	-10256
▁gradually	-10257
▁36	-10258
▁aus	-10259
▁jeux	-10260
▁scandal	-10261
▁pluriann	-10262
▁expensive	-10263
▁redund	-10264
sibility	-10265
▁immense	-10266
▁satisfaisante	-10267
▁enje	-10268
ressions	-10269
▁revenue	-10270
ola	-10271
▁nine	-10272
▁nuit	-10273
▁défini	-10274
atom	-10275
fort	-10276
▁darf	-10277
▁sûrs	-10278
▁geneva	-10279
▁liquid	-10280
▁english	-10281
▁garantit	-10282
▁protectionn	-10283
tige	-10284
▁door	-10285
▁dirai	-10286
évent	-10287
▁ence	-10288
▁drafted	-10289
▁correcte	-10290
▁regulated	-10291
▁conscient	-10292
▁explained	-10293
▁battle	-10294
▁freely	-10295
▁genève	-10296
▁précédents	-10297
▁procurement	-10298
▁fro	-10299
▁raw	-10300
intégr	-10301
▁1996,	-10302
▁espagne	-10303
▁condamner	-10304
▁larger	-10305
▁offering	-10306
▁condemned	-10307
▁instaurer	-10308
▁indications	-10309
▁haz	-10310
▁repro	-10311
▁deaths	-10312
▁london	-10313
▁lithuania	-10314
hear	-10315
▁banking	-10316
▁rétablir	-10317
▁proposons	-10318
▁infe	-10319
▁occurred	-10320
▁elder	-10321
▁médec	-10322
▁détour	-10323
▁vieill	-10324
▁ethical	-10325
▁devienne	-10326
▁regulate	-10327
▁quotidien	-10328
observ	-10329
▁morts	-10330
▁tragédie	-10331
▁révolution	-10332
tini	-10333
▁diam	-10334
oublions	-10335
▁récents	-10336
▁défavoris	-10337
▁collaborer	-10338
▁revolution	-10339
minent	-10340
▁notice	-10341
▁recherches	-10342
▁lait	-10343
▁puts	-10344
▁liban	-10345
▁albania	-10346
▁périodes	-10347
▁fisc	-10348
▁depart	-10349
▁récentes	-10350
▁éman	-10351
▁covers	-10352
▁demandeurs	-10353
▁demonstrates	-10354
▁finir	-10355
▁laiti	-10356
▁morocco	-10357
▁frattini	-10358
commission	-10359
▁jean	-10360
ulaires	-10361
▁législature	-10362
armée	-10363
lavie	-10364
uilding	-10365
▁outils	-10366
▁cach	-10367
kestein	-10368
▁receiving	-10369
’,	-10370
élev	-10371
▁cond	-10372
▁vain	-10373
▁espère	-10374
▁unanimous	-10375
agés	-10376
onné	-10377
▁unw	-10378
▁labor	-10379
▁indicate	-10380
▁accompagn	-10381
ancien	-10382
▁ecological	-10383
▁opportunités	-10384
▁intellectuelle	-10385
isson	-10386
▁embargo	-10387
▁inquiry	-10388
auteur	-10389
▁outset	-10390
▁mur	-10391
▁michel	-10392
▁150	-10393
grade	-10394
▁mexic	-10395
▁vivant	-10396
▁aboutir	-10397
▁warning	-10398
zil	-10399
erai	-10400
nalité	-10401
▁promis	-10402
▁interim	-10403
40	-10404
▁voc	-10405
▁1990	-10406
▁perç	-10407
▁kilom	-10408
▁milliard	-10409
▁196	-10410
engage	-10411
▁fruct	-10412
▁renforce	-10413
zone	-10414
▁finn	-10415
▁sucre	-10416
▁listened	-10417
▁résistance	-10418
âts	-10419
▁indicators	-10420
▁generations	-10421
▁industriels	-10422
crates	-10423
▁shame	-10424
▁causing	-10425
▁declare	-10426
▁fournit	-10427
▁modifié	-10428
▁préjudice	-10429
▁culturelles	-10430
▁humanitaires	-10431
▁indépendamment	-10432
disant	-10433
armement	-10434
▁donnent	-10435
▁var	-10436
▁informal	-10437
▁bâtiments	-10438
▁approximately	-10439
erving	-10440
▁elderly	-10441
▁fermeture	-10442
▁occupation	-10443
ètes	-10444
illon	-10445
▁opportunité	-10446
▁inspir	-10447
▁collecte	-10448
▁respecté	-10449
▁culturels	-10450
▁précises	-10451
▁souffrent	-10452
▁presentation	-10453
▁cesser	-10454
▁législatifs	-10455
yr	-10456
impose	-10457
▁began	-10458
▁catch	-10459
▁dégâts	-10460
▁formule	-10461
▁shortly	-10462
▁mondiaux	-10463
▁sérieuse	-10464
acio	-10465
ancienne	-10466
▁endeavour	-10467
▁danube	-10468
▁fifteen	-10469
▁45	-10470
▁veille	-10471
itical	-10472
▁attent	-10473
▁passion	-10474
mé	-10475
▁équiv	-10476
▁financed	-10477
ypri	-10478
▁beau	-10479
▁dras	-10480
▁fier	-10481
▁parent	-10482
▁décisif	-10483
▁croissant	-10484
bel	-10485
point	-10486
ronter	-10487
▁modest	-10488
▁échelle	-10489
▁mouvements	-10490
▁côte	-10491
▁unions	-10492
▁barnier	-10493
apprentissage	-10494
▁sta	-10495
▁forests	-10496
▁paralle	-10497
▁pursuant	-10498
▁meur	-10499
▁neuf	-10500
▁ferons	-10501
▁engaged	-10502
yed	-10503
oboda	-10504
oupes	-10505
ueuse	-10506
▁munici	-10507
▁observed	-10508
▁prioritaires	-10509
exception	-10510
équipe	-10511
unction	-10512
▁institute	-10513
▁bolkestein	-10514
erb	-10515
▁judge	-10516
cap	-10517
level	-10518
▁guant	-10519
▁tribute	-10520
▁imposées	-10521
▁coordinate	-10522
▁insiste	-10523
▁privées	-10524
ield	-10525
▁devenue	-10526
▁weakness	-10527
▁americans	-10528
2/	-10529
main	-10530
aring	-10531
▁walls	-10532
▁néglig	-10533
▁reinforce	-10534
▁looked	-10535
▁sphere	-10536
▁dommage	-10537
regulation	-10538
ancy	-10539
umul	-10540
▁enthu	-10541
▁expertise	-10542
▁conclus	-10543
▁italienne	-10544
▁bilatéraux	-10545
▁75	-10546
▁noise	-10547
▁déplac	-10548
▁modèles	-10549
chrétiens	-10550
▁diffusion	-10551
▁frequently	-10552
ax	-10553
▁hyd	-10554
▁chain	-10555
▁chypri	-10556
▁necessity	-10557
▁organiser	-10558
èges	-10559
▁drivers	-10560
▁exercis	-10561
aled	-10562
arde	-10563
▁swoboda	-10564
▁chrétiens	-10565
▁prevented	-10566
▁seas	-10567
regular	-10568
▁undertake	-10569
▁manifestations	-10570
méd	-10571
▁confirme	-10572
▁portugais	-10573
versi	-10574
▁ferre	-10575
▁somal	-10576
▁killed	-10577
.,	-10578
5-03	-10579
▁forgot	-10580
▁interd	-10581
▁dépasse	-10582
▁eurostat	-10583
▁abstained	-10584
▁éventuellement	-10585
11	-10586
▁doter	-10587
▁inond	-10588
étranger	-10589
▁lourde	-10590
phère	-10591
▁sending	-10592
▁tribunaux	-10593
▁ineffic	-10594
▁rapprochement	-10595
aviation	-10596
▁prudence	-10597
▁incapable	-10598
▁pourcentage	-10599
lées	-10600
stuffs	-10601
▁inclus	-10602
▁poettering	-10603
▁génétiquement	-10604
auté	-10605
▁consent	-10606
▁tentatives	-10607
▁primordial	-10608
▁faux	-10609
▁noire	-10610
▁inscrit	-10611
▁hopefully	-10612
▁dil	-10613
▁réal	-10614
▁auteurs	-10615
▁patient	-10616
zz	-10617
▁mcc	-10618
▁exempl	-10619
▁prioritaire	-10620
▁spécialement	-10621
▁déloc	-10622
ologies	-10623
▁jeopard	-10624
▁convaincus	-10625
abou	-10626
▁incend	-10627
▁severe	-10628
▁supplies	-10629
▁unanime	-10630
▁struggle	-10631
▁cf	-10632
erson	-10633
▁démocratisation	-10634
▁stor	-10635
▁officielle	-10636
▁compétentes	-10637
▁mug	-10638
effect	-10639
▁roads	-10640
▁clearer	-10641
▁admettre	-10642
▁justifie	-10643
▁textiles	-10644
▁sincerely	-10645
▁programmation	-10646
exercer	-10647
▁promoted	-10648
▁impliquant	-10649
▁alger	-10650
▁animale	-10651
▁recital	-10652
▁étudiants	-10653
▁beneficial	-10654
hy	-10655
oui	-10656
▁décr	-10657
▁troops	-10658
▁diagnos	-10659
▁fiscaux	-10660
▁hommage	-10661
▁mè	-10662
utrition	-10663
▁interromp	-10664
ori	-10665
▁rendent	-10666
▁collection	-10667
ocar	-10668
▁palacio	-10669
▁emerging	-10670
osur	-10671
▁opt	-10672
▁mart	-10673
▁brazil	-10674
▁christ	-10675
▁irregular	-10676
▁consolider	-10677
▁object	-10678
▁envoyer	-10679
▁maintes	-10680
▁agrees	-10681
▁strike	-10682
plus	-10683
▁2001.	-10684
▁choices	-10685
▁exploitations	-10686
▁épr	-10687
▁assisté	-10688
▁pursued	-10689
▁personnelle	-10690
▁rê	-10691
▁iii	-10692
▁trip	-10693
▁moved	-10694
▁danois	-10695
inflation	-10696
▁devaient	-10697
▁soutiennent	-10698
appui	-10699
▁dele	-10700
▁particulières	-10701
▁congratulating	-10702
angle	-10703
▁exag	-10704
▁allant	-10705
▁arising	-10706
▁newspap	-10707
▁accomplir	-10708
▁nic	-10709
▁chechn	-10710
▁erad	-10711
▁brési	-10712
condition	-10713
▁soutenue	-10714
▁nécessairement	-10715
oué	-10716
▁blame	-10717
▁monit	-10718
▁déployés	-10719
▁employés	-10720
▁harmonised	-10721
▁soft	-10722
▁drafts	-10723
▁touchés	-10724
▁laissé	-10725
▁birmanie	-10726
▁constatons	-10727
6/	-10728
sities	-10729
▁soviet	-10730
▁chechnya	-10731
▁reçoivent	-10732
▁talked	-10733
▁intelligent	-10734
éth	-10735
▁48	-10736
▁igc	-10737
▁vehicle	-10738
▁rejection	-10739
look	-10740
▁divided	-10741
▁defending	-10742
▁productive	-10743
▁utilisateurs	-10744
▁contamination	-10745
oulez	-10746
▁sauf	-10747
▁trace	-10748
▁enrich	-10749
27	-10750
▁strictly	-10751
▁complexes	-10752
▁ouverture	-10753
1999	-10754
▁vel	-10755
▁couvre	-10756
▁stream	-10757
▁directeur	-10758
▁accompanied	-10759
▁assassin	-10760
▁bénéfice	-10761
▁enlarged	-10762
▁mugabe	-10763
▁résult	-10764
▁tenons	-10765
▁contraintes	-10766
tén	-10767
▁11.	-10768
aching	-10769
▁perce	-10770
▁voulez	-10771
▁applaud	-10772
▁insisté	-10773
▁distingu	-10774
▁prestige	-10775
▁établissant	-10776
tivités	-10777
infrastructure	-10778
▁keen	-10779
ériens	-10780
▁prisons	-10781
▁lituanie	-10782
▁locale	-10783
▁signalé	-10784
▁complémentaire	-10785
▁birth	-10786
▁rising	-10787
▁spectac	-10788
▁subsequently	-10789
diff	-10790
chons	-10791
▁compléter	-10792
▁egypt	-10793
istency	-10794
▁assum	-10795
▁efficiently	-10796
thme	-10797
uries	-10798
▁intr	-10799
▁musul	-10800
▁timely	-10801
▁chemicals	-10802
▁divergences	-10803
▁homosex	-10804
▁enquêtes	-10805
▁parallel	-10806
▁communiste	-10807
▁respecting	-10808
▁corb	-10809
▁soumet	-10810
▁coherence	-10811
▁exclusively	-10812
cns	-10813
arians	-10814
▁occupe	-10815
▁examiné	-10816
▁rejoindre	-10817
▁globalement	-10818
▁généraux	-10819
▁exacer	-10820
▁organe	-10821
▁profite	-10822
▁unanimity	-10823
▁bott	-10824
▁wage	-10825
▁pièces	-10826
▁soumises	-10827
▁transformer	-10828
ald	-10829
itimes	-10830
▁crops	-10831
▁inscr	-10832
identité	-10833
▁dégager	-10834
▁fragile	-10835
ématiques	-10836
importation	-10837
▁mount	-10838
▁manifeste	-10839
▁deviennent	-10840
▁subvention	-10841
▁indépendance	-10842
appli	-10843
▁imbal	-10844
▁incontest	-10845
▁supervisory	-10846
fl	-10847
olaf	-10848
▁50%	-10849
▁récent	-10850
▁résolu	-10851
▁nigeria	-10852
▁parvenu	-10853
ophobia	-10854
▁simplify	-10855
voi	-10856
▁définis	-10857
▁disponible	-10858
▁compétitive	-10859
▁fid	-10860
▁ster	-10861
▁sharing	-10862
▁soutiend	-10863
▁stic	-10864
▁campaigns	-10865
▁éti	-10866
tious	-10867
aissance	-10868
▁percentage	-10869
▁explanations	-10870
anch	-10871
▁xen	-10872
▁rende	-10873
▁bénéficie	-10874
▁irrég	-10875
▁prize	-10876
experts	-10877
énophob	-10878
▁exemption	-10879
▁195	-10880
▁turc	-10881
▁liberals	-10882
eline	-10883
isons	-10884
▁énormes	-10885
iné	-10886
▁iv	-10887
▁sections	-10888
▁ah	-10889
ouest	-10890
▁usual	-10891
▁allusion	-10892
méditerran	-10893
▁dimensions	-10894
▁inégalités	-10895
▁certification	-10896
▁profondeur	-10897
▁fondement	-10898
▁automatique	-10899
▁disappointed	-10900
etus	-10901
eping	-10902
▁échec	-10903
versial	-10904
▁prompt	-10905
▁salaire	-10906
ignements	-10907
▁xénophob	-10908
▁syndicats	-10909
ws	-10910
▁begun	-10911
▁offices	-10912
▁lancement	-10913
▁ot	-10914
lent	-10915
▁déliv	-10916
▁terres	-10917
approuver	-10918
feu	-10919
▁judgment	-10920
▁loans	-10921
instaurer	-10922
."	-10923
ossé	-10924
▁arc	-10925
▁figurent	-10926
▁friendly	-10927
country	-10928
▁interfer	-10929
▁reflection	-10930
isen	-10931
attrib	-10932
▁indemn	-10933
stan	-10934
▁regr	-10935
▁débattu	-10936
▁evident	-10937
▁durables	-10938
▁mere	-10939
▁engendre	-10940
▁experiencing	-10941
▁1998.	-10942
▁libéral	-10943
▁longues	-10944
▁reconciliation	-10945
registre	-10946
▁cotonou	-10947
ajustement	-10948
cape	-10949
▁bow	-10950
enfant	-10951
▁requiert	-10952
▁électroniques	-10953
prolif	-10954
▁items	-10955
pective	-10956
▁troupes	-10957
tissements	-10958
▁authorisation	-10959
roît	-10960
échelon	-10961
▁approbation	-10962
▁entamer	-10963
▁emission	-10964
wered	-10965
▁vide	-10966
▁adéquates	-10967
▁monétaires	-10968
▁notes	-10969
▁fortes	-10970
▁intoler	-10971
▁suggère	-10972
▁artis	-10973
▁search	-10974
▁vienne	-10975
▁écrite	-10976
▁consulted	-10977
▁utilisant	-10978
▁instant	-10979
▁directed	-10980
▁ultrapér	-10981
▁wed	-10982
▁entraîné	-10983
érité	-10984
▁deploy	-10985
▁finnish	-10986
▁routier	-10987
▁relèvent	-10988
▁desirable	-10989
cker	-10990
insiste	-10991
▁majeurs	-10992
lés	-10993
yez	-10994
▁nap	-10995
lling	-10996
▁surveiller	-10997
▁genetically	-10998
▁éclair	-10999
▁remplac	-11000
▁risquent	-11001
▁acceptance	-11002
ypte	-11003
▁physique	-11004
▁threatened	-11005
▁nô	-11006
▁combler	-11007
▁yourself	-11008
▁»	-11009
debate	-11010
▁électr	-11011
▁renoncer	-11012
▁maritimes	-11013
méditerrané	-11014
▁investigations	-11015
tienne	-11016
▁meda	-11017
▁vent	-11018
▁cease	-11019
▁marked	-11020
enregistre	-11021
érir	-11022
▁approfon	-11023
▁atlantic	-11024
mediterranean	-11025
▁transnational	-11026
istrib	-11027
▁reported	-11028
▁assurances	-11029
erge	-11030
▁hoc	-11031
▁démont	-11032
▁multiples	-11033
▁structurelle	-11034
▁multinationales	-11035
harov	-11036
▁investisseurs	-11037
olé	-11038
▁cou	-11039
attend	-11040
▁1995,	-11041
▁illus	-11042
▁lacking	-11043
▁éliminer	-11044
▁observers	-11045
▁conç	-11046
▁mercosur	-11047
▁demandant	-11048
▁entrepris	-11049
▁personnelles	-11050
▁prostitution	-11051
4/	-11052
▁invent	-11053
▁restrict	-11054
uy	-11055
▁od	-11056
oeuvre	-11057
▁licence	-11058
▁counterfe	-11059
down	-11060
▁uen	-11061
▁hoped	-11062
▁ruling	-11063
▁soudan	-11064
▁dizaines	-11065
▁connected	-11066
opportunité	-11067
lied	-11068
attendre	-11069
intérêts	-11070
▁replaced	-11071
▁permitted	-11072
▁violences	-11073
joute	-11074
▁match	-11075
▁raises	-11076
▁railways	-11077
▁forgotten	-11078
▁enshr	-11079
▁serais	-11080
sibilité	-11081
▁sakharov	-11082
.'	-11083
ulf	-11084
▁platform	-11085
▁categories	-11086
▁brid	-11087
▁adequ	-11088
▁expert	-11089
▁diversification	-11090
▁missing	-11091
▁benefici	-11092
▁préoccupe	-11093
▁frid	-11094
ipping	-11095
▁oblige	-11096
▁victim	-11097
▁essence	-11098
▁refused	-11099
▁obligatoires	-11100
▁aborde	-11101
▁imposing	-11102
▁négatifs	-11103
▁prelimin	-11104
▁éventuelle	-11105
▁édu	-11106
ented	-11107
▁offert	-11108
▁jugement	-11109
▁obtenus	-11110
▁ms	-11111
▁poisson	-11112
▁restera	-11113
▁respectés	-11114
▁conformité	-11115
▁underlying	-11116
▁individuels	-11117
▁tchétchénie	-11118
▁cigare	-11119
▁compete	-11120
▁defining	-11121
▁ethniques	-11122
▁compétente	-11123
▁participent	-11124
ho	-11125
▁radi	-11126
▁minimal	-11127
annex	-11128
honneur	-11129
▁discre	-11130
▁joined	-11131
▁prenant	-11132
▁accusations	-11133
débat	-11134
▁integrity	-11135
▁américaines	-11136
▁clandestine	-11137
▁travaillons	-11138
▁basé	-11139
▁abouti	-11140
▁utilise	-11141
▁confidenti	-11142
▁farms	-11143
▁détention	-11144
▁universel	-11145
▁jeune	-11146
▁détéri	-11147
▁impetus	-11148
▁vitesse	-11149
▁rythme	-11150
▁refugee	-11151
▁managing	-11152
▁négative	-11153
urant	-11154
▁rating	-11155
▁worthy	-11156
▁assessments	-11157
▁transatlantique	-11158
▁command	-11159
▁numérique	-11160
▁rencontré	-11161
▁race	-11162
▁décrit	-11163
▁passant	-11164
▁concrétiser	-11165
▁spéciale	-11166
▁exchanges	-11167
▁preliminary	-11168
5)	-11169
alon	-11170
▁pip	-11171
▁lobb	-11172
▁fourniture	-11173
ernob	-11174
▁écouté	-11175
▁dramatic	-11176
▁écologiques	-11177
lais	-11178
▁vues	-11179
▁adult	-11180
▁fondé	-11181
▁sales	-11182
alisées	-11183
▁sauver	-11184
ormément	-11185
▁housing	-11186
▁moments	-11187
ros	-11188
ractions	-11189
▁complémentaires	-11190
ja	-11191
▁maur	-11192
▁indig	-11193
ernobyl	-11194
▁engend	-11195
▁advocate	-11196
▁sélection	-11197
▁highlights	-11198
▁professions	-11199
apes	-11200
▁gagn	-11201
▁mène	-11202
▁fossi	-11203
▁classe	-11204
▁resumed	-11205
▁preventive	-11206
▁controversial	-11207
▁suisse	-11208
▁produisent	-11209
▁harbour	-11210
▁palestinienne	-11211
cht	-11212
▁plays	-11213
efforts	-11214
▁showed	-11215
▁scienti	-11216
▁hémicycle	-11217
▁residence	-11218
usage	-11219
▁failing	-11220
▁procedural	-11221
▁contributing	-11222
▁.-	-11223
▁33	-11224
▁track	-11225
▁refusé	-11226
▁slightly	-11227
interprétation	-11228
ortions	-11229
▁matériel	-11230
▁poissons	-11231
▁légitimes	-11232
▁événement	-11233
uem	-11234
▁distr	-11235
▁uphold	-11236
▁closure	-11237
▁logical	-11238
▁rigueur	-11239
▁signing	-11240
orre	-11241
▁rares	-11242
▁expand	-11243
▁bateaux	-11244
▁employeurs	-11245
bio	-11246
▁dates	-11247
▁instaur	-11248
▁joining	-11249
▁découver	-11250
▁communiquer	-11251
▁devions	-11252
▁disputes	-11253
▁tiennent	-11254
▁estimated	-11255
▁redistrib	-11256
▁précaution	-11257
▁coexistence	-11258
▁comprennent	-11259
/2002	-11260
afghan	-11261
▁august	-11262
▁38	-11263
arité	-11264
▁fores	-11265
▁porté	-11266
▁essayé	-11267
▁opposé	-11268
▁helpful	-11269
▁exprimée	-11270
▁énormément	-11271
image	-11272
opoul	-11273
▁resistance	-11274
▁agg	-11275
▁nar	-11276
soever	-11277
▁devez	-11278
intervenir	-11279
▁vies	-11280
expliquer	-11281
▁portugaise	-11282
can	-11283
nam	-11284
▁ratifié	-11285
▁illic	-11286
▁hautement	-11287
▁soil	-11288
inclure	-11289
▁stages	-11290
▁scrutiny	-11291
▁compromises	-11292
▁ko	-11293
venues	-11294
▁norme	-11295
▁funded	-11296
▁prejud	-11297
▁tension	-11298
▁orale	-11299
▁coastal	-11300
▁similaire	-11301
▁fournisseurs	-11302
vity	-11303
▁resource	-11304
▁disreg	-11305
▁aériens	-11306
▁proches	-11307
▁craintes	-11308
▁subsequent	-11309
▁achievements	-11310
▁ambass	-11311
▁prolif	-11312
▁posselt	-11313
occupation	-11314
▁inspection	-11315
▁10,	-11316
▁mépr	-11317
apprécie	-11318
omin	-11319
▁supporter	-11320
▁characteristics	-11321
akh	-11322
▁clôt	-11323
animaux	-11324
▁utilisent	-11325
▁assurément	-11326
▁comparison	-11327
▁allég	-11328
▁systematic	-11329
kh	-11330
ertion	-11331
▁malta	-11332
▁déplore	-11333
▁améliore	-11334
▁reductions	-11335
▁whatsoever	-11336
▁kong	-11337
▁title	-11338
▁victime	-11339
nellement	-11340
▁organizations	-11341
anen	-11342
▁hypoth	-11343
▁tolérance	-11344
▁eventually	-11345
ulé	-11346
▁32	-11347
rule	-11348
▁dream	-11349
▁johan	-11350
afghanistan	-11351
unification	-11352
timid	-11353
▁pensez	-11354
actualité	-11355
▁9,	-11356
▁notably	-11357
▁investors	-11358
▁equivalent	-11359
▁déloy	-11360
▁tacis	-11361
insister	-11362
▁concerné	-11363
▁transeuropéens	-11364
rui	-11365
▁tomb	-11366
▁confir	-11367
▁croyons	-11368
▁rencont	-11369
▁advanced	-11370
▁accélérer	-11371
▁détaillée	-11372
▁listening	-11373
▁distributed	-11374
▁representing	-11375
▁augmente	-11376
▁confrontée	-11377
▁surrounding	-11378
extra	-11379
▁blind	-11380
▁révél	-11381
/98)	-11382
▁gel	-11383
▁cance	-11384
▁voterons	-11385
▁concentre	-11386
▁liti	-11387
▁genres	-11388
▁prevail	-11389
asmus	-11390
▁envoyé	-11391
▁2020,	-11392
▁exclu	-11393
▁rejette	-11394
▁rédaction	-11395
▁accounting	-11396
▁34	-11397
▁sale	-11398
▁définies	-11399
▁régulation	-11400
▁londres	-11401
▁approaches	-11402
▁significatif	-11403
▁basque	-11404
▁univer	-11405
▁combusti	-11406
▁universities	-11407
ariats	-11408
▁succes	-11409
offrir	-11410
▁fuels	-11411
▁interdit	-11412
▁controlled	-11413
▁6.	-11414
▁masse	-11415
▁manquer	-11416
▁hongrois	-11417
▁imported	-11418
▁mistakes	-11419
urg	-11420
▁foi	-11421
▁théor	-11422
▁décentr	-11423
▁expliqué	-11424
▁cash	-11425
istered	-11426
▁effectuer	-11427
▁inviter	-11428
5/	-11429
▁die	-11430
▁hat	-11431
▁émerg	-11432
▁marche	-11433
▁respectant	-11434
▁safeguarding	-11435
▁ga	-11436
▁gasp	-11437
▁borne	-11438
▁uniforme	-11439
▁destroyed	-11440
▁classification	-11441
iop	-11442
▁ogm	-11443
▁faim	-11444
▁leon	-11445
▁lieux	-11446
install	-11447
termost	-11448
▁interf	-11449
▁apparently	-11450
▁consistant	-11451
▁appointment	-11452
▁encourageant	-11453
ancies	-11454
adresser	-11455
▁dépendent	-11456
élor	-11457
▁chur	-11458
▁arrivé	-11459
▁movements	-11460
▁recueill	-11461
▁maintenance	-11462
olib	-11463
atson	-11464
▁fermer	-11465
▁monday	-11466
▁réformer	-11467
▁envisaged	-11468
▁précédentes	-11469
▁ferait	-11470
▁losing	-11471
▁ratify	-11472
▁thousand	-11473
▁biélor	-11474
▁reporting	-11475
▁démographique	-11476
▁arbitr	-11477
▁watson	-11478
▁intense	-11479
▁délégations	-11480
▁cath	-11481
ornograph	-11482
▁postpone	-11483
/2006	-11484
▁woman	-11485
▁outermost	-11486
▁sudden	-11487
imposition	-11488
▁regularly	-11489
1.	-11490
aband	-11491
▁codi	-11492
▁sadly	-11493
ériment	-11494
▁prouver	-11495
▁africains	-11496
▁contenter	-11497
▁individus	-11498
▁coordonnée	-11499
▁jar	-11500
▁jurisdiction	-11501
▁prochainement	-11502
▁scen	-11503
timent	-11504
▁fears	-11505
▁flows	-11506
▁natura	-11507
▁participating	-11508
▁fea	-11509
tified	-11510
▁lundi	-11511
▁posées	-11512
▁solved	-11513
▁elig	-11514
▁decre	-11515
▁plate	-11516
▁arrêter	-11517
▁inhabitants	-11518
▁innovations	-11519
adi	-11520
▁cyn	-11521
requis	-11522
itarian	-11523
▁exprimés	-11524
▁démontrer	-11525
▁signifier	-11526
eec	-11527
▁faill	-11528
▁légif	-11529
▁règne	-11530
housias	-11531
▁aérienne	-11532
urt	-11533
▁founded	-11534
▁réduite	-11535
▁rechercher	-11536
iven	-11537
▁émis	-11538
▁underg	-11539
▁négatives	-11540
▁considérés	-11541
▁conjointement	-11542
▁conservateurs	-11543
énég	-11544
ocratic	-11545
▁directs	-11546
▁providers	-11547
▁rencontrer	-11548
▁anniversaire	-11549
cee	-11550
hard	-11551
▁(200	-11552
▁dénon	-11553
▁murder	-11554
▁unlike	-11555
▁absurde	-11556
▁perpetr	-11557
▁réjouir	-11558
▁delegations	-11559
vé	-11560
▁placer	-11561
▁profound	-11562
9.	-11563
▁fixed	-11564
▁entrée	-11565
▁experiences	-11566
avie	-11567
eneg	-11568
▁ben	-11569
istique	-11570
▁gained	-11571
▁prouve	-11572
▁partisans	-11573
▁suffisantes	-11574
▁grat	-11575
▁looks	-11576
▁réussir	-11577
▁contraignant	-11578
oni	-11579
quac	-11580
▁sark	-11581
▁englob	-11582
▁mandatory	-11583
▁invitation	-11584
▁circonscription	-11585
inscrit	-11586
▁banned	-11587
▁inside	-11588
▁freight	-11589
▁soviétique	-11590
▁biof	-11591
nesday	-11592
▁abroad	-11593
▁intérim	-11594
▁tunisia	-11595
▁tolerance	-11596
effe	-11597
iwan	-11598
▁chemins	-11599
▁crédible	-11600
▁objection	-11601
▁inspect	-11602
▁infringement	-11603
conne	-11604
▁iraqi	-11605
▁prends	-11606
▁condamnation	-11607
▁depl	-11608
▁wars	-11609
▁paraly	-11610
▁affaibl	-11611
housiasme	-11612
▁mercredi	-11613
▁douze	-11614
▁taiwan	-11615
▁disappear	-11616
▁commentaire	-11617
▁favorablement	-11618
▁hour	-11619
▁regimes	-11620
▁covering	-11621
▁supranational	-11622
émie	-11623
▁10%	-11624
▁error	-11625
▁fails	-11626
▁sevent	-11627
▁reconsid	-11628
▁considèrent	-11629
▁600	-11630
▁fixe	-11631
▁grip	-11632
▁chôme	-11633
▁abuses	-11634
▁convince	-11635
économiques	-11636
▁fallu	-11637
▁étapes	-11638
▁airport	-11639
▁établies	-11640
▁initially	-11641
ral	-11642
known	-11643
▁fires	-11644
▁exposé	-11645
▁éloign	-11646
▁humanity	-11647
▁johannes	-11648
▁barrières	-11649
▁inondations	-11650
ozy	-11651
▁naz	-11652
▁fant	-11653
▁archite	-11654
▁contrast	-11655
▁touchées	-11656
▁0	-11657
roits	-11658
▁viet	-11659
▁malte	-11660
▁vendredi	-11661
24	-11662
arrêter	-11663
▁assets	-11664
▁wednesday	-11665
bes	-11666
▁berl	-11667
▁sauv	-11668
▁drive	-11669
▁wages	-11670
▁organic	-11671
▁horizontal	-11672
▁conve	-11673
▁liked	-11674
▁forese	-11675
▁lebanon	-11676
vens	-11677
vable	-11678
▁égalité	-11679
▁accepting	-11680
▁judicieux	-11681
▁multiannual	-11682
▁rely	-11683
▁older	-11684
ibility	-11685
▁mineurs	-11686
▁monitored	-11687
▁anniversary	-11688
elong	-11689
▁1997.	-11690
▁talib	-11691
▁tonight	-11692
▁jac	-11693
▁actifs	-11694
▁appelons	-11695
▁atteints	-11696
▁suggests	-11697
▁ultérieure	-11698
▁withdrawal	-11699
▁12.	-11700
▁guer	-11701
▁passée	-11702
▁sarkozy	-11703
gner	-11704
▁œuv	-11705
iring	-11706
▁valable	-11707
envisager	-11708
▁continuation	-11709
étend	-11710
▁sida	-11711
▁dériv	-11712
▁incorporate	-11713
force	-11714
▁charbon	-11715
▁confident	-11716
▁precaution	-11717
▁signs	-11718
▁contest	-11719
▁ethnique	-11720
▁criminals	-11721
3/	-11722
▁ts	-11723
▁cope	-11724
▁latv	-11725
▁chute	-11726
▁maybe	-11727
▁noter	-11728
▁approuvée	-11729
▁bag	-11730
▁adhérer	-11731
▁incendies	-11732
▁consistency	-11733
/97)	-11734
▁indiff	-11735
imposent	-11736
▁decentr	-11737
▁facility	-11738
▁wholehear	-11739
▁acknowledged	-11740
▁inadmissible	-11741
▁réag	-11742
▁scol	-11743
exprime	-11744
▁ration	-11745
▁appeler	-11746
▁arrê	-11747
▁équip	-11748
▁integrate	-11749
▁convictions	-11750
exemp	-11751
▁dirig	-11752
▁biocar	-11753
▁chargée	-11754
▁piliers	-11755
▁immigrés	-11756
▁routière	-11757
▁eau	-11758
▁surface	-11759
▁poursuit	-11760
▁explicitement	-11761
▁11,	-11762
▁appels	-11763
▁ignored	-11764
▁pursuing	-11765
▁intervenants	-11766
▁réconciliation	-11767
umn	-11768
▁feuille	-11769
▁réjouissons	-11770
beit	-11771
▁fusion	-11772
▁collect	-11773
▁établit	-11774
▁resolving	-11775
▁examination	-11776
▁stakeholders	-11777
▁osce	-11778
▁brésil	-11779
▁constante	-11780
▁examinons	-11781
▁provoquer	-11782
▁defe	-11783
▁soin	-11784
▁erron	-11785
▁soldi	-11786
▁virus	-11787
▁indones	-11788
▁stringent	-11789
▁indicateurs	-11790
mo	-11791
ashion	-11792
entive	-11793
▁dégrad	-11794
▁pierre	-11795
▁containing	-11796
▁grandement	-11797
▁entreprendre	-11798
▁accountability	-11799
▁irres	-11800
▁functions	-11801
▁baiss	-11802
▁juger	-11803
▁requis	-11804
▁mainstre	-11805
▁hongroise	-11806
▁usually	-11807
▁contenues	-11808
arked	-11809
annexe	-11810
▁additi	-11811
▁donnera	-11812
▁hospital	-11813
▁juridiquement	-11814
▁boy	-11815
▁mette	-11816
▁bovine	-11817
▁hazard	-11818
reaching	-11819
▁soulève	-11820
▁préservation	-11821
▁bei	-11822
oppose	-11823
tements	-11824
▁engine	-11825
▁universités	-11826
▁dal	-11827
▁exigence	-11828
▁arrangement	-11829
▁quatrièmement	-11830
eland	-11831
▁volet	-11832
vidence	-11833
▁concludes	-11834
▁religieuses	-11835
tate	-11836
▁cow	-11837
▁models	-11838
▁ignorer	-11839
▁interpr	-11840
▁12,	-11841
▁visited	-11842
▁échéant	-11843
▁totalité	-11844
▁registration	-11845
▁names	-11846
▁bancaire	-11847
dep	-11848
▁anx	-11849
▁mém	-11850
▁hind	-11851
▁saluons	-11852
▁unilateral	-11853
oût	-11854
antime	-11855
▁meantime	-11856
▁stockage	-11857
▁scientists	-11858
▁fortunately	-11859
voie	-11860
▁corn	-11861
▁page	-11862
▁prévo	-11863
▁female	-11864
▁voters	-11865
▁disregard	-11866
▁transporte	-11867
7/	-11868
alem	-11869
iront	-11870
▁vend	-11871
▁albeit	-11872
▁estimé	-11873
▁partnerships	-11874
text	-11875
▁ideal	-11876
▁sexes	-11877
▁chômeurs	-11878
▁lifelong	-11879
▁outlined	-11880
▁eib	-11881
aughter	-11882
▁decent	-11883
▁écoul	-11884
▁cutting	-11885
▁answered	-11886
idé	-11887
▁proxim	-11888
▁decline	-11889
▁falling	-11890
▁tunisie	-11891
euses	-11892
iendront	-11893
▁euratom	-11894
▁invited	-11895
▁guide	-11896
▁sight	-11897
▁fictifs	-11898
▁richesse	-11899
▁potentiels	-11900
apse	-11901
▁syria	-11902
▁résulte	-11903
▁rubrique	-11904
▁préférable	-11905
▁expressément	-11906
▁lom	-11907
▁nuis	-11908
▁variety	-11909
▁impliquées	-11910
ero	-11911
mans	-11912
▁blue	-11913
▁perpétr	-11914
9/	-11915
usalem	-11916
▁arrière	-11917
▁gravité	-11918
▁stricte	-11919
▁étendre	-11920
▁modifiés	-11921
▁romp	-11922
élevage	-11923
▁signer	-11924
▁urgente	-11925
▁fourthly	-11926
▁immunity	-11927
fast	-11928
tiend	-11929
▁finish	-11930
▁impris	-11931
building	-11932
▁pourrais	-11933
▁sympathy	-11934
▁voudrait	-11935
▁apparemment	-11936
ovina	-11937
▁absent	-11938
▁transmis	-11939
▁nourriture	-11940
▁provisoire	-11941
(9	-11942
▁résum	-11943
▁avancé	-11944
▁irrespon	-11945
▁virtually	-11946
▁écar	-11947
▁warrant	-11948
▁prerequis	-11949
▁wallström	-11950
▁actors	-11951
▁eh	-11952
▁80%	-11953
ionale	-11954
▁libya	-11955
▁égards	-11956
▁clients	-11957
▁apportée	-11958
ör	-11959
uts	-11960
▁negle	-11961
▁maison	-11962
▁morale	-11963
▁mother	-11964
▁autonomy	-11965
▁paragraphs	-11966
▁ageing	-11967
▁employed	-11968
▁statistical	-11969
▁bench	-11970
▁issus	-11971
ourir	-11972
▁tunnel	-11973
▁quantités	-11974
▁recognises	-11975
▁ami	-11976
underst	-11977
▁denied	-11978
▁friday	-11979
▁répand	-11980
▁établis	-11981
▁approuve	-11982
▁financements	-11983
atrices	-11984
▁except	-11985
▁spécul	-11986
▁backing	-11987
▁saurait	-11988
▁simultan	-11989
▁traduire	-11990
▁constrain	-11991
▁présentant	-11992
▁vaccination	-11993
▁encouragement	-11994
▁sri	-11995
▁criterion	-11996
▁satisfaits	-11997
▁historiques	-11998
autom	-11999
▁comités	-12000
▁déficits	-12001
▁présentes	-12002
achat	-12003
erland	-12004
▁learned	-12005
▁probable	-12006
▁safeguards	-12007
▁inhum	-12008
▁remet	-12009
▁honnête	-12010
▁regarder	-12011
▁apportées	-12012
ham	-12013
uaires	-12014
▁oriental	-12015
▁partiellement	-12016
▁ferai	-12017
▁compagnie	-12018
▁décisionnel	-12019
▁reding	-12020
reb	-12021
rou	-12022
▁nordi	-12023
mention	-12024
criptions	-12025
▁capt	-12026
▁helps	-12027
▁dictature	-12028
quaculture	-12029
▁incentive	-12030
▁7.	-12031
mped	-12032
faire	-12033
▁gradual	-12034
▁trouble	-12035
▁registre	-12036
▁died	-12037
▁servent	-12038
▁décisive	-12039
▁provoqué	-12040
▁modifiant	-12041
fra	-12042
▁privacy	-12043
▁attentats	-12044
▁chré	-12045
▁signatures	-12046
▁concertation	-12047
▁biocarburants	-12048
pid	-12049
▁hes	-12050
istent	-12051
▁accél	-12052
▁vivons	-12053
▁renewed	-12054
ache	-12055
auer	-12056
zemb	-12057
▁unie	-12058
▁marin	-12059
arriver	-12060
élo	-12061
icon	-12062
▁acceler	-12063
▁station	-12064
▁scotland	-12065
osce	-12066
▁invité	-12067
▁endorsed	-12068
▁corresponding	-12069
lave	-12070
▁pretext	-12071
▁university	-12072
habilitation	-12073
▁tub	-12074
fiques	-12075
▁ceiling	-12076
▁jarzemb	-12077
▁sincere	-12078
▁reconnais	-12079
▁sérieuses	-12080
▁everywhere	-12081
▁substantially	-12082
▁technologiques	-12083
-9	-12084
▁invo	-12085
▁badly	-12086
▁étudier	-12087
▁released	-12088
▁argue	-12089
▁désaccord	-12090
▁quotidienne	-12091
▁sollic	-12092
▁accommod	-12093
▁entering	-12094
▁appointed	-12095
▁attitudes	-12096
▁biologique	-12097
▁complexité	-12098
▁réglementer	-12099
▁pom	-12100
▁vét	-12101
▁gmos	-12102
▁pret	-12103
entends	-12104
▁disait	-12105
▁dismant	-12106
▁limitations	-12107
▁continuerons	-12108
roger	-12109
▁wise	-12110
avancer	-12111
ignation	-12112
▁disastr	-12113
▁dérogation	-12114
▁terroriste	-12115
▁cere	-12116
▁acted	-12117
▁syrie	-12118
▁adequately	-12119
▁ambitieuse	-12120
▁vocational	-12121
▁jarzembowski	-12122
aura	-12123
ried	-12124
▁agi	-12125
▁procédé	-12126
▁adoptant	-12127
▁innocent	-12128
▁occidentale	-12129
utor	-12130
▁smooth	-12131
▁christi	-12132
▁faisait	-12133
▁focusing	-12134
▁examining	-12135
▁lomé	-12136
▁accent	-12137
effective	-12138
▁recyclage	-12139
▁démant	-12140
▁leaves	-12141
▁erasmus	-12142
▁rémunération	-12143
whel	-12144
▁enceinte	-12145
▁productivity	-12146
▁cib	-12147
▁bulg	-12148
▁trente	-12149
▁features	-12150
▁fabricants	-12151
▁corbett	-12152
▁associés	-12153
écart	-12154
▁saine	-12155
▁inevit	-12156
objectifs	-12157
▁apparten	-12158
▁collapse	-12159
▁wherever	-12160
▁autrichienne	-12161
oring	-12162
▁émet	-12163
▁livres	-12164
▁écouter	-12165
▁overwhel	-12166
▁consistently	-12167
▁interprétation	-12168
new	-12169
esty	-12170
itablement	-12171
▁mentionne	-12172
▁équitables	-12173
▁presidential	-12174
▁fundamentally	-12175
alg	-12176
how	-12177
▁digne	-12178
▁avoided	-12179
▁résolus	-12180
▁chercheurs	-12181
▁federation	-12182
▁franchement	-12183
▁pul	-12184
aides	-12185
ularités	-12186
▁incorre	-12187
▁développé	-12188
érin	-12189
▁caution	-12190
▁distinct	-12191
▁contradictions	-12192
6.	-12193
▁chanti	-12194
▁feature	-12195
▁storage	-12196
▁enterprise	-12197
▁misunderst	-12198
▁partenariats	-12199
gure	-12200
osse	-12201
▁élevée	-12202
▁familiale	-12203
control	-12204
intégrité	-12205
▁damaging	-12206
▁disposés	-12207
tan	-12208
ensité	-12209
▁relief	-12210
▁souvenir	-12211
▁irrespective	-12212
23	-12213
entend	-12214
ambition	-12215
▁disposé	-12216
▁inciter	-12217
▁nutrition	-12218
▁productivité	-12219
▁pav	-12220
▁riv	-12221
▁sahara	-12222
▁deficits	-12223
▁simplifi	-12224
▁définitif	-12225
▁disastrous	-12226
▁programming	-12227
▁strictement	-12228
▁diplomatique	-12229
zeg	-12230
▁modernes	-12231
▁moldavie	-12232
▁game	-12233
▁musi	-12234
▁corriger	-12235
▁evaluate	-12236
wa	-12237
▁enfant	-12238
▁contrat	-12239
▁néglige	-12240
▁ratifier	-12241
oper	-12242
▁secrét	-12243
▁classes	-12244
▁emerged	-12245
▁réelles	-12246
▁xenophobia	-12247
▁corrections	-12248
▁scre	-12249
licate	-12250
▁vitor	-12251
▁stipule	-12252
anium	-12253
friend	-12254
▁veget	-12255
▁fiables	-12256
▁explication	-12257
oulement	-12258
▁contenant	-12259
▁paragraphes	-12260
▁évaluations	-12261
iro	-12262
ercul	-12263
▁débl	-12264
▁actives	-12265
▁soldats	-12266
eds	-12267
exc	-12268
tième	-12269
▁exert	-12270
▁computer	-12271
outs	-12272
▁entamé	-12273
▁devoted	-12274
abolition	-12275
itzerland	-12276
▁victoire	-12277
▁améliorée	-12278
▁certitude	-12279
▁mobiliser	-12280
▁completion	-12281
1/	-12282
▁rü	-12283
▁250	-12284
▁égal	-12285
▁serai	-12286
▁prouvé	-12287
▁amélioré	-12288
instruments	-12289
▁kal	-12290
▁thr	-12291
▁earm	-12292
▁slovenia	-12293
▁disparités	-12294
zég	-12295
▁hab	-12296
▁john	-12297
▁pourriez	-12298
▁reserves	-12299
▁comitologie	-12300
▁péril	-12301
▁autumn	-12302
▁génére	-12303
▁enables	-12304
▁testing	-12305
▁assister	-12306
▁medicinal	-12307
▁intégrante	-12308
▁traitements	-12309
▁120	-12310
▁meets	-12311
zégovine	-12312
▁réalisées	-12313
▁gh	-12314
▁joindre	-12315
▁traduit	-12316
▁externes	-12317
▁attractive	-12318
▁pertinentes	-12319
26	-12320
auv	-12321
▁cerc	-12322
▁venezuel	-12323
▁précision	-12324
implication	-12325
lah	-12326
▁fossé	-12327
▁courte	-12328
▁explique	-12329
▁logement	-12330
affect	-12331
▁éduca	-12332
▁exécut	-12333
▁impôts	-12334
▁enforce	-12335
titutions	-12336
▁rigorous	-12337
▁souhaits	-12338
▁interdire	-12339
terre	-12340
évidence	-12341
▁antibio	-12342
▁tackled	-12343
▁témoigne	-12344
▁definitive	-12345
ker	-12346
acte	-12347
outine	-12348
▁rapides	-12349
▁impératif	-12350
▁mentionnés	-12351
▁142)	-12352
▁marks	-12353
▁tromp	-12354
▁sembler	-12355
4.	-12356
▁gold	-12357
▁arrived	-12358
▁persec	-12359
▁sévères	-12360
▁identité	-12361
▁prévisions	-12362
▁usd	-12363
▁liik	-12364
endous	-12365
▁mille	-12366
▁numéro	-12367
▁quitter	-12368
▁autorisés	-12369
▁perception	-12370
▁respectées	-12371
▁sums	-12372
▁false	-12373
▁survie	-12374
▁exister	-12375
▁liikanen	-12376
▁présentera	-12377
▁switzerland	-12378
▁souv	-12379
▁modifiée	-12380
▁traitées	-12381
▁imperative	-12382
▁bang	-12383
▁dollar	-12384
▁vitorino	-12385
kin	-12386
▁nit	-12387
▁mira	-12388
extrême	-12389
▁constitué	-12390
▁équipements	-12391
▁disabilities	-12392
zegovina	-12393
▁donnant	-12394
▁socrates	-12395
▁tubercul	-12396
▁ferrero	-12397
▁liaison	-12398
▁presents	-12399
uns	-12400
▁fate	-12401
▁abatt	-12402
▁guise	-12403
▁précieux	-12404
oupl	-12405
wald	-12406
▁céré	-12407
▁tiss	-12408
iconque	-12409
▁simplified	-12410
▁recommended	-12411
▁conservative	-12412
▁democratically	-12413
▁congrès	-12414
▁vols	-12415
▁2011.	-12416
▁sixth	-12417
▁story	-12418
▁exprime	-12419
▁sachant	-12420
▁suscite	-12421
▁fédération	-12422
▁démantèlement	-12423
▁precautionary	-12424
medi	-12425
étudi	-12426
▁détenus	-12427
▁detention	-12428
▁quiconque	-12429
▁irregularities	-12430
étant	-12431
▁merg	-12432
▁struck	-12433
▁collège	-12434
herzégovine	-12435
▁repression	-12436
cade	-12437
▁eldr	-12438
▁encoun	-12439
▁suspic	-12440
▁redress	-12441
rogatives	-12442
▁proactive	-12443
▁kaz	-12444
▁1996.	-12445
exigence	-12446
▁ensured	-12447
▁gon	-12448
autonom	-12449
▁shipping	-12450
▁dramatique	-12451
xique	-12452
▁allez	-12453
▁consciente	-12454
▁inevitably	-12455
excl	-12456
▁turque	-12457
▁grecque	-12458
▁mep	-12459
▁arti	-12460
▁nomin	-12461
develop	-12462
▁sauveg	-12463
▁empêche	-12464
▁soldiers	-12465
▁assistants	-12466
olved	-12467
▁deny	-12468
▁subi	-12469
▁ouvre	-12470
▁exploiter	-12471
▁déséquilib	-12472
intermédiaire	-12473
▁décès	-12474
▁remis	-12475
▁accused	-12476
▁hypocris	-12477
▁évidente	-12478
▁harmonise	-12479
▁responses	-12480
▁amp	-12481
▁stal	-12482
▁suic	-12483
▁tolé	-12484
ulated	-12485
écurité	-12486
▁incons	-12487
▁marqué	-12488
▁uses	-12489
▁shift	-12490
▁facto	-12491
▁condamné	-12492
▁semestre	-12493
▁viabilité	-12494
▁sanitaires	-12495
▁évolutions	-12496
▁prô	-12497
▁fémin	-12498
▁lehne	-12499
▁rigid	-12500
▁display	-12501
▁marquer	-12502
▁explicitly	-12503
▁annuelle	-12504
▁promesse	-12505
▁incompatible	-12506
▁identification	-12507
itt	-12508
▁fabri	-12509
friendly	-12510
bend	-12511
▁dete	-12512
▁souscr	-12513
▁frankly	-12514
▁appropriés	-12515
▁officiellement	-12516
erted	-12517
▁adapter	-12518
▁enabled	-12519
▁exigent	-12520
▁formulé	-12521
▁allemands	-12522
itte	-12523
▁hés	-12524
▁libye	-12525
▁steel	-12526
▁donors	-12527
▁lourds	-12528
▁suivie	-12529
▁desired	-12530
qualities	-12531
▁protégés	-12532
▁touchent	-12533
▁soulevées	-12534
▁profitable	-12535
▁fabrication	-12536
▁rand	-12537
▁commen	-12538
▁fought	-12539
▁fashion	-12540
▁tourner	-12541
▁applause	-12542
▁handling	-12543
▁préoccupé	-12544
/2000)	-12545
▁enver	-12546
▁grass	-12547
▁ventes	-12548
▁réclame	-12549
▁secrétariat	-12550
▁linguistique	-12551
▁codes	-12552
ients	-12553
▁absor	-12554
actuelle	-12555
▁certific	-12556
▁devastat	-12557
▁naissance	-12558
▁inequalities	-12559
hl	-12560
▁gir	-12561
eneur	-12562
▁book	-12563
▁assign	-12564
▁confin	-12565
dication	-12566
élection	-12567
▁olympic	-12568
▁inutiles	-12569
appliquent	-12570
▁satisfaisant	-12571
▁disadvantaged	-12572
urée	-12573
▁cohn	-12574
usconi	-12575
▁councils	-12576
▁democratisation	-12577
chi	-12578
▁40%	-12579
▁warn	-12580
▁river	-12581
▁forestry	-12582
▁parviendrons	-12583
▁appui	-12584
▁observateurs	-12585
uled	-12586
▁1992	-12587
▁fulfilled	-12588
▁intelligence	-12589
bendit	-12590
▁lists	-12591
▁barbar	-12592
▁illégaux	-12593
▁relancer	-12594
ounded	-12595
▁assor	-12596
▁oomen	-12597
▁broadly	-12598
▁tragique	-12599
▁delivered	-12600
▁enshrined	-12601
▁sensiblement	-12602
gi	-12603
hyp	-12604
▁mexico	-12605
▁tighten	-12606
entielles	-12607
▁prononcé	-12608
▁42	-12609
▁13,	-12610
énormes	-12611
▁flights	-12612
▁socially	-12613
▁exemptions	-12614
▁ministerial	-12615
▁repercussions	-12616
utie	-12617
▁unpre	-12618
▁éprouv	-12619
▁compare	-12620
▁berlusconi	-12621
▁preparatory	-12622
radi	-12623
ueille	-12624
▁invers	-12625
▁échapp	-12626
▁disturb	-12627
▁slovénie	-12628
▁gravement	-12629
▁participe	-12630
▁notification	-12631
vy	-12632
▁65	-12633
chés	-12634
▁squ	-12635
▁adapted	-12636
▁transpl	-12637
▁divisions	-12638
▁ownership	-12639
▁originally	-12640
▁twice	-12641
▁aggrav	-12642
▁convers	-12643
▁surpris	-12644
identification	-12645
▁sensibilisation	-12646
▁700	-12647
avérer	-12648
▁unres	-12649
▁connex	-12650
▁letton	-12651
▁réunir	-12652
▁biofuels	-12653
▁homes	-12654
▁transl	-12655
onnement	-12656
▁maximale	-12657
▁éducation	-12658
▁pluriannuel	-12659
▁péd	-12660
▁triste	-12661
▁exposed	-12662
▁hect	-12663
▁thir	-12664
▁bruit	-12665
▁mental	-12666
investir	-12667
▁vietnam	-12668
▁déterminée	-12669
ía	-12670
avance	-12671
keeping	-12672
waldner	-12673
▁préparé	-12674
▁préserv	-12675
▁seekers	-12676
importantes	-12677
▁honorables	-12678
jac	-12679
▁30%	-12680
▁sentir	-12681
▁teleph	-12682
▁cohérent	-12683
▁exhaustive	-12684
▁pace	-12685
rables	-12686
▁doors	-12687
iration	-12688
▁créant	-12689
▁spécific	-12690
▁foodstuffs	-12691
▁investigate	-12692
▁gö	-12693
ignant	-12694
▁guine	-12695
▁openly	-12696
▁réalisée	-12697
▁initiated	-12698
▁comparaison	-12699
▁infractions	-12700
ecd	-12701
chauff	-12702
parlers	-12703
respect	-12704
▁planet	-12705
▁anglais	-12706
▁sixième	-12707
▁commises	-12708
▁democrat	-12709
stes	-12710
ware	-12711
▁map	-12712
/2004	-12713
▁inse	-12714
▁foster	-12715
▁laying	-12716
▁college	-12717
▁component	-12718
▁démarches	-12719
▁résolument	-12720
▁pourparlers	-12721
enregistrement	-12722
inée	-12723
▁2012	-12724
▁born	-12725
▁trem	-12726
▁attached	-12727
▁substantielle	-12728
▁alt	-12729
aggra	-12730
▁posts	-12731
▁devise	-12732
▁emprun	-12733
▁enjeux	-12734
▁alleged	-12735
▁bureaux	-12736
▁rédiger	-12737
▁accurate	-12738
▁stricter	-12739
▁consolidate	-12740
▁internationally	-12741
rem	-12742
alban	-12743
▁faib	-12744
▁saving	-12745
▁cofinancement	-12746
▁böge	-12747
▁mann	-12748
▁minds	-12749
▁plaid	-12750
▁requête	-12751
▁congress	-12752
▁draftsman	-12753
▁constituera	-12754
▁irr	-12755
▁ball	-12756
▁mari	-12757
▁pensée	-12758
▁praise	-12759
▁mémoire	-12760
▁pénales	-12761
▁suscité	-12762
▁reaffirm	-12763
▁différenci	-12764
▁traduction	-12765
▁maurit	-12766
▁directes	-12767
▁fixation	-12768
▁whenever	-12769
▁réac	-12770
▁costa	-12771
▁morte	-12772
▁stick	-12773
▁narrow	-12774
▁avancés	-12775
▁pressing	-12776
▁speculation	-12777
▁ferroviaires	-12778
gs	-12779
anged	-12780
▁bananes	-12781
▁réduits	-12782
▁topical	-12783
▁établie	-12784
▁alarming	-12785
▁patience	-12786
▁industriel	-12787
▁iron	-12788
▁vien	-12789
▁assured	-12790
▁dangereuse	-12791
▁dependence	-12792
▁researchers	-12793
oriser	-12794
▁romanian	-12795
▁ministère	-12796
▁séparation	-12797
▁assuré	-12798
▁mépris	-12799
▁removal	-12800
▁tableau	-12801
▁illustre	-12802
▁permanence	-12803
▁admis	-12804
▁ended	-12805
▁récol	-12806
avaient	-12807
évoquer	-12808
▁adverse	-12809
▁vétérin	-12810
▁effectués	-12811
▁transferred	-12812
▁conviendrait	-12813
you	-12814
▁43	-12815
ipher	-12816
onnés	-12817
illage	-12818
▁accru	-12819
▁escal	-12820
▁auteur	-12821
▁iranian	-12822
▁laissez	-12823
▁consister	-12824
agog	-12825
▁fly	-12826
▁déplo	-12827
▁jacques	-12828
▁findings	-12829
▁pouvaient	-12830
▁differenti	-12831
▁linguistic	-12832
▁potentially	-12833
(2)	-12834
adh	-12835
▁signes	-12836
▁rembour	-12837
▁formulée	-12838
▁conformer	-12839
▁transfers	-12840
▁sentiments	-12841
▁lul	-12842
geant	-12843
▁seat	-12844
▁remise	-12845
▁closing	-12846
▁prépare	-12847
▁solides	-12848
▁dispositif	-12849
▁définitivement	-12850
jten	-12851
▁earn	-12852
▁dissu	-12853
intensi	-12854
▁fallen	-12855
▁irrespons	-12856
▁description	-12857
▁représentante	-12858
sl	-12859
▁mol	-12860
▁coins	-12861
▁brutal	-12862
émissions	-12863
▁cellules	-12864
▁dénoncer	-12865
▁thess	-12866
▁appell	-12867
▁errors	-12868
▁tomber	-12869
▁wished	-12870
▁illégal	-12871
effectuer	-12872
ee	-12873
▁intit	-12874
entrepr	-12875
▁papier	-12876
▁majeures	-12877
▁monopoly	-12878
▁légiférer	-12879
▁dear	-12880
▁unif	-12881
▁logic	-12882
▁hunger	-12883
8.	-12884
île	-12885
▁baron	-12886
▁dedic	-12887
alisations	-12888
agon	-12889
oirs	-12890
▁intra	-12891
visible	-12892
présidente	-12893
▁pertinent	-12894
▁réflexions	-12895
▁transferts	-12896
isc	-12897
▁55	-12898
atri	-12899
▁verte	-12900
▁serves	-12901
▁constraints	-12902
▁transitoire	-12903
▁overwhelming	-12904
▁âge	-12905
enant	-12906
ruijten	-12907
▁destru	-12908
▁likewise	-12909
▁affronter	-12910
▁hazardous	-12911
▁puissances	-12912
▁reproductive	-12913
▁kh	-12914
antly	-12915
▁appalling	-12916
▁apprendre	-12917
▁ministéri	-12918
zb	-12919
arriv	-12920
▁redev	-12921
▁burdens	-12922
▁israéliens	-12923
▁kill	-12924
observation	-12925
▁félicitons	-12926
▁practically	-12927
▁johannesburg	-12928
▁inappropriate	-12929
▁manifestation	-12930
ched	-12931
▁dure	-12932
▁pages	-12933
▁veter	-12934
autonomie	-12935
▁contenus	-12936
▁existante	-12937
▁incur	-12938
▁recycling	-12939
▁réactions	-12940
▁préférence	-12941
▁persecution	-12942
▁investissement	-12943
▁wholeheartedly	-12944
ïn	-12945
gne	-12946
inger	-12947
▁crain	-12948
▁synth	-12949
▁vraie	-12950
▁espoirs	-12951
école	-12952
▁chacune	-12953
▁telling	-12954
▁assessing	-12955
▁pharmaceutical	-12956
▁tape	-12957
▁xxie	-12958
▁barón	-12959
▁resort	-12960
▁seventh	-12961
▁conjoint	-12962
▁professe	-12963
▁tendances	-12964
▁thessalon	-12965
▁audiovisual	-12966
▁constituency	-12967
ky	-12968
loc	-12969
▁2013.	-12970
▁cypri	-12971
entamer	-12972
ontiers	-12973
énagement	-12974
▁autorisé	-12975
atlantique	-12976
▁impatience	-12977
▁appreciation	-12978
▁vérification	-12979
▁bureaucratique	-12980
ún	-12981
▁surplus	-12982
▁broadcas	-12983
▁volontiers	-12984
▁tuna	-12985
▁arbitra	-12986
▁pillars	-12987
inquiétude	-12988
▁qualitative	-12989
▁kla	-12990
▁won	-12991
▁lamy	-12992
▁vary	-12993
▁inher	-12994
▁images	-12995
5-04	-12996
▁chaos	-12997
▁vieux	-12998
▁définit	-12999
▁reposer	-13000
▁remained	-13001
▁isolation	-13002
attribution	-13003
▁forts	-13004
▁chauff	-13005
▁alloués	-13006
establish	-13007
▁deciding	-13008
▁légal	-13009
▁prêter	-13010
▁consulter	-13011
onte	-13012
izing	-13013
▁schmid	-13014
▁estiment	-13015
▁corporate	-13016
▁partagent	-13017
▁disparition	-13018
▁characterised	-13019
▁jouets	-13020
▁mondiales	-13021
4-00	-13022
▁800	-13023
onnée	-13024
siasm	-13025
▁rendue	-13026
▁dérogations	-13027
▁systematically	-13028
ppe	-13029
▁alg	-13030
▁atom	-13031
▁substitu	-13032
▁pc	-13033
▁ble	-13034
▁2013	-13035
▁interc	-13036
▁desquels	-13037
▁normally	-13038
▁découlant	-13039
▁remplacement	-13040
▁ali	-13041
▁pnr	-13042
▁bottom	-13043
▁appuyer	-13044
▁figurer	-13045
▁incidence	-13046
▁confirmation	-13047
veurs	-13048
▁scén	-13049
▁arabe	-13050
▁bange	-13051
▁stating	-13052
▁intéressante	-13053
▁opérationnel	-13054
▁sexe	-13055
person	-13056
▁turcs	-13057
▁ravie	-13058
aboutir	-13059
▁inclusive	-13060
acceptables	-13061
▁automatically	-13062
investissements	-13063
gans	-13064
▁surviv	-13065
▁disposée	-13066
▁conjointe	-13067
▁travelling	-13068
▁xénophobie	-13069
▁coordinating	-13070
oo	-13071
▁cold	-13072
▁stopped	-13073
▁dépasser	-13074
▁bangemann	-13075
▁demanded	-13076
▁extremis	-13077
▁recorded	-13078
▁réalités	-13079
▁deviendra	-13080
▁administratifs	-13081
▁dap	-13082
▁games	-13083
▁latvia	-13084
▁préven	-13085
▁generate	-13086
▁concilier	-13087
▁naturelle	-13088
▁comitology	-13089
▁criticised	-13090
ome	-13091
gments	-13092
▁motif	-13093
▁subir	-13094
▁chocol	-13095
▁denoun	-13096
▁underp	-13097
▁ampleur	-13098
▁offrent	-13099
▁civilians	-13100
▁approfondi	-13101
élarg	-13102
▁earthqu	-13103
▁évoluer	-13104
▁offences	-13105
▁deadlines	-13106
▁estimates	-13107
▁references	-13108
▁protectionism	-13109
▁horm	-13110
▁lamb	-13111
▁disse	-13112
▁cathol	-13113
▁vienna	-13114
▁réchauff	-13115
▁africaine	-13116
▁interference	-13117
nez	-13118
being	-13119
▁cibl	-13120
▁thon	-13121
▁faibl	-13122
▁allait	-13123
▁amener	-13124
▁democracies	-13125
rs	-13126
▁rehn	-13127
▁attaque	-13128
▁besides	-13129
▁crainte	-13130
▁location	-13131
▁requises	-13132
▁survival	-13133
▁attendant	-13134
▁criticisms	-13135
▁disponibilité	-13136
▁dérég	-13137
▁stimulate	-13138
▁era	-13139
hardt	-13140
albanie	-13141
▁fixées	-13142
▁bénéficié	-13143
▁bénéfique	-13144
ensen	-13145
▁pesc	-13146
▁zero	-13147
▁rétic	-13148
▁disarm	-13149
▁placing	-13150
▁montagne	-13151
▁incidentally	-13152
ulous	-13153
▁jeter	-13154
▁douane	-13155
▁fédéral	-13156
▁complied	-13157
▁possèdent	-13158
▁prévoyant	-13159
ín	-13160
dor	-13161
ilty	-13162
orter	-13163
▁pair	-13164
▁sécur	-13165
érément	-13166
▁morator	-13167
▁superfic	-13168
▁troubles	-13169
▁déboucher	-13170
▁entendons	-13171
▁thoroughly	-13172
▁inacceptables	-13173
ena	-13174
▁15,	-13175
▁fan	-13176
▁renational	-13177
▁vieillissement	-13178
kel	-13179
oms	-13180
onds	-13181
▁tens	-13182
▁recul	-13183
▁algeria	-13184
▁défavorisées	-13185
erate	-13186
▁hague	-13187
▁trains	-13188
▁estonia	-13189
▁worried	-13190
▁subjected	-13191
prud	-13192
▁onto	-13193
▁decade	-13194
▁accessibles	-13195
burant	-13196
▁scrup	-13197
▁spati	-13198
▁rendus	-13199
▁dissemin	-13200
▁formally	-13201
▁investing	-13202
anou	-13203
tera	-13204
inson	-13205
▁topics	-13206
▁volati	-13207
▁reprend	-13208
▁douanière	-13209
▁obligés	-13210
▁inférieur	-13211
▁authorised	-13212
▁hiv	-13213
▁arme	-13214
▁guilty	-13215
depth	-13216
▁lance	-13217
occuper	-13218
opposer	-13219
▁banana	-13220
▁arrivés	-13221
▁assessed	-13222
▁channels	-13223
▁obtaining	-13224
inary	-13225
▁congé	-13226
▁panel	-13227
▁lesson	-13228
▁diverse	-13229
▁kurdish	-13230
▁province	-13231
▁contributes	-13232
▁ideological	-13233
▁flé	-13234
board	-13235
▁erika	-13236
envoyer	-13237
▁minutie	-13238
▁négocié	-13239
▁serions	-13240
▁carburants	-13241
▁travaillant	-13242
ller	-13243
trons	-13244
langes	-13245
▁cruel	-13246
▁inclut	-13247
▁nullement	-13248
fsp	-13249
▁95	-13250
ione	-13251
iales	-13252
arition	-13253
▁grants	-13254
informer	-13255
▁producer	-13256
▁scheduled	-13257
▁punishment	-13258
▁retirement	-13259
fie	-13260
▁rw	-13261
version	-13262
▁résumé	-13263
▁victory	-13264
▁eurojust	-13265
▁septième	-13266
▁raisonnables	-13267
zá	-13268
chez	-13269
▁christians	-13270
▁continuons	-13271
det	-13272
▁bén	-13273
▁floods	-13274
▁automobil	-13275
▁gol	-13276
▁wake	-13277
▁avance	-13278
▁quarte	-13279
▁sharon	-13280
▁industrielles	-13281
▁sag	-13282
▁user	-13283
▁valoir	-13284
inquiète	-13285
▁délicat	-13286
▁reminded	-13287
▁donateurs	-13288
▁parvenons	-13289
▁transporteurs	-13290
28	-13291
▁voulait	-13292
accélérer	-13293
▁creative	-13294
▁genocide	-13295
▁notation	-13296
▁pornograph	-13297
▁déterminant	-13298
▁secretariat	-13299
atie	-13300
▁protectionnisme	-13301
▁everyday	-13302
importants	-13303
▁religieux	-13304
▁pensioners	-13305
▁1%	-13306
▁sir	-13307
overed	-13308
▁souffre	-13309
▁traditionnelles	-13310
▁š	-13311
▁exec	-13312
▁chambre	-13313
▁combine	-13314
▁déposer	-13315
afric	-13316
cedented	-13317
▁correction	-13318
▁moratorium	-13319
▁rab	-13320
▁zéro	-13321
▁affectés	-13322
▁attaquer	-13323
democratic	-13324
▁manoeuvre	-13325
▁venezuela	-13326
▁hô	-13327
▁faces	-13328
▁reporter	-13329
▁cigarettes	-13330
16	-13331
abus	-13332
iler	-13333
▁empty	-13334
▁split	-13335
▁abordés	-13336
▁fondées	-13337
▁sanitaire	-13338
▁demonstration	-13339
▁normalisation	-13340
▁fluct	-13341
▁patents	-13342
▁reconci	-13343
▁refusal	-13344
▁avoiding	-13345
▁ressenti	-13346
▁déte	-13347
rested	-13348
usions	-13349
▁passing	-13350
admission	-13351
▁mountain	-13352
▁moratoire	-13353
▁unprecedented	-13354
19	-13355
▁fré	-13356
respo	-13357
▁1993	-13358
▁liter	-13359
▁arises	-13360
▁delicate	-13361
▁generous	-13362
▁religions	-13363
▁intérimaire	-13364
borg	-13365
chet	-13366
▁célé	-13367
▁émanant	-13368
▁israélien	-13369
yde	-13370
▁suspens	-13371
▁mem	-13372
▁tardi	-13373
▁crespo	-13374
▁ouverts	-13375
▁realised	-13376
▁prévoient	-13377
▁radioactive	-13378
▁référendums	-13379
▁beneficiaries	-13380
▁9.	-13381
▁traç	-13382
▁barrot	-13383
accident	-13384
▁heavily	-13385
▁rappell	-13386
▁médecins	-13387
▁depth	-13388
▁reloc	-13389
élément	-13390
▁kazakh	-13391
▁parallèle	-13392
▁répondent	-13393
▁facilitating	-13394
▁quantitative	-13395
rompe	-13396
▁épar	-13397
▁créée	-13398
employed	-13399
▁mettons	-13400
▁persuade	-13401
▁asie	-13402
▁injuste	-13403
▁récession	-13404
▁abandonner	-13405
▁conversion	-13406
rapp	-13407
illets	-13408
ivoire	-13409
▁angle	-13410
▁input	-13411
▁préconise	-13412
▁presidencies	-13413
agu	-13414
▁leçon	-13415
▁towns	-13416
▁intégra	-13417
▁immédiat	-13418
▁returned	-13419
▁2007-2013	-13420
▁établissements	-13421
alogue	-13422
▁fermeté	-13423
▁légales	-13424
▁biélorussie	-13425
urés	-13426
acted	-13427
ional	-13428
▁ajus	-13429
▁throw	-13430
▁unequ	-13431
▁tienne	-13432
▁récipro	-13433
activités	-13434
yant	-13435
▁guerres	-13436
▁incomes	-13437
▁discover	-13438
▁lettonie	-13439
▁remarkable	-13440
▁conducteurs	-13441
▁ouvertement	-13442
▁électriques	-13443
▁194	-13444
inspe	-13445
▁scar	-13446
▁illness	-13447
▁démocraties	-13448
incer	-13449
▁berg	-13450
▁david	-13451
▁amérique	-13452
▁arrested	-13453
▁consacrée	-13454
ded	-13455
icing	-13456
▁armen	-13457
▁avéré	-13458
▁préval	-13459
▁révélé	-13460
▁solving	-13461
▁essayons	-13462
▁withdrawn	-13463
▁veu	-13464
▁connue	-13465
▁dûment	-13466
▁accumul	-13467
▁baroness	-13468
initiatives	-13469
▁simultanément	-13470
deau	-13471
ijing	-13472
▁corrid	-13473
▁passons	-13474
▁couverts	-13475
▁reviewed	-13476
▁disparaître	-13477
▁prestations	-13478
▁44	-13479
▁lor	-13480
▁mét	-13481
▁dual	-13482
enegro	-13483
▁falsi	-13484
▁échoué	-13485
▁publish	-13486
▁smoking	-13487
▁cherchent	-13488
▁ath	-13489
▁excellence	-13490
▁phénomènes	-13491
▁soutiendra	-13492
▁présidences	-13493
▁compréhensible	-13494
▁causés	-13495
entielle	-13496
quemment	-13497
éralisme	-13498
▁sessions	-13499
ele	-13500
ivoc	-13501
▁josé	-13502
▁fault	-13503
▁recouv	-13504
▁contrefa	-13505
▁fournies	-13506
▁irresponsible	-13507
ètre	-13508
▁août	-13509
▁apolog	-13510
▁consacrés	-13511
▁coupables	-13512
▁directions	-13513
▁instability	-13514
7.	-13515
bul	-13516
uiss	-13517
▁swe	-13518
▁film	-13519
▁gest	-13520
ativité	-13521
▁faille	-13522
▁listes	-13523
▁découle	-13524
▁tentent	-13525
obtention	-13526
▁jurisprud	-13527
▁atmosphere	-13528
water	-13529
▁root	-13530
iement	-13531
univers	-13532
▁vitale	-13533
▁parvenue	-13534
▁identifier	-13535
14	-13536
ults	-13537
èves	-13538
▁misle	-13539
▁ramen	-13540
habitude	-13541
▁reverse	-13542
▁sectori	-13543
▁anywhere	-13544
▁removing	-13545
▁transmet	-13546
▁addresses	-13547
▁indicates	-13548
▁meanwhile	-13549
▁retraités	-13550
▁difficilement	-13551
erto	-13552
▁bird	-13553
▁énon	-13554
▁thinks	-13555
▁abolish	-13556
identifier	-13557
▁recognising	-13558
▁trompe	-13559
▁biological	-13560
▁insuffisante	-13561
▁néerlandaise	-13562
ardo	-13563
ander	-13564
parti	-13565
accession	-13566
▁mauvaises	-13567
inen	-13568
itig	-13569
quait	-13570
▁adding	-13571
▁témoign	-13572
▁faiblesse	-13573
▁estimations	-13574
▁46	-13575
▁align	-13576
▁billets	-13577
▁differently	-13578
▁déç	-13579
reevy	-13580
actuel	-13581
intéress	-13582
▁bataille	-13583
▁ouvertes	-13584
▁ressource	-13585
▁fragmentation	-13586
fat	-13587
with	-13588
usses	-13589
estock	-13590
▁imposé	-13591
apprendre	-13592
▁imaginer	-13593
▁clarified	-13594
▁sustained	-13595
▁8.	-13596
èvre	-13597
▁lad	-13598
▁enfre	-13599
▁foods	-13600
▁portes	-13601
argument	-13602
▁acceptée	-13603
▁ultimate	-13604
▁wis	-13605
▁réit	-13606
▁lanka	-13607
▁unité	-13608
▁libérer	-13609
▁fontaine	-13610
▁responding	-13611
▁translation	-13612
accroissement	-13613
▁confrontation	-13614
curity	-13615
▁datab	-13616
essayer	-13617
▁régissant	-13618
▁reconnaissons	-13619
13	-13620
▁sand	-13621
ambigu	-13622
undering	-13623
▁beijing	-13624
▁plainte	-13625
▁mccreevy	-13626
▁occupied	-13627
▁workforce	-13628
▁reinforced	-13629
▁140	-13630
▁desper	-13631
▁annuels	-13632
▁exclude	-13633
▁traitée	-13634
▁vigilant	-13635
▁emphasises	-13636
▁fonctionnent	-13637
lux	-13638
ador	-13639
▁entr	-13640
arrass	-13641
▁asian	-13642
▁injustif	-13643
rehensible	-13644
▁défenseurs	-13645
▁intéressés	-13646
▁elimination	-13647
▁disadvantage	-13648
cor	-13649
ford	-13650
stad	-13651
etric	-13652
▁riche	-13653
▁rouge	-13654
▁ancien	-13655
▁commod	-13656
éliminer	-13657
▁favorise	-13658
▁monopole	-13659
▁susciter	-13660
▁livestock	-13661
▁qualifiés	-13662
▁attempting	-13663
30.	-13664
▁mens	-13665
▁pick	-13666
▁formid	-13667
institut	-13668
▁résolue	-13669
▁quantity	-13670
▁résultant	-13671
▁manifester	-13672
▁souffrance	-13673
▁km	-13674
cott	-13675
tivis	-13676
▁annan	-13677
▁placé	-13678
▁posed	-13679
▁vérif	-13680
▁trends	-13681
▁2000-200	-13682
▁consists	-13683
▁integral	-13684
▁synergies	-13685
▁désarmement	-13686
▁côtes	-13687
▁safer	-13688
▁entour	-13689
▁transm	-13690
▁origine	-13691
▁carburant	-13692
▁monopolies	-13693
èques	-13694
▁murde	-13695
▁mutil	-13696
▁publier	-13697
▁quarter	-13698
▁supérieure	-13699
▁surprising	-13700
17	-13701
amp	-13702
ergy	-13703
osyst	-13704
/2002)	-13705
▁brève	-13706
▁lende	-13707
europol	-13708
▁overlook	-13709
▁détaillées	-13710
▁normalement	-13711
▁proportions	-13712
▁réchauffement	-13713
▁webs	-13714
lander	-13715
▁donor	-13716
▁intimid	-13717
▁believed	-13718
▁wonderful	-13719
▁luxembourge	-13720
▁prerequisite	-13721
▁gulf	-13722
▁tril	-13723
▁promp	-13724
▁disgra	-13725
▁frappé	-13726
▁soutenant	-13727
▁disparities	-13728
asus	-13729
▁roll	-13730
▁aidera	-13731
▁bonino	-13732
▁governed	-13733
▁villages	-13734
▁abolished	-13735
▁couverture	-13736
▁registered	-13737
trait	-13738
▁ends	-13739
▁remit	-13740
immunité	-13741
▁députée	-13742
▁strikes	-13743
approfond	-13744
▁géographiques	-13745
stadt	-13746
▁interrog	-13747
▁securing	-13748
▁considérées	-13749
▁fréquemment	-13750
▁fame	-13751
▁haiti	-13752
▁exposés	-13753
▁pointing	-13754
▁witnessed	-13755
▁religieuse	-13756
zhe	-13757
▁aimer	-13758
▁gases	-13759
▁divide	-13760
▁incorrect	-13761
▁finlandaise	-13762
nera	-13763
otti	-13764
arrivée	-13765
▁affair	-13766
▁ensures	-13767
▁isolated	-13768
▁identiques	-13769
▁distorsions	-13770
▁réglementaires	-13771
▁served	-13772
mström	-13773
utable	-13774
▁delors	-13775
▁dictator	-13776
▁justifiée	-13777
▁interconne	-13778
▁mainstreaming	-13779
)0	-13780
bus	-13781
▁sees	-13782
énégro	-13783
▁moves	-13784
▁shock	-13785
orously	-13786
▁souffr	-13787
▁fournis	-13788
▁voiture	-13789
▁expenses	-13790
▁florence	-13791
▁criticise	-13792
▁renforçant	-13793
▁veterinary	-13794
▁migratoires	-13795
▁économiquement	-13796
▁unh	-13797
▁sols	-13798
▁adjour	-13799
▁optique	-13800
▁advances	-13801
▁malmström	-13802
▁productions	-13803
▁contraignante	-13804
▁kir	-13805
enous	-13806
▁wild	-13807
attirer	-13808
▁réservé	-13809
▁pipeline	-13810
▁proposant	-13811
▁unequivoc	-13812
▁équivoque	-13813
installation	-13814
▁traçabilité	-13815
aced	-13816
lete	-13817
▁hid	-13818
▁por	-13819
▁cfsp	-13820
teborg	-13821
▁guinea	-13822
▁austral	-13823
▁autriche	-13824
▁limiting	-13825
▁soulevée	-13826
▁inequality	-13827
▁transplant	-13828
tio	-13829
indemn	-13830
ténuer	-13831
▁brill	-13832
▁specul	-13833
ortement	-13834
▁ralenti	-13835
▁advisory	-13836
▁préparatifs	-13837
abst	-13838
determ	-13839
▁azerb	-13840
▁copyr	-13841
▁extrém	-13842
▁genetic	-13843
▁horizont	-13844
▁conformes	-13845
lementation	-13846
▁poorer	-13847
▁describe	-13848
▁justifié	-13849
▁stresses	-13850
▁montenegro	-13851
cend	-13852
▁dair	-13853
▁diplô	-13854
▁doive	-13855
▁formula	-13856
▁caucasus	-13857
▁apparaître	-13858
lla	-13859
▁qua	-13860
ánamo	-13861
▁chron	-13862
▁tarifs	-13863
▁apportera	-13864
▁identique	-13865
▁guantánamo	-13866
▁relationships	-13867
erte	-13868
▁oli	-13869
impos	-13870
ipped	-13871
utors	-13872
▁avoc	-13873
▁prosp	-13874
▁göteborg	-13875
termination	-13876
▁possession	-13877
▁availability	-13878
▁jurisprudence	-13879
▁14,	-13880
▁nan	-13881
▁emphasize	-13882
▁illegally	-13883
▁islamique	-13884
▁combination	-13885
cours	-13886
▁famine	-13887
▁distances	-13888
▁recession	-13889
▁persistent	-13890
cast	-13891
▁agré	-13892
▁élan	-13893
▁cells	-13894
▁délits	-13895
▁knowing	-13896
▁mexique	-13897
▁insuffisant	-13898
▁problematic	-13899
bg	-13900
ibli	-13901
adesh	-13902
▁roum	-13903
▁oppon	-13904
vitable	-13905
▁cancún	-13906
▁lendemain	-13907
band	-13908
▁cia	-13909
ladesh	-13910
▁acade	-13911
▁alter	-13912
▁situe	-13913
▁interreg	-13914
▁inevitable	-13915
▁diplomatiques	-13916
ias	-13917
ower	-13918
années	-13919
▁mitig	-13920
▁enjoyed	-13921
▁satisfy	-13922
▁chancell	-13923
▁disgrace	-13924
▁endroits	-13925
▁energies	-13926
▁consentis	-13927
▁renouvelable	-13928
▁tox	-13929
▁stem	-13930
zheimer	-13931
▁prémat	-13932
▁predict	-13933
▁génocide	-13934
▁partisan	-13935
▁continuité	-13936
▁admet	-13937
▁epide	-13938
▁arctic	-13939
▁gather	-13940
▁hasard	-13941
▁lowest	-13942
efforcer	-13943
▁caucase	-13944
▁rejoins	-13945
▁enregistre	-13946
▁spéculation	-13947
▁condemnation	-13948
ault	-13949
▁thro	-13950
▁excéd	-13951
▁céréales	-13952
▁limitées	-13953
▁frustration	-13954
▁rétablissement	-13955
usi	-13956
▁balkan	-13957
▁caught	-13958
▁strive	-13959
impliquer	-13960
▁confirms	-13961
(1)	-13962
ogau	-13963
▁coc	-13964
▁ray	-13965
ission	-13966
itique	-13967
▁score	-13968
présent	-13969
▁autonome	-13970
▁proximité	-13971
▁contraints	-13972
▁demanderai	-13973
▁philosophy	-13974
▁rassembler	-13975
▁cox	-13976
▁exh	-13977
▁wogau	-13978
associer	-13979
▁parlent	-13980
▁tolérer	-13981
▁détruire	-13982
▁frontiers	-13983
▁enthusiasm	-13984
▁bilatérales	-13985
endt	-13986
▁box	-13987
andes	-13988
oints	-13989
▁haye	-13990
émique	-13991
▁medina	-13992
rapporte	-13993
olly	-13994
éric	-13995
effond	-13996
▁brefs	-13997
▁dairy	-13998
▁accéder	-13999
▁claimed	-14000
▁suggéré	-14001
▁monopoles	-14002
▁manufacturing	-14003
ïs	-14004
back	-14005
▁60%	-14006
▁byr	-14007
▁emerge	-14008
▁finger	-14009
▁occuper	-14010
▁concluding	-14011
▁doctors	-14012
▁acceptés	-14013
▁publicly	-14014
▁réexamen	-14015
▁precedent	-14016
▁progressé	-14017
▁préoccupés	-14018
▁foy	-14019
▁rum	-14020
▁déplor	-14021
▁fièvre	-14022
▁footing	-14023
▁facilité	-14024
▁prétendre	-14025
domin	-14026
▁coul	-14027
▁drop	-14028
▁retir	-14029
embargo	-14030
▁confed	-14031
▁lulling	-14032
productive	-14033
▁acceptables	-14034
▁pê	-14035
▁appeared	-14036
▁vigilance	-14037
emed	-14038
▁nov	-14039
ticed	-14040
▁heur	-14041
▁feels	-14042
▁gains	-14043
affirme	-14044
éléments	-14045
▁abortion	-14046
erie	-14047
▁gets	-14048
▁phot	-14049
▁byrne	-14050
▁nôtre	-14051
▁policière	-14052
▁incapables	-14053
▁interpreted	-14054
▁wal	-14055
oning	-14056
▁doig	-14057
quants	-14058
▁nommé	-14059
▁belgrade	-14060
▁dépenser	-14061
▁concernée	-14062
▁expériment	-14063
▁fondements	-14064
▁modulation	-14065
▁velzen	-14066
▁langage	-14067
▁guidance	-14068
▁retrouve	-14069
▁copyright	-14070
▁indiquent	-14071
▁opérationnelle	-14072
net	-14073
▁critiquer	-14074
▁implication	-14075
▁nationalité	-14076
18	-14077
etor	-14078
▁jet	-14079
▁chief	-14080
▁cattle	-14081
▁overse	-14082
▁earmarked	-14083
▁threatening	-14084
▁gê	-14085
▁ken	-14086
▁chant	-14087
▁tremb	-14088
▁yield	-14089
▁enregistré	-14090
▁progression	-14091
big	-14092
▁sép	-14093
▁fleets	-14094
▁dioxide	-14095
▁préférences	-14096
▁redou	-14097
annonce	-14098
inscrire	-14099
▁couvert	-14100
▁handled	-14101
▁survive	-14102
▁journaux	-14103
▁promotes	-14104
▁suffisants	-14105
▁tremendous	-14106
rob	-14107
▁wood	-14108
▁aiming	-14109
▁outbre	-14110
▁spectr	-14111
▁warming	-14112
▁parviennent	-14113
▁philosophie	-14114
▁irrégularités	-14115
▁professionnel	-14116
rest	-14117
▁bét	-14118
▁cité	-14119
▁marg	-14120
▁dissim	-14121
▁cologne	-14122
▁autonomous	-14123
▁biologiques	-14124
jug	-14125
cking	-14126
▁poul	-14127
attente	-14128
▁lament	-14129
▁fédérale	-14130
▁initialement	-14131
pass	-14132
▁empre	-14133
▁broken	-14134
▁misère	-14135
▁pragmatic	-14136
▁unilatérale	-14137
29	-14138
▁39	-14139
▁rio	-14140
ficien	-14141
[...]
